// Modelo TFLite generado por ml/train_model.py
// NO EDITAR
// Tamano: 18280 bytes | Input: (150, 4) en g
#pragma once

#include <cstdint>

static constexpr uint32_t FALL_MODEL_SIZE = 18280;

alignas(16) static const uint8_t fall_model_data[18280] = {
    0x1C, 0x00, 0x00, 0x00, 0x54, 0x46, 0x4C, 0x33, 0x14, 0x00, 0x20, 0x00,
    0x1C, 0x00, 0x18, 0x00, 0x14, 0x00, 0x10, 0x00, 0x0C, 0x00, 0x00, 0x00,
    0x08, 0x00, 0x04, 0x00, 0x14, 0x00, 0x00, 0x00, 0x1C, 0x00, 0x00, 0x00,
    0x8C, 0x00, 0x00, 0x00, 0xE4, 0x00, 0x00, 0x00, 0x4C, 0x18, 0x00, 0x00,
    0x5C, 0x18, 0x00, 0x00, 0x60, 0x46, 0x00, 0x00, 0x03, 0x00, 0x00, 0x00,
    0x01, 0x00, 0x00, 0x00, 0x04, 0x00, 0x00, 0x00, 0x96, 0xE3, 0xFF, 0xFF,
    0x0C, 0x00, 0x00, 0x00, 0x1C, 0x00, 0x00, 0x00, 0x3C, 0x00, 0x00, 0x00,
    0x0F, 0x00, 0x00, 0x00, 0x73, 0x65, 0x72, 0x76, 0x69, 0x6E, 0x67, 0x5F,
    0x64, 0x65, 0x66, 0x61, 0x75, 0x6C, 0x74, 0x00, 0x01, 0x00, 0x00, 0x00,
    0x04, 0x00, 0x00, 0x00, 0x90, 0xFF, 0xFF, 0xFF, 0x2C, 0x00, 0x00, 0x00,
    0x04, 0x00, 0x00, 0x00, 0x08, 0x00, 0x00, 0x00, 0x6F, 0x75, 0x74, 0x70,
    0x75, 0x74, 0x5F, 0x30, 0x00, 0x00, 0x00, 0x00, 0x01, 0x00, 0x00, 0x00,
    0x04, 0x00, 0x00, 0x00, 0x3A, 0xE8, 0xFF, 0xFF, 0x04, 0x00, 0x00, 0x00,
    0x0C, 0x00, 0x00, 0x00, 0x6B, 0x65, 0x72, 0x61, 0x73, 0x5F, 0x74, 0x65,
    0x6E, 0x73, 0x6F, 0x72, 0x00, 0x00, 0x00, 0x00, 0x02, 0x00, 0x00, 0x00,
    0x34, 0x00, 0x00, 0x00, 0x04, 0x00, 0x00, 0x00, 0xDC, 0xFF, 0xFF, 0xFF,
    0x2F, 0x00, 0x00, 0x00, 0x04, 0x00, 0x00, 0x00, 0x13, 0x00, 0x00, 0x00,
    0x43, 0x4F, 0x4E, 0x56, 0x45, 0x52, 0x53, 0x49, 0x4F, 0x4E, 0x5F, 0x4D,
    0x45, 0x54, 0x41, 0x44, 0x41, 0x54, 0x41, 0x00, 0x08, 0x00, 0x0C, 0x00,
    0x08, 0x00, 0x04, 0x00, 0x08, 0x00, 0x00, 0x00, 0x2E, 0x00, 0x00, 0x00,
    0x04, 0x00, 0x00, 0x00, 0x13, 0x00, 0x00, 0x00, 0x6D, 0x69, 0x6E, 0x5F,
    0x72, 0x75, 0x6E, 0x74, 0x69, 0x6D, 0x65, 0x5F, 0x76, 0x65, 0x72, 0x73,
    0x69, 0x6F, 0x6E, 0x00, 0x30, 0x00, 0x00, 0x00, 0x64, 0x17, 0x00, 0x00,
    0x5C, 0x17, 0x00, 0x00, 0x48, 0x17, 0x00, 0x00, 0x24, 0x17, 0x00, 0x00,
    0x10, 0x17, 0x00, 0x00, 0xF4, 0x16, 0x00, 0x00, 0xD8, 0x16, 0x00, 0x00,
    0xBC, 0x16, 0x00, 0x00, 0xA0, 0x16, 0x00, 0x00, 0x8C, 0x16, 0x00, 0x00,
    0x6C, 0x16, 0x00, 0x00, 0x1C, 0x16, 0x00, 0x00, 0x0C, 0x15, 0x00, 0x00,
    0xBC, 0x14, 0x00, 0x00, 0xAC, 0x0E, 0x00, 0x00, 0x7C, 0x0E, 0x00, 0x00,
    0x4C, 0x0E, 0x00, 0x00, 0xBC, 0x0D, 0x00, 0x00, 0xAC, 0x03, 0x00, 0x00,
    0x8C, 0x03, 0x00, 0x00, 0x6C, 0x03, 0x00, 0x00, 0x1C, 0x03, 0x00, 0x00,
    0x4C, 0x01, 0x00, 0x00, 0x44, 0x01, 0x00, 0x00, 0x3C, 0x01, 0x00, 0x00,
    0x34, 0x01, 0x00, 0x00, 0x2C, 0x01, 0x00, 0x00, 0x24, 0x01, 0x00, 0x00,
    0x1C, 0x01, 0x00, 0x00, 0x14, 0x01, 0x00, 0x00, 0x0C, 0x01, 0x00, 0x00,
    0x04, 0x01, 0x00, 0x00, 0xFC, 0x00, 0x00, 0x00, 0xF4, 0x00, 0x00, 0x00,
    0xEC, 0x00, 0x00, 0x00, 0xE4, 0x00, 0x00, 0x00, 0xDC, 0x00, 0x00, 0x00,
    0xD4, 0x00, 0x00, 0x00, 0xCC, 0x00, 0x00, 0x00, 0xC4, 0x00, 0x00, 0x00,
    0xBC, 0x00, 0x00, 0x00, 0xB4, 0x00, 0x00, 0x00, 0xAC, 0x00, 0x00, 0x00,
    0xA4, 0x00, 0x00, 0x00, 0x9C, 0x00, 0x00, 0x00, 0x94, 0x00, 0x00, 0x00,
    0x74, 0x00, 0x00, 0x00, 0x04, 0x00, 0x00, 0x00, 0x76, 0xE9, 0xFF, 0xFF,
    0x04, 0x00, 0x00, 0x00, 0x60, 0x00, 0x00, 0x00, 0x0C, 0x00, 0x00, 0x00,
    0x08, 0x00, 0x0E, 0x00, 0x08, 0x00, 0x04, 0x00, 0x08, 0x00, 0x00, 0x00,
    0x10, 0x00, 0x00, 0x00, 0x28, 0x00, 0x00, 0x00, 0x00, 0x00, 0x06, 0x00,
    0x08, 0x00, 0x04, 0x00, 0x06, 0x00, 0x00, 0x00, 0x04, 0x00, 0x00, 0x00,
    0x01, 0x00, 0x00, 0x00, 0xEB, 0x03, 0x00, 0x00, 0x0C, 0x00, 0x18, 0x00,
    0x14, 0x00, 0x10, 0x00, 0x0C, 0x00, 0x04, 0x00, 0x0C, 0x00, 0x00, 0x00,
    0xCF, 0x91, 0xAC, 0x53, 0x49, 0xFE, 0xC9, 0x06, 0x02, 0x00, 0x00, 0x00,
    0x02, 0x00, 0x00, 0x00, 0x04, 0x00, 0x00, 0x00, 0x06, 0x00, 0x00, 0x00,
    0x32, 0x2E, 0x32, 0x31, 0x2E, 0x30, 0x00, 0x00, 0xE2, 0xE9, 0xFF, 0xFF,
    0x04, 0x00, 0x00, 0x00, 0x10, 0x00, 0x00, 0x00, 0x31, 0x2E, 0x31, 0x34,
    0x2E, 0x30, 0x00, 0x00, 0x00, 0x00, 0x00, 0x00, 0x00, 0x00, 0x00, 0x00,
    0x8C, 0xBC, 0xFF, 0xFF, 0x90, 0xBC, 0xFF, 0xFF, 0x94, 0xBC, 0xFF, 0xFF,
    0x98, 0xBC, 0xFF, 0xFF, 0x9C, 0xBC, 0xFF, 0xFF, 0xA0, 0xBC, 0xFF, 0xFF,
    0xA4, 0xBC, 0xFF, 0xFF, 0xA8, 0xBC, 0xFF, 0xFF, 0xAC, 0xBC, 0xFF, 0xFF,
    0xB0, 0xBC, 0xFF, 0xFF, 0xB4, 0xBC, 0xFF, 0xFF, 0xB8, 0xBC, 0xFF, 0xFF,
    0xBC, 0xBC, 0xFF, 0xFF, 0xC0, 0xBC, 0xFF, 0xFF, 0xC4, 0xBC, 0xFF, 0xFF,
    0xC8, 0xBC, 0xFF, 0xFF, 0xCC, 0xBC, 0xFF, 0xFF, 0xD0, 0xBC, 0xFF, 0xFF,
    0xD4, 0xBC, 0xFF, 0xFF, 0xD8, 0xBC, 0xFF, 0xFF, 0xDC, 0xBC, 0xFF, 0xFF,
    0xE0, 0xBC, 0xFF, 0xFF, 0xE4, 0xBC, 0xFF, 0xFF, 0x5A, 0xEA, 0xFF, 0xFF,
    0x04, 0x00, 0x00, 0x00, 0xC0, 0x01, 0x00, 0x00, 0x13, 0x43, 0x9A, 0x0B,
    0xB2, 0x22, 0x88, 0x07, 0xD7, 0x26, 0xDC, 0x0E, 0x82, 0xAF, 0x2B, 0x66,
    0x81, 0xFE, 0x43, 0x1D, 0x25, 0xE1, 0x70, 0xFD, 0xA8, 0xDB, 0x96, 0x47,
    0x0A, 0xC7, 0x25, 0x7F, 0x1B, 0xB8, 0x31, 0x75, 0x1E, 0xAD, 0xC4, 0x5E,
    0x67, 0x5A, 0x63, 0x02, 0xA0, 0x0A, 0x87, 0x2B, 0xB1, 0x71, 0x38, 0x79,
    0xFD, 0x9A, 0xFC, 0x2B, 0xA1, 0x2A, 0x3D, 0xEB, 0x67, 0x12, 0xB4, 0xAB,
    0xEE, 0xC6, 0x81, 0x99, 0xC2, 0x03, 0x1A, 0x6E, 0x26, 0x0A, 0x03, 0x10,
    0x10, 0x4D, 0x98, 0x51, 0x37, 0x99, 0x8F, 0x83, 0xF0, 0x35, 0xE5, 0x30,
    0xC0, 0x5C, 0xAD, 0xFC, 0x31, 0xEB, 0x4C, 0xE3, 0x43, 0x96, 0x16, 0xC7,
    0xAB, 0x86, 0x14, 0xB4, 0x2D, 0x81, 0xB8, 0x32, 0x08, 0x4E, 0x0F, 0xFF,
    0x1D, 0x43, 0xF1, 0xDE, 0x91, 0xE4, 0xFC, 0x49, 0x26, 0x63, 0xC9, 0x06,
    0x40, 0x53, 0x22, 0x92, 0xC3, 0xE7, 0xBE, 0xAF, 0x3B, 0xDD, 0x49, 0xBB,
    0xD0, 0x81, 0xCF, 0xC9, 0xD6, 0x58, 0xA9, 0xA2, 0x81, 0xA5, 0x56, 0x38,
    0xC5, 0x52, 0xD0, 0x4A, 0x54, 0x9E, 0xEB, 0x41, 0x05, 0xF1, 0x49, 0x5A,
    0x24, 0x2C, 0x53, 0xFB, 0xF6, 0xEC, 0x26, 0x55, 0xF6, 0xB0, 0x0D, 0xB0,
    0xBD, 0x31, 0x05, 0x3E, 0xA4, 0xCA, 0x1A, 0x58, 0xAF, 0xE1, 0xE7, 0x1E,
    0x81, 0xF7, 0xEC, 0xBB, 0xEC, 0xE7, 0xDC, 0xD9, 0xEB, 0x19, 0x42, 0xCF,
    0xC1, 0x51, 0x48, 0x36, 0x51, 0xE7, 0x38, 0x1E, 0xFE, 0xE7, 0x2A, 0x1A,
    0x85, 0x70, 0x32, 0xC1, 0x96, 0x01, 0xB0, 0x05, 0x81, 0x41, 0xAA, 0x46,
    0x49, 0x40, 0x61, 0x2C, 0x2A, 0x40, 0xB2, 0x5F, 0xEB, 0xDB, 0xFA, 0x7F,
    0xE1, 0x0A, 0xF1, 0x74, 0x15, 0xB0, 0xC7, 0x07, 0x00, 0x5C, 0x71, 0xFB,
    0xF6, 0xA3, 0xB6, 0xED, 0x72, 0xB1, 0xEF, 0x00, 0x41, 0x8E, 0x62, 0x81,
    0x12, 0x4E, 0x64, 0xA4, 0xC8, 0x1C, 0xC7, 0xC8, 0x59, 0x28, 0xCB, 0x58,
    0x03, 0x5D, 0x96, 0xEE, 0xCD, 0x50, 0xF0, 0x51, 0xC5, 0xA4, 0x1A, 0xE4,
    0x55, 0x40, 0xB7, 0xB1, 0xD4, 0x01, 0xF5, 0x2A, 0xC8, 0xB0, 0xFC, 0xCC,
    0xA7, 0x2C, 0xC5, 0xA6, 0x1C, 0x1F, 0x7F, 0xF0, 0x3C, 0x2A, 0x6C, 0xE3,
    0x48, 0x2A, 0x92, 0xE1, 0x81, 0x48, 0xFB, 0xCC, 0xA0, 0x03, 0x2F, 0xEF,
    0xE4, 0xF5, 0x11, 0xD2, 0xD3, 0x25, 0x0D, 0x29, 0x2E, 0xBF, 0x16, 0x2D,
    0xBC, 0xD0, 0xE2, 0x09, 0xAB, 0xFB, 0xC0, 0x0A, 0x05, 0xFA, 0xE5, 0x7F,
    0x4F, 0x01, 0x16, 0x4E, 0xCF, 0x42, 0xE5, 0x1C, 0x05, 0x12, 0x63, 0x1F,
    0x51, 0x47, 0x30, 0x38, 0xCB, 0x1B, 0xA6, 0x4E, 0xC1, 0x1C, 0x1A, 0xF6,
    0x3A, 0x31, 0x1B, 0x6D, 0xCA, 0x81, 0x16, 0xE2, 0xE0, 0xB1, 0x63, 0xBC,
    0x93, 0x44, 0xE2, 0x11, 0x2C, 0xA5, 0xC4, 0xE9, 0xC5, 0xB9, 0x44, 0x28,
    0xE3, 0xE1, 0xEB, 0xFE, 0xBF, 0xAF, 0x0C, 0xA4, 0xD9, 0x64, 0xAF, 0xEE,
    0x29, 0x90, 0xE6, 0x19, 0xD6, 0xDB, 0xBB, 0xC4, 0xE4, 0xF4, 0x29, 0x3D,
    0x15, 0x06, 0x0D, 0x0F, 0x81, 0xA2, 0xEB, 0xB5, 0xAE, 0x02, 0xB8, 0xE2,
    0xED, 0xC4, 0xC1, 0xDE, 0x03, 0x0E, 0x1E, 0x41, 0x81, 0xF1, 0x49, 0xFE,
    0xCD, 0xAC, 0x2B, 0xCB, 0x04, 0x16, 0x39, 0x04, 0x2A, 0xFB, 0xF6, 0x06,
    0x26, 0xEC, 0xFF, 0xFF, 0x04, 0x00, 0x00, 0x00, 0x40, 0x00, 0x00, 0x00,
    0xDD, 0x00, 0x00, 0x00, 0x70, 0xF8, 0xFF, 0xFF, 0x4C, 0x02, 0x00, 0x00,
    0xA2, 0x02, 0x00, 0x00, 0x7C, 0x03, 0x00, 0x00, 0x32, 0x00, 0x00, 0x00,
    0xC9, 0x01, 0x00, 0x00, 0x9B, 0xFB, 0xFF, 0xFF, 0xFE, 0x01, 0x00, 0x00,
    0x01, 0x01, 0x00, 0x00, 0x92, 0x02, 0x00, 0x00, 0x9C, 0x00, 0x00, 0x00,
    0x3A, 0xFF, 0xFF, 0xFF, 0xE6, 0xFF, 0xFF, 0xFF, 0xE9, 0x00, 0x00, 0x00,
    0xA5, 0xFE, 0xFF, 0xFF, 0x72, 0xEC, 0xFF, 0xFF, 0x04, 0x00, 0x00, 0x00,
    0x10, 0x00, 0x00, 0x00, 0x99, 0x8D, 0xA8, 0xAE, 0x7F, 0x94, 0xB4, 0xA1,
    0x8F, 0xDA, 0x3D, 0xB7, 0x91, 0xA0, 0xE6, 0xC3, 0x8E, 0xEC, 0xFF, 0xFF,
    0x04, 0x00, 0x00, 0x00, 0x10, 0x00, 0x00, 0x00, 0x17, 0x93, 0x4D, 0x2D,
    0x6E, 0xB1, 0x5A, 0x17, 0x80, 0x72, 0x7F, 0x45, 0x8F, 0x07, 0x3C, 0x58,
    0xAA, 0xEC, 0xFF, 0xFF, 0x04, 0x00, 0x00, 0x00, 0x00, 0x0A, 0x00, 0x00,
    0xB2, 0x3F, 0xFB, 0xEA, 0xE8, 0xE0, 0xE9, 0xC5, 0x3B, 0x21, 0xB8, 0xBA,
    0x7B, 0x27, 0xC3, 0x49, 0x50, 0xF3, 0xF8, 0xFF, 0xF6, 0xCE, 0x48, 0x0E,
    0xBB, 0x81, 0x08, 0xC5, 0xFE, 0x2A, 0x2E, 0x40, 0x2D, 0x0E, 0x17, 0xEF,
    0xFD, 0xF5, 0x1A, 0xCC, 0xFA, 0x19, 0xCD, 0x09, 0x34, 0xB4, 0xDE, 0xEE,
    0xC8, 0x28, 0x0E, 0xD5, 0x0B, 0xF5, 0x03, 0xFC, 0xF7, 0xDD, 0x47, 0x33,
    0x43, 0xC7, 0x11, 0xCB, 0xBB, 0xBC, 0xE0, 0x19, 0x17, 0xAC, 0x09, 0xB1,
    0xAE, 0x15, 0xF7, 0xF9, 0xE0, 0xF4, 0xF5, 0xEA, 0xFF, 0xCB, 0xF3, 0x1D,
    0xDE, 0xE4, 0xD7, 0xFC, 0x1D, 0xEB, 0xC0, 0xE2, 0x02, 0xDC, 0x32, 0x10,
    0x29, 0xE0, 0xD1, 0xF9, 0x56, 0xFB, 0xE6, 0xD9, 0xE9, 0xC5, 0x0B, 0xD0,
    0x2B, 0xE6, 0xB8, 0x26, 0xE2, 0x17, 0x22, 0x0F, 0x0D, 0x2A, 0xFA, 0x15,
    0xE2, 0xE7, 0x81, 0xBE, 0x10, 0x32, 0x26, 0xD2, 0xE9, 0x15, 0xFD, 0xD0,
    0xD1, 0xE6, 0xB6, 0xCD, 0xD7, 0xC1, 0xB6, 0xF0, 0xDD, 0xE8, 0x17, 0x4A,
    0x06, 0xF4, 0x0B, 0xF2, 0x12, 0xEB, 0xEF, 0x27, 0x25, 0xCB, 0x22, 0xBE,
    0x2F, 0x43, 0x29, 0xC3, 0xC0, 0xFE, 0xF8, 0x1B, 0xC6, 0xF7, 0xC4, 0xB0,
    0xE0, 0xEF, 0xC7, 0x18, 0xA3, 0x03, 0x2E, 0xD5, 0x8F, 0xD2, 0x8B, 0x84,
    0x58, 0x5D, 0xF0, 0x21, 0x1C, 0x23, 0xF2, 0x1B, 0xEE, 0x17, 0x26, 0x24,
    0x2F, 0x62, 0xB3, 0xCA, 0xC7, 0xB2, 0x56, 0xB7, 0x46, 0xFB, 0x1A, 0x81,
    0x11, 0xE4, 0x01, 0x22, 0x0B, 0x47, 0x9E, 0x3C, 0xFE, 0x4E, 0x99, 0x4D,
    0xBF, 0x39, 0x1E, 0x1B, 0xDA, 0x5F, 0x0A, 0xF1, 0xD1, 0xC2, 0xBD, 0x0D,
    0x8B, 0xD6, 0xBB, 0xB1, 0x18, 0x14, 0x2D, 0xFB, 0x13, 0xD1, 0x5A, 0xF6,
    0xB3, 0x54, 0xB6, 0x51, 0xE4, 0x04, 0x09, 0xC7, 0xD0, 0x17, 0xE2, 0xFC,
    0x27, 0x30, 0x90, 0x0E, 0x03, 0xCE, 0x1F, 0xF4, 0x31, 0x33, 0x24, 0x4F,
    0x41, 0xDF, 0xEE, 0x67, 0x51, 0xC8, 0x02, 0x14, 0xAF, 0xC8, 0x29, 0x0E,
    0x0B, 0x9A, 0x31, 0x16, 0x1B, 0x31, 0x81, 0xC1, 0xAC, 0x9A, 0xE5, 0xF3,
    0x07, 0x4A, 0x17, 0x5F, 0xE3, 0xC4, 0xBD, 0xFF, 0x25, 0xEE, 0xF4, 0x56,
    0xC2, 0x37, 0x10, 0x24, 0xF4, 0x61, 0x56, 0xEB, 0xE9, 0xD8, 0x0D, 0x34,
    0x68, 0x67, 0x3A, 0x10, 0xE6, 0x95, 0xA5, 0xB7, 0x1D, 0xAF, 0x03, 0x06,
    0xCB, 0x37, 0x3E, 0x96, 0xB3, 0x50, 0x43, 0x1C, 0xAD, 0xCB, 0x2C, 0xE8,
    0xB8, 0x2D, 0x1B, 0x29, 0x47, 0x35, 0xE2, 0x51, 0xF4, 0xAA, 0xEA, 0x25,
    0xD6, 0x3B, 0x1A, 0xE2, 0x17, 0xFF, 0x56, 0xD0, 0x3D, 0xEE, 0x4E, 0x56,
    0xA5, 0x45, 0x47, 0xDE, 0xC0, 0x35, 0xB0, 0xDD, 0x43, 0x92, 0xC1, 0x94,
    0xF7, 0x28, 0x22, 0xE8, 0xDF, 0x50, 0x81, 0x14, 0xE9, 0x3F, 0x49, 0xC8,
    0x08, 0x38, 0x29, 0x0E, 0xB6, 0xDC, 0x3A, 0x2A, 0x0F, 0xAA, 0xF8, 0x35,
    0xB3, 0xF5, 0xE6, 0xFD, 0x0A, 0xEE, 0x40, 0x57, 0x33, 0xBE, 0xC2, 0x06,
    0xFF, 0x04, 0xDD, 0x12, 0xEB, 0x12, 0x19, 0xE0, 0x16, 0x37, 0xDE, 0xD9,
    0x09, 0x49, 0x1F, 0xCA, 0x20, 0xE1, 0x1A, 0xD9, 0xF6, 0xCB, 0x3F, 0x54,
    0xDE, 0xD7, 0xCE, 0xE1, 0xAE, 0xC8, 0xC4, 0xEB, 0xCD, 0xF2, 0xDA, 0x02,
    0x0A, 0x3A, 0x1F, 0xE3, 0x1B, 0xE5, 0x02, 0xBD, 0x06, 0x0F, 0xD0, 0x3A,
    0xF6, 0xFE, 0xB8, 0xB8, 0x19, 0x46, 0xE3, 0xD1, 0x00, 0xF8, 0x40, 0xD7,
    0x81, 0xB6, 0x2C, 0xD0, 0xC8, 0x10, 0x18, 0xFE, 0xEE, 0xC2, 0x21, 0xE9,
    0x2C, 0xC4, 0x52, 0x19, 0x2D, 0x4E, 0xCD, 0x97, 0x27, 0xEE, 0xD0, 0x31,
    0xF6, 0x5B, 0x10, 0xF5, 0xCE, 0xAB, 0x09, 0x3C, 0x81, 0xD1, 0xEC, 0x1E,
    0xD3, 0xE4, 0x13, 0x20, 0xF8, 0xF1, 0x1C, 0x1E, 0x41, 0xEF, 0x20, 0xA7,
    0xF7, 0xB2, 0xC3, 0xD9, 0x3A, 0xC9, 0x12, 0x00, 0x15, 0x21, 0xBD, 0x49,
    0xF4, 0xC0, 0x38, 0x15, 0xFA, 0x44, 0xF3, 0x15, 0x1A, 0xF8, 0x33, 0x45,
    0xD6, 0x13, 0xE6, 0xE9, 0xB4, 0xDC, 0x23, 0xE5, 0x0F, 0xC8, 0x1A, 0xA1,
    0x12, 0x44, 0x13, 0xF3, 0xFA, 0xFE, 0xD4, 0xE1, 0xC9, 0x0C, 0x05, 0xDC,
    0xE4, 0x08, 0x06, 0x19, 0xE2, 0xE4, 0xD6, 0x14, 0x47, 0xCF, 0x10, 0x0E,
    0x02, 0x06, 0xE4, 0xE5, 0x25, 0x2C, 0xE3, 0xC3, 0x1A, 0xA5, 0x08, 0xCB,
    0xF1, 0x61, 0xE9, 0x03, 0x35, 0xD0, 0xFC, 0xD8, 0x94, 0x34, 0x36, 0xED,
    0x0C, 0x1B, 0xC1, 0x20, 0xDB, 0x11, 0x43, 0xD2, 0xC3, 0xEA, 0x10, 0xF5,
    0x7F, 0xF6, 0x3D, 0xBB, 0xC4, 0x30, 0xF8, 0xEA, 0xBD, 0xE6, 0xC6, 0x4D,
    0xC5, 0x1C, 0xE6, 0x34, 0x89, 0x36, 0xCB, 0xE6, 0x14, 0x02, 0x06, 0xF4,
    0x08, 0xD3, 0x36, 0xF6, 0xB7, 0xD0, 0xAB, 0xB0, 0x8E, 0xE8, 0x9D, 0x42,
    0x04, 0xBD, 0xFA, 0x7F, 0xC8, 0x3C, 0xD2, 0x69, 0x1C, 0xFE, 0x3F, 0xBE,
    0x73, 0xE1, 0x0E, 0xFC, 0x3B, 0x4F, 0x1D, 0x9A, 0xD6, 0xEB, 0x26, 0x04,
    0xD9, 0x23, 0xF6, 0xF4, 0xE6, 0x35, 0x30, 0xDC, 0x2F, 0x1A, 0x94, 0x04,
    0x11, 0xF3, 0x30, 0xBE, 0xD8, 0x0C, 0xF0, 0xDD, 0xF5, 0x45, 0xB3, 0xAE,
    0x25, 0xEE, 0x12, 0x1F, 0xB0, 0xEF, 0x59, 0xC0, 0xE6, 0xF6, 0xD9, 0xF9,
    0xCB, 0xBE, 0x07, 0xA8, 0x33, 0xC2, 0x30, 0xD6, 0xEE, 0x27, 0x94, 0x07,
    0xD2, 0x2C, 0x14, 0xB0, 0x13, 0x1B, 0x38, 0xE7, 0xA6, 0x69, 0xB7, 0x17,
    0xCD, 0x44, 0x21, 0xDF, 0x33, 0xC6, 0x00, 0xD9, 0x06, 0xAF, 0x3D, 0xA4,
    0xCD, 0x7F, 0x1B, 0xFF, 0xC5, 0xC7, 0xE5, 0x00, 0xF6, 0x1D, 0x34, 0x35,
    0xB3, 0xB1, 0x23, 0xC0, 0x36, 0xE5, 0x21, 0x1A, 0x13, 0xC0, 0x03, 0x2C,
    0xFE, 0x14, 0x35, 0x1C, 0x0D, 0xFD, 0x24, 0xF9, 0x15, 0xB5, 0xDC, 0x0F,
    0xE4, 0xF6, 0x03, 0x16, 0x1D, 0xE5, 0xE3, 0xE9, 0x2A, 0x0A, 0x41, 0xEE,
    0xF8, 0x12, 0x03, 0xD4, 0xB7, 0xE2, 0x0D, 0xD3, 0x0B, 0x1A, 0xE6, 0xE9,
    0xD8, 0x3A, 0xC0, 0x08, 0x33, 0x4F, 0xF6, 0x0F, 0xAF, 0xE5, 0x61, 0x3B,
    0xCA, 0x12, 0xD1, 0x6C, 0x29, 0xFD, 0x13, 0x17, 0xBB, 0xF5, 0x38, 0x2F,
    0x9D, 0xC6, 0xD7, 0xCC, 0x42, 0xCF, 0xAD, 0xFA, 0x4E, 0x1B, 0xF4, 0x3B,
    0x10, 0xB8, 0xE0, 0x39, 0x45, 0x87, 0x5B, 0x4C, 0x1E, 0x4B, 0xFF, 0x81,
    0x9A, 0x04, 0x47, 0x27, 0x18, 0x13, 0xBA, 0xA2, 0xDA, 0xAD, 0x3A, 0xE7,
    0xBE, 0xC3, 0x27, 0x56, 0x24, 0xF6, 0x0D, 0xAF, 0xD4, 0xE9, 0x5B, 0xCC,
    0x26, 0x57, 0xC2, 0x94, 0x36, 0xBF, 0xE8, 0xBC, 0x81, 0x2E, 0x46, 0x3B,
    0x14, 0xB1, 0xDA, 0x4C, 0xAB, 0xCE, 0x01, 0x25, 0x31, 0xE2, 0xF0, 0xF0,
    0xF7, 0x38, 0xFC, 0x34, 0x33, 0xB3, 0xD5, 0xF5, 0xE0, 0x09, 0x26, 0x3A,
    0xF0, 0xCE, 0xD3, 0xFE, 0x2F, 0xED, 0xA9, 0xE5, 0xA2, 0x1F, 0xE1, 0xB8,
    0xCA, 0xC7, 0xF4, 0xBE, 0xE8, 0x2D, 0xC6, 0x06, 0x5F, 0xDC, 0x32, 0xDD,
    0x31, 0xD4, 0x1C, 0xD7, 0xEB, 0xA8, 0xF8, 0x12, 0x5C, 0xCC, 0xE5, 0x02,
    0x2D, 0xE1, 0x16, 0x18, 0x17, 0x8F, 0x39, 0x4D, 0x2E, 0x57, 0xF5, 0xF1,
    0xE8, 0xBD, 0x08, 0xFD, 0xAD, 0x1D, 0x3D, 0x44, 0xFA, 0xB6, 0x1F, 0x01,
    0xE4, 0x1E, 0x8B, 0xCB, 0xAC, 0x13, 0xF7, 0xEA, 0xE3, 0xB0, 0xF5, 0xD6,
    0xBA, 0x32, 0x45, 0x05, 0x02, 0x54, 0xE6, 0x7F, 0x2E, 0xFA, 0x35, 0x30,
    0x49, 0xE3, 0xA9, 0xCD, 0x13, 0x0D, 0x13, 0x38, 0xBA, 0xB2, 0xBB, 0xFF,
    0x49, 0x1C, 0xF0, 0xAB, 0xDD, 0x49, 0xD1, 0x1A, 0xBF, 0xE2, 0x11, 0x0E,
    0xD8, 0x3C, 0x92, 0xBB, 0xF4, 0x23, 0x4A, 0xF0, 0xF3, 0xBA, 0xF3, 0x39,
    0x23, 0x20, 0x03, 0x67, 0xA6, 0xFB, 0xC7, 0x34, 0x17, 0xB3, 0xD4, 0x16,
    0x97, 0xF2, 0x17, 0x18, 0xEE, 0xFE, 0xDF, 0x13, 0x0D, 0x94, 0x4F, 0x40,
    0x4A, 0x2F, 0xD4, 0xF7, 0x40, 0xD7, 0x2A, 0xAF, 0x3D, 0xD1, 0x3F, 0xEF,
    0x93, 0xA6, 0xC2, 0x3D, 0xC4, 0xEA, 0x4A, 0xC7, 0x10, 0x05, 0xE7, 0x23,
    0xE1, 0x4B, 0x85, 0x24, 0xB3, 0x43, 0xC9, 0x2C, 0xFD, 0x36, 0x8F, 0xC5,
    0xD5, 0x31, 0x48, 0xE1, 0x36, 0x37, 0xA4, 0x3B, 0xB6, 0x02, 0x32, 0xEA,
    0xC0, 0x1B, 0x17, 0x58, 0xB8, 0xDB, 0xDD, 0x81, 0x24, 0xA9, 0x02, 0x3A,
    0xBB, 0xE9, 0xDE, 0xC0, 0x27, 0xE9, 0xD9, 0xE7, 0x10, 0x2E, 0xE3, 0xE4,
    0xBA, 0xC3, 0xA2, 0xF2, 0x45, 0x19, 0xF0, 0xF2, 0x10, 0x01, 0xA9, 0x02,
    0xED, 0x26, 0x43, 0xF9, 0xD6, 0x07, 0xDC, 0xCA, 0x08, 0x0E, 0x34, 0xD2,
    0x1D, 0xC2, 0xCC, 0xC6, 0x46, 0xC9, 0xF5, 0xE3, 0xC7, 0x44, 0x46, 0x57,
    0xEC, 0xF2, 0xD6, 0x3B, 0x4C, 0xBC, 0xB1, 0xB9, 0x74, 0x17, 0xC3, 0x28,
    0xF6, 0x30, 0x1A, 0xFD, 0x3D, 0xFF, 0xE4, 0x04, 0x2B, 0x17, 0x0A, 0x06,
    0xAC, 0x37, 0x29, 0xAD, 0xD7, 0x3F, 0x81, 0x25, 0x0D, 0xFF, 0xBE, 0xE1,
    0x5A, 0xFD, 0xFB, 0x44, 0x36, 0x16, 0xE2, 0xE8, 0xD6, 0x99, 0xCB, 0x22,
    0xDA, 0xE7, 0x2C, 0x58, 0x0D, 0xFB, 0xB7, 0x2A, 0xB1, 0xD3, 0x16, 0xF6,
    0xC7, 0x4B, 0xAF, 0x28, 0x07, 0x04, 0x1F, 0x12, 0xFD, 0xD0, 0x21, 0xF2,
    0x1B, 0x81, 0xEF, 0xF5, 0xD3, 0xD0, 0x1F, 0x0C, 0xDD, 0x0C, 0x55, 0x05,
    0x10, 0xA3, 0xB4, 0x22, 0x04, 0x2E, 0x0D, 0x38, 0xD5, 0x20, 0xC5, 0x01,
    0xE2, 0x41, 0xAB, 0x3B, 0x0E, 0x18, 0x23, 0xCC, 0x30, 0xDB, 0x97, 0x33,
    0x17, 0x43, 0x19, 0x1E, 0x0E, 0xF7, 0x16, 0xAD, 0x00, 0x53, 0x13, 0xFB,
    0x02, 0xF6, 0x6F, 0x48, 0xCA, 0x55, 0x12, 0x4F, 0xC1, 0x65, 0xA8, 0x45,
    0x53, 0xF3, 0x1D, 0x09, 0xB9, 0x43, 0xD8, 0x56, 0x47, 0x56, 0x48, 0x57,
    0x2E, 0x1A, 0xF6, 0x3F, 0xD6, 0x32, 0xAE, 0xDA, 0xDC, 0xA5, 0x40, 0x09,
    0xF9, 0x06, 0xFD, 0x22, 0x9D, 0x2F, 0xFB, 0xDA, 0x3C, 0xAF, 0xDF, 0xE9,
    0xB5, 0x95, 0xCF, 0x4D, 0x51, 0x6B, 0xF2, 0x73, 0x3B, 0xDC, 0xD4, 0x2A,
    0x9F, 0x1B, 0x44, 0xC6, 0xE0, 0xDD, 0xEE, 0x0C, 0xEF, 0x0E, 0x81, 0x39,
    0x0D, 0x89, 0xC4, 0x9F, 0x04, 0xD2, 0xE3, 0x16, 0xF2, 0x0D, 0xEC, 0x23,
    0x2E, 0xC6, 0xF2, 0x33, 0xAF, 0x1C, 0x1B, 0xD5, 0xAF, 0xC7, 0x1A, 0x28,
    0xCA, 0x28, 0x1C, 0x3D, 0xE8, 0xBE, 0x3D, 0x22, 0xCC, 0x00, 0xE9, 0xB8,
    0x14, 0x1D, 0x3C, 0x90, 0x96, 0x2D, 0xF4, 0xE0, 0xC5, 0xD1, 0x02, 0x67,
    0xA8, 0x1F, 0xFD, 0x16, 0xE1, 0x15, 0x05, 0x1B, 0x96, 0x29, 0x6F, 0x1E,
    0x26, 0xF6, 0xF9, 0x02, 0xB1, 0xF6, 0x06, 0xF1, 0x41, 0x19, 0x00, 0x06,
    0x13, 0xE6, 0x7F, 0x06, 0xDB, 0xF5, 0x21, 0xE4, 0xE2, 0x04, 0x9F, 0x4B,
    0xC3, 0x0A, 0xC5, 0x98, 0xDF, 0x1E, 0x49, 0x40, 0xD7, 0x4D, 0x01, 0x29,
    0xD5, 0x3A, 0x3F, 0xE4, 0xFA, 0x81, 0x15, 0x8C, 0x2E, 0x08, 0x31, 0xAB,
    0x8C, 0xEE, 0x0E, 0x53, 0xCC, 0x2F, 0x06, 0xF6, 0xCA, 0xC0, 0xD8, 0x22,
    0x19, 0xA1, 0xE7, 0x39, 0xAF, 0xAF, 0x9B, 0xF2, 0x04, 0xA1, 0x5C, 0x2A,
    0x09, 0x2B, 0x23, 0xDB, 0x1F, 0xEC, 0xF6, 0x32, 0x05, 0x21, 0x43, 0x49,
    0xB7, 0x25, 0xF5, 0xC4, 0x18, 0xC7, 0x3E, 0xD3, 0x47, 0x30, 0x36, 0xFD,
    0xF0, 0x05, 0xCA, 0x59, 0x41, 0xEC, 0x03, 0x14, 0x23, 0x46, 0x96, 0x30,
    0x2B, 0x13, 0xAD, 0x55, 0x10, 0x9C, 0xB9, 0x3F, 0x26, 0x25, 0x0D, 0xE7,
    0x4A, 0xE8, 0xDD, 0xE1, 0x53, 0xD9, 0xE7, 0xC2, 0x3F, 0xC6, 0xC8, 0x25,
    0x06, 0xAF, 0xCF, 0xF9, 0xC5, 0x7F, 0xFF, 0x45, 0x0E, 0xFD, 0x56, 0xF9,
    0xF6, 0x42, 0x0E, 0xFB, 0xFC, 0xDD, 0xFD, 0xD8, 0x00, 0x39, 0xE4, 0xF4,
    0x36, 0x1A, 0xA7, 0xFB, 0x31, 0xBA, 0x11, 0x3D, 0x28, 0x16, 0xC3, 0xB1,
    0x4A, 0x42, 0xC1, 0x47, 0x3C, 0xBF, 0x32, 0x3A, 0xCF, 0x69, 0xE7, 0xBA,
    0xFD, 0xCD, 0x2A, 0x65, 0x05, 0x18, 0x71, 0xDE, 0xE0, 0xA7, 0x2B, 0x25,
    0x81, 0x6B, 0x3D, 0x4D, 0xAF, 0x93, 0x2F, 0x31, 0x3D, 0xD1, 0x0B, 0x1C,
    0xC6, 0xDC, 0xF5, 0xDC, 0x09, 0x45, 0x29, 0x36, 0x9E, 0xBE, 0x26, 0x29,
    0x34, 0x25, 0xF1, 0x1E, 0x3B, 0x06, 0xD7, 0xDC, 0xD5, 0xD8, 0x31, 0x1D,
    0x9B, 0xB5, 0xD7, 0x17, 0xC9, 0xCA, 0x27, 0x27, 0x88, 0xE9, 0x3E, 0xC7,
    0x30, 0xF4, 0xF1, 0xC5, 0xBD, 0x0A, 0xF7, 0x2A, 0x14, 0xC1, 0xF6, 0x67,
    0xC2, 0x30, 0xB6, 0xFE, 0x44, 0xCB, 0x37, 0xDE, 0x34, 0x25, 0xD2, 0xF1,
    0x44, 0xED, 0x60, 0xD3, 0xF1, 0x93, 0xF9, 0xD9, 0x9F, 0xBE, 0x90, 0x05,
    0x45, 0xE7, 0x8F, 0xC8, 0xE0, 0xC0, 0xFE, 0x4B, 0x4E, 0x57, 0xAB, 0xFE,
    0xBF, 0x0C, 0x2C, 0x1B, 0xAB, 0x07, 0x2F, 0xE6, 0xF2, 0x0B, 0x0A, 0xDB,
    0x17, 0xE8, 0x2D, 0xB7, 0x21, 0xDD, 0x9B, 0xA5, 0x0D, 0x5E, 0x46, 0x19,
    0x45, 0xC4, 0xA6, 0x29, 0xC4, 0x00, 0xE6, 0x29, 0x3F, 0xE1, 0x04, 0x3A,
    0xD7, 0xD0, 0x02, 0x19, 0xA8, 0xB0, 0x34, 0xCA, 0x2B, 0x20, 0xD8, 0xC4,
    0x03, 0x38, 0x81, 0xFF, 0xFD, 0xDB, 0xE3, 0x3E, 0x37, 0x33, 0xB6, 0xFC,
    0x3F, 0xED, 0x06, 0xE0, 0x38, 0x1B, 0x2C, 0xBE, 0xB6, 0xEF, 0xB7, 0xCA,
    0xA6, 0xD6, 0x9C, 0xA5, 0x02, 0x3E, 0xF0, 0x0B, 0x00, 0xCB, 0xC1, 0x18,
    0xE0, 0x01, 0x76, 0x2E, 0xEB, 0xBF, 0x42, 0x1F, 0xE2, 0x3C, 0xF6, 0xFC,
    0x1C, 0xEE, 0x81, 0x0A, 0x24, 0xF0, 0xEB, 0x33, 0x36, 0xBA, 0xD2, 0x08,
    0x0F, 0xC7, 0x06, 0xCD, 0x41, 0xD5, 0x23, 0xB7, 0x32, 0x2B, 0xFB, 0x12,
    0xBB, 0xD7, 0x12, 0x12, 0xB1, 0xCE, 0x95, 0x2F, 0xA8, 0xDB, 0xA5, 0x0F,
    0xD1, 0x01, 0x23, 0x0A, 0x09, 0x1F, 0xC4, 0x0B, 0x44, 0x09, 0x81, 0x0A,
    0xDF, 0x9C, 0xEB, 0x87, 0x2E, 0xD4, 0x07, 0xFD, 0xEC, 0xCE, 0x27, 0xCC,
    0x34, 0x53, 0xD4, 0xFC, 0xB4, 0xEE, 0xCA, 0xC8, 0xC4, 0x2E, 0xFC, 0x23,
    0x24, 0x08, 0x12, 0x21, 0xE7, 0xD0, 0xA8, 0x45, 0x0D, 0x06, 0xF2, 0xDC,
    0xEB, 0x22, 0xD7, 0xB5, 0x2D, 0x2A, 0xD9, 0xCD, 0x34, 0x0A, 0x9E, 0x11,
    0xE1, 0xFE, 0x03, 0xD1, 0xD7, 0xE1, 0x5C, 0xC9, 0xC4, 0x50, 0xB9, 0xF6,
    0xD5, 0x0B, 0x14, 0xC1, 0xF5, 0x83, 0x9A, 0xCC, 0x0F, 0x40, 0x48, 0x97,
    0x1B, 0x1C, 0xB8, 0x0F, 0x00, 0x55, 0xD8, 0x50, 0xCF, 0xB9, 0xF9, 0x54,
    0xD1, 0xB6, 0x0C, 0x10, 0x29, 0x10, 0xED, 0x47, 0x03, 0x0A, 0x24, 0xDB,
    0xFC, 0x54, 0xF8, 0xEC, 0x56, 0x27, 0xD1, 0xDA, 0x32, 0x5A, 0xEC, 0xD5,
    0x16, 0x00, 0x36, 0x4D, 0x09, 0x00, 0x24, 0xCF, 0x11, 0x05, 0xEE, 0xFC,
    0xE8, 0x3E, 0xDA, 0xEE, 0x1D, 0x0E, 0xF3, 0xB9, 0xB5, 0xCF, 0x2B, 0x34,
    0x3E, 0x10, 0xC3, 0x05, 0x64, 0xF3, 0xDF, 0xC7, 0x2E, 0x1A, 0x30, 0x3F,
    0xF1, 0x64, 0x7F, 0x04, 0xB8, 0xB6, 0xF9, 0x17, 0x45, 0x81, 0xF1, 0xDF,
    0x0C, 0x3B, 0x35, 0xBF, 0x91, 0xE5, 0x2A, 0xFB, 0x83, 0xE4, 0x3A, 0x40,
    0x32, 0xF2, 0x20, 0x24, 0x24, 0xE6, 0xE6, 0x48, 0x9A, 0x1F, 0xC1, 0x4B,
    0x90, 0x23, 0x05, 0x21, 0xC5, 0xBC, 0x40, 0x05, 0x81, 0xC5, 0x40, 0x0D,
    0x30, 0x15, 0x3A, 0x3D, 0xFA, 0xC0, 0x23, 0x2C, 0xE4, 0xB7, 0xDA, 0x30,
    0xDC, 0xAB, 0xBA, 0x04, 0xB4, 0x38, 0x52, 0xD6, 0x91, 0xFC, 0xD4, 0x2A,
    0x26, 0x11, 0xC6, 0xC9, 0x39, 0xDB, 0x05, 0xC2, 0xFF, 0x42, 0xCB, 0x0A,
    0xC6, 0x24, 0x0D, 0xA3, 0xDA, 0xA3, 0xC2, 0xAD, 0x28, 0x9D, 0xF9, 0x01,
    0x42, 0xC3, 0xB8, 0xCD, 0x99, 0x1A, 0xC1, 0xEC, 0x2A, 0x11, 0xFF, 0xD4,
    0xA6, 0x46, 0x81, 0x93, 0x27, 0x18, 0xA9, 0x84, 0x48, 0x10, 0x27, 0xF7,
    0xB2, 0x4F, 0xD7, 0x25, 0xFF, 0x03, 0x05, 0x8A, 0x0C, 0x18, 0x2C, 0x0D,
    0x17, 0x01, 0xC9, 0x34, 0x3D, 0xC7, 0x31, 0xB6, 0x3E, 0xDA, 0xA7, 0xF6,
    0x0E, 0x88, 0x37, 0x0F, 0xF2, 0xE8, 0x1D, 0xF6, 0x20, 0xDB, 0x3F, 0xB8,
    0x1A, 0x07, 0xBC, 0xD3, 0xF8, 0x31, 0x9E, 0xA1, 0xC2, 0x41, 0x2C, 0x2D,
    0xEF, 0x23, 0x81, 0x19, 0xB9, 0x56, 0x18, 0x1C, 0x38, 0x48, 0xCF, 0x4F,
    0x2E, 0x4B, 0x36, 0x18, 0xD4, 0xE4, 0x92, 0x17, 0xCF, 0x14, 0xC3, 0x5B,
    0x3C, 0x0D, 0xF3, 0x31, 0xC7, 0x32, 0x23, 0xB6, 0x3B, 0x0D, 0x27, 0xEE,
    0xD9, 0xFF, 0x3D, 0xFC, 0x3A, 0x08, 0xAF, 0x1E, 0xB4, 0x08, 0xFE, 0x20,
    0x19, 0xB0, 0x3C, 0x26, 0xFA, 0x57, 0xA2, 0x0D, 0xF8, 0x05, 0x1C, 0xF7,
    0xE8, 0xDD, 0x03, 0x2E, 0x2E, 0x35, 0x0B, 0x42, 0x33, 0xEA, 0xE4, 0xD0,
    0xA9, 0xE9, 0xA8, 0x5E, 0xC8, 0xC2, 0xDA, 0xD2, 0xC7, 0x34, 0x25, 0xC2,
    0xE7, 0x39, 0xF9, 0x69, 0x0D, 0xD3, 0x3C, 0xCB, 0xC3, 0x96, 0x99, 0x81,
    0xF9, 0x46, 0xF4, 0xA3, 0x90, 0xCC, 0xED, 0x4F, 0xEA, 0x14, 0x11, 0xF4,
    0xFE, 0xC6, 0xBD, 0xAA, 0x7E, 0xC9, 0xC0, 0xDC, 0xF8, 0x10, 0xAB, 0xF7,
    0xD1, 0xA5, 0xAE, 0xD1, 0x9D, 0x8E, 0xD5, 0xC7, 0xCD, 0x3A, 0xD6, 0x79,
    0x1B, 0xFB, 0xCA, 0xB5, 0xCA, 0x91, 0xC9, 0x30, 0xF2, 0x27, 0x23, 0x26,
    0xEE, 0x39, 0x26, 0xC7, 0x08, 0x48, 0xBB, 0x66, 0x59, 0x14, 0x5C, 0x4C,
    0xCF, 0xF2, 0x26, 0x23, 0xAE, 0x8F, 0xC3, 0x46, 0xCC, 0x0F, 0x21, 0xA6,
    0xFD, 0x54, 0xF9, 0xC0, 0xC5, 0xAD, 0xEF, 0x74, 0xA2, 0x8D, 0xA4, 0xE1,
    0x26, 0x01, 0xE9, 0xDE, 0xDE, 0x29, 0xBD, 0x29, 0x91, 0x57, 0x29, 0x92,
    0x14, 0x81, 0x64, 0x56, 0x72, 0xFC, 0x36, 0xF1, 0xCB, 0xB7, 0x25, 0x3C,
    0x9E, 0xCC, 0x3E, 0xC7, 0x35, 0x9C, 0x9A, 0x9A, 0x52, 0x49, 0xFB, 0x59,
    0x0A, 0x33, 0x4A, 0xB8, 0x54, 0x4C, 0xCB, 0xBB, 0x1D, 0xDE, 0x0A, 0xF0,
    0xCC, 0x12, 0x1C, 0x21, 0xFA, 0x01, 0xAC, 0xE5, 0xCD, 0x43, 0xDE, 0xDA,
    0x15, 0xAB, 0x92, 0x28, 0x03, 0x13, 0x81, 0xFF, 0x33, 0x10, 0x01, 0xF2,
    0x3A, 0xD9, 0xDD, 0xD8, 0xCA, 0xCF, 0x96, 0x34, 0xE4, 0xA9, 0x2E, 0xB4,
    0x3C, 0x33, 0xAF, 0xB1, 0xF2, 0xEC, 0x4A, 0x45, 0x2F, 0xD9, 0xD2, 0x3C,
    0xE9, 0x1A, 0x06, 0x48, 0xEA, 0x17, 0x53, 0x4A, 0xC7, 0xD4, 0xC0, 0xA0,
    0x3B, 0xD5, 0xCC, 0x3D, 0x49, 0x1F, 0xB7, 0x2E, 0x21, 0xE2, 0x22, 0x39,
    0xC8, 0xF3, 0xCD, 0x0E, 0xF3, 0x33, 0xE5, 0x4D, 0x35, 0x10, 0x05, 0x09,
    0x07, 0xB5, 0xBC, 0x31, 0x26, 0xFF, 0xA2, 0x3E, 0xA0, 0xC9, 0xD5, 0xF7,
    0xB2, 0x4C, 0x0C, 0xF8, 0xBC, 0x8E, 0x04, 0x89, 0x0E, 0xB4, 0xC1, 0xEE,
    0xD1, 0x3B, 0x18, 0xE5, 0xB4, 0xE0, 0x81, 0xC1, 0xE7, 0xF0, 0x36, 0xBE,
    0x34, 0x03, 0x3D, 0x07, 0xAA, 0xB4, 0x3C, 0x1C, 0xCA, 0x23, 0x15, 0x5D,
    0xCE, 0xA1, 0xEC, 0x3C, 0xC1, 0x56, 0x0F, 0xE6, 0x04, 0x39, 0x3C, 0x88,
    0xF7, 0xAE, 0xE0, 0x3C, 0x16, 0xD8, 0xD6, 0x89, 0x29, 0x67, 0x45, 0xB4,
    0xFB, 0xBA, 0x9E, 0xF4, 0x41, 0xC1, 0xA9, 0xAB, 0xD3, 0x5B, 0xD2, 0x10,
    0x4E, 0x41, 0x17, 0xB9, 0xB6, 0xF6, 0xFF, 0xFF, 0x04, 0x00, 0x00, 0x00,
    0x80, 0x00, 0x00, 0x00, 0x2F, 0xFF, 0xFF, 0xFF, 0xE9, 0xFF, 0xFF, 0xFF,
    0xC3, 0xFE, 0xFF, 0xFF, 0xBF, 0xFF, 0xFF, 0xFF, 0x7E, 0xFF, 0xFF, 0xFF,
    0xBA, 0xFF, 0xFF, 0xFF, 0x47, 0x00, 0x00, 0x00, 0xEC, 0xFF, 0xFF, 0xFF,
    0x0F, 0xFE, 0xFF, 0xFF, 0x68, 0x00, 0x00, 0x00, 0x2F, 0xFF, 0xFF, 0xFF,
    0x4C, 0x00, 0x00, 0x00, 0xD5, 0xFF, 0xFF, 0xFF, 0x83, 0xFF, 0xFF, 0xFF,
    0xD1, 0xFE, 0xFF, 0xFF, 0x49, 0xFF, 0xFF, 0xFF, 0xB6, 0xFF, 0xFF, 0xFF,
    0x11, 0xFF, 0xFF, 0xFF, 0xCE, 0x00, 0x00, 0x00, 0xDB, 0xFC, 0xFF, 0xFF,
    0xE5, 0xFF, 0xFF, 0xFF, 0x51, 0x00, 0x00, 0x00, 0x75, 0xFE, 0xFF, 0xFF,
    0x22, 0xFF, 0xFF, 0xFF, 0xE3, 0xFF, 0xFF, 0xFF, 0x5A, 0x00, 0x00, 0x00,
    0x3B, 0x00, 0x00, 0x00, 0xA9, 0xFF, 0xFF, 0xFF, 0x29, 0xFD, 0xFF, 0xFF,
    0x21, 0xFF, 0xFF, 0xFF, 0xDB, 0xFE, 0xFF, 0xFF, 0xEA, 0xFF, 0xFF, 0xFF,
    0x42, 0xF7, 0xFF, 0xFF, 0x04, 0x00, 0x00, 0x00, 0x20, 0x00, 0x00, 0x00,
    0xC9, 0x32, 0x2A, 0xC5, 0xC4, 0x15, 0xDD, 0xE0, 0x19, 0xBE, 0xEE, 0xE7,
    0xF1, 0xF0, 0xE3, 0xC0, 0xA8, 0xBB, 0xB5, 0xB0, 0xC0, 0x36, 0x7F, 0x41,
    0xA7, 0xC7, 0x08, 0xB7, 0xFB, 0x15, 0xFC, 0x17, 0x6E, 0xF7, 0xFF, 0xFF,
    0x04, 0x00, 0x00, 0x00, 0x20, 0x00, 0x00, 0x00, 0xCB, 0xC0, 0xE5, 0xC0,
    0x03, 0xD1, 0xAE, 0x35, 0x11, 0xA6, 0x00, 0x26, 0x8B, 0xEF, 0x0B, 0xE3,
    0xDF, 0xF2, 0xC3, 0x18, 0x9E, 0xB8, 0x20, 0xB4, 0xF1, 0xB1, 0x80, 0xE4,
    0xDA, 0xE9, 0xE9, 0x85, 0x9A, 0xF7, 0xFF, 0xFF, 0x04, 0x00, 0x00, 0x00,
    0x00, 0x06, 0x00, 0x00, 0xE9, 0x29, 0x2F, 0xA3, 0xC2, 0xDC, 0x36, 0x60,
    0xE9, 0xB3, 0x95, 0x32, 0x88, 0xF5, 0x5D, 0xEB, 0xF1, 0xB1, 0xE0, 0xFE,
    0x0B, 0xC5, 0xED, 0xDB, 0xDC, 0x81, 0xE8, 0xA8, 0xBB, 0xA0, 0x0D, 0x6D,
    0xDF, 0x46, 0x15, 0xA1, 0x3E, 0x54, 0x3C, 0xEC, 0xDA, 0xA2, 0x0B, 0xC8,
    0x47, 0xD2, 0xF8, 0xFC, 0xEF, 0xA2, 0xB2, 0xB1, 0xAF, 0xC5, 0x6E, 0x71,
    0xD8, 0xC4, 0x6D, 0xEB, 0xD9, 0xD8, 0x0D, 0x7A, 0x28, 0x32, 0x6C, 0x92,
    0x3E, 0x74, 0x0A, 0xAC, 0xE2, 0xF9, 0xBB, 0x40, 0x0D, 0xA3, 0x08, 0xCC,
    0xC4, 0xA4, 0x03, 0xAE, 0x23, 0x05, 0xEE, 0x76, 0x9B, 0xD4, 0x28, 0xBB,
    0x14, 0x37, 0xC6, 0xF2, 0xD2, 0x0F, 0x14, 0xD2, 0x09, 0xD5, 0xC8, 0x10,
    0x56, 0xDD, 0xAC, 0x01, 0xC2, 0xFF, 0x34, 0xF5, 0xBA, 0x01, 0xF5, 0x22,
    0xC9, 0xF1, 0x13, 0x34, 0x0D, 0xD7, 0xD3, 0xAC, 0xE1, 0xCD, 0xC4, 0x32,
    0x2D, 0x20, 0x34, 0xCC, 0x24, 0x03, 0xF8, 0x4C, 0x3A, 0x0C, 0xB3, 0x03,
    0xF0, 0xE4, 0xFC, 0x02, 0xBF, 0x28, 0xD8, 0x13, 0xD9, 0x2F, 0x42, 0x69,
    0xD1, 0xA9, 0x38, 0x05, 0x0B, 0xFD, 0xFD, 0x3B, 0x02, 0x1E, 0x0B, 0xBA,
    0xB5, 0x46, 0x24, 0x13, 0x32, 0xAF, 0x17, 0x11, 0xB8, 0x4C, 0xFC, 0xC7,
    0xCA, 0xAE, 0xC0, 0xD4, 0xBF, 0x36, 0x7F, 0x5B, 0x22, 0xFF, 0xE6, 0x0E,
    0x20, 0x0E, 0xC8, 0xE4, 0xB9, 0xCB, 0x36, 0xE0, 0x36, 0xB7, 0xB7, 0x3A,
    0x0F, 0xF9, 0xCA, 0xE9, 0xAB, 0x30, 0x38, 0xC2, 0xE4, 0xF1, 0x2F, 0xEC,
    0x39, 0xD0, 0x29, 0x1E, 0x36, 0xDD, 0xF1, 0xC6, 0x01, 0xD0, 0xCA, 0x47,
    0x21, 0xEC, 0x1C, 0xE9, 0xFF, 0x0E, 0xD1, 0x2A, 0x77, 0xFC, 0x27, 0xEC,
    0x15, 0x25, 0x14, 0x21, 0xB9, 0xBD, 0xDD, 0xE5, 0xDD, 0xC6, 0x48, 0x53,
    0xFB, 0xE1, 0xEB, 0x23, 0xCF, 0xF1, 0xE9, 0xFE, 0x1F, 0x29, 0x53, 0xC0,
    0xDA, 0xFF, 0xE6, 0x05, 0xE1, 0xFF, 0xF1, 0x2E, 0xD4, 0x39, 0x0E, 0xD6,
    0xC2, 0xD0, 0xE6, 0x08, 0xFE, 0xC0, 0x7F, 0x63, 0xC2, 0xFF, 0x16, 0x28,
    0xC8, 0x3D, 0xDC, 0x16, 0xD6, 0x56, 0xE3, 0xC3, 0xC9, 0x18, 0xDA, 0xF0,
    0x24, 0x29, 0x01, 0x3E, 0xE5, 0xF3, 0x38, 0xC2, 0x24, 0x38, 0xCA, 0x02,
    0x0F, 0xED, 0x66, 0xD5, 0x29, 0xF0, 0x47, 0x14, 0x94, 0xCE, 0xBA, 0xB7,
    0xDE, 0x00, 0x4F, 0xE2, 0x1F, 0xE7, 0xEA, 0x0A, 0x2D, 0xD0, 0xF1, 0x3D,
    0x1D, 0x3A, 0x25, 0xCE, 0x13, 0xE8, 0x2E, 0xEF, 0xB3, 0xFC, 0x67, 0x4E,
    0xCC, 0x24, 0x34, 0xFB, 0x99, 0xC4, 0xDF, 0x3B, 0x28, 0x24, 0x53, 0x11,
    0xEF, 0xC7, 0x39, 0xE8, 0x27, 0xD3, 0xE7, 0xDC, 0xC8, 0x35, 0x2F, 0xCE,
    0x0C, 0xF6, 0x2C, 0xE3, 0x00, 0x4B, 0x7F, 0xE7, 0x1C, 0x23, 0x16, 0x1F,
    0x91, 0xB2, 0xCB, 0xBB, 0xB3, 0xCE, 0x0C, 0xCD, 0x3B, 0xAD, 0x37, 0x06,
    0x5D, 0x16, 0xFA, 0xC1, 0xCA, 0x33, 0x44, 0xE2, 0x93, 0x1C, 0x23, 0xA8,
    0xEC, 0xF0, 0x3A, 0x18, 0x9F, 0x00, 0x41, 0x13, 0x1F, 0xAA, 0x8E, 0x53,
    0x4D, 0x45, 0x55, 0xA6, 0xB2, 0x1E, 0xE4, 0x13, 0x4C, 0xFF, 0xBA, 0xF1,
    0xE3, 0xD8, 0x3E, 0xC2, 0xD8, 0xD1, 0x93, 0xA8, 0x1F, 0xD1, 0x15, 0x38,
    0xEB, 0x0D, 0x2E, 0xC2, 0xFC, 0x25, 0x9C, 0x7F, 0xA3, 0x2B, 0x5E, 0x8E,
    0x0D, 0x72, 0xE8, 0xFA, 0xDB, 0x81, 0xB8, 0xAE, 0x88, 0x31, 0x95, 0xB2,
    0xD6, 0x34, 0xB3, 0xE0, 0xA6, 0xD7, 0x02, 0x2D, 0x45, 0xA4, 0x48, 0xF2,
    0x47, 0xC4, 0xA1, 0x71, 0xE1, 0xFA, 0x57, 0x23, 0xA9, 0xB5, 0x32, 0xB6,
    0xB9, 0xCB, 0x7F, 0xAD, 0xEA, 0x0F, 0xBD, 0xB7, 0x07, 0x0B, 0xB7, 0x0E,
    0xC0, 0xBD, 0xE2, 0xCC, 0x35, 0x12, 0xCC, 0x4E, 0x6A, 0xF3, 0x4F, 0xE7,
    0x21, 0xD8, 0x29, 0x12, 0x17, 0x45, 0xB8, 0xC5, 0xB6, 0xBE, 0xD0, 0xD3,
    0xD6, 0xD1, 0xD5, 0x65, 0xF1, 0xDA, 0x08, 0x74, 0x23, 0x31, 0x94, 0x23,
    0x4E, 0x17, 0x4D, 0x49, 0x3C, 0xF5, 0x1C, 0xA7, 0x27, 0xD3, 0xFD, 0xE3,
    0x98, 0x53, 0xD2, 0x8F, 0x25, 0xEB, 0xDC, 0xCD, 0xB6, 0x12, 0xEC, 0x5C,
    0x26, 0x48, 0xCE, 0x56, 0xED, 0x20, 0x8C, 0x0F, 0xEF, 0x48, 0xC5, 0xF8,
    0x9A, 0x3E, 0xF6, 0x43, 0xD6, 0x18, 0x5D, 0xF3, 0xEC, 0xCC, 0xF2, 0x3A,
    0xDA, 0x12, 0xEA, 0xD3, 0xDA, 0xC3, 0x06, 0x11, 0xCD, 0xFE, 0x09, 0xC4,
    0xE8, 0x46, 0x47, 0x56, 0xD0, 0xDE, 0x2B, 0xAA, 0xF1, 0x19, 0xDF, 0x0B,
    0xB3, 0x55, 0xF2, 0xD4, 0x03, 0xF0, 0x05, 0xFF, 0x08, 0x1D, 0x1B, 0xA4,
    0xC6, 0xBC, 0xEC, 0xA7, 0x9A, 0x0E, 0xBF, 0xED, 0xF7, 0x17, 0xD3, 0x77,
    0x13, 0xD8, 0x31, 0xB1, 0x07, 0xFE, 0x11, 0x0E, 0x35, 0x57, 0x3E, 0xB0,
    0xFF, 0x1F, 0x03, 0x3B, 0x4D, 0x14, 0xE5, 0xC2, 0x07, 0x13, 0x10, 0xF0,
    0xBA, 0xDC, 0x9A, 0xCF, 0xDA, 0xFD, 0x61, 0x7F, 0x16, 0xAC, 0xD2, 0x2A,
    0xF3, 0xE2, 0x06, 0x1A, 0x24, 0x18, 0x24, 0x3F, 0xE6, 0xF1, 0xD2, 0xED,
    0xB9, 0xB7, 0x4A, 0x24, 0xCA, 0xA6, 0xE0, 0x03, 0x03, 0x1F, 0x42, 0x0C,
    0x29, 0xEE, 0xD8, 0xC4, 0x07, 0xE8, 0xD3, 0xD4, 0xE7, 0x27, 0x54, 0x1F,
    0x43, 0xCA, 0x32, 0x27, 0xAF, 0x33, 0xCD, 0x28, 0xB8, 0xF8, 0x40, 0x10,
    0xDE, 0xED, 0xB3, 0x2E, 0x31, 0xCD, 0xE6, 0xF8, 0x23, 0xD8, 0xB3, 0xD0,
    0x36, 0x1B, 0x2A, 0xCE, 0x4F, 0x36, 0x58, 0xF4, 0xE5, 0xFB, 0x07, 0x23,
    0x1D, 0x51, 0xF9, 0xBF, 0xF0, 0xC2, 0x58, 0xCF, 0x0A, 0xDA, 0xE8, 0xD8,
    0x3D, 0x07, 0xFB, 0xEE, 0xDE, 0xE7, 0x81, 0x0B, 0xE2, 0xD3, 0x3A, 0x13,
    0x0D, 0x4E, 0x30, 0xCC, 0x03, 0x6B, 0xC4, 0x10, 0x16, 0x26, 0xD7, 0x1D,
    0x1B, 0xFE, 0xAE, 0xB4, 0xA2, 0x2D, 0xCE, 0xB9, 0x3F, 0xCB, 0xAF, 0xF0,
    0xB2, 0xB5, 0x0C, 0x3F, 0xF3, 0xA2, 0x31, 0x0E, 0x25, 0x43, 0x41, 0x07,
    0x18, 0x05, 0xFF, 0xDE, 0x05, 0xD1, 0x08, 0x1E, 0xD9, 0x1A, 0x39, 0xB5,
    0x00, 0xFE, 0xF4, 0xD5, 0xED, 0x33, 0xEB, 0xEA, 0x10, 0xC4, 0xF8, 0xE6,
    0x2D, 0x4F, 0xEE, 0x45, 0x13, 0x27, 0xAC, 0xDA, 0xF1, 0x25, 0xFA, 0xFD,
    0xE7, 0xCE, 0xCA, 0x0C, 0x58, 0xA8, 0x36, 0x26, 0xA5, 0x2A, 0x41, 0xE5,
    0x3C, 0xFE, 0xE0, 0xA7, 0x3A, 0x61, 0x7F, 0x64, 0xD2, 0xBB, 0xF1, 0x47,
    0x04, 0xD2, 0xC7, 0xFB, 0xB1, 0x52, 0x7F, 0xD1, 0xF0, 0xB6, 0x26, 0xF2,
    0x53, 0xB5, 0xA0, 0xDB, 0xCE, 0xFB, 0xB5, 0x8F, 0x92, 0x06, 0x9B, 0xFE,
    0xE5, 0x49, 0x35, 0x3C, 0xAF, 0xFA, 0xE7, 0x8F, 0xE5, 0xBD, 0xE0, 0x69,
    0xCD, 0x55, 0x27, 0xC2, 0xEB, 0x11, 0xA8, 0x3E, 0x36, 0x8F, 0x1E, 0x06,
    0x15, 0xC7, 0xBC, 0x11, 0x13, 0xCA, 0xC4, 0xBA, 0xB0, 0xBF, 0xFD, 0x75,
    0xE1, 0xC0, 0x08, 0xAF, 0xD2, 0x28, 0xB0, 0x02, 0xCD, 0x1D, 0x55, 0xAB,
    0x2E, 0xE9, 0xEF, 0x32, 0xEB, 0xF6, 0x02, 0x01, 0xB9, 0x95, 0x97, 0xC2,
    0x03, 0xB5, 0xC9, 0xE7, 0xC3, 0xB9, 0x54, 0x29, 0xC8, 0xC1, 0x43, 0x31,
    0xF6, 0x1C, 0xFD, 0x58, 0xF9, 0xD7, 0x31, 0x3D, 0xB5, 0xED, 0x08, 0x04,
    0xE0, 0xF2, 0xEB, 0xDD, 0x09, 0x0E, 0x19, 0x3B, 0xE2, 0xFD, 0xB4, 0xD4,
    0x0D, 0x9D, 0xE0, 0xD5, 0x3B, 0x0E, 0x3B, 0x25, 0x22, 0x0F, 0x7F, 0xFB,
    0x42, 0x04, 0xFD, 0x58, 0x18, 0x2E, 0xBB, 0x08, 0x9F, 0xF9, 0x11, 0x1F,
    0x42, 0x99, 0x0F, 0x09, 0x10, 0xD7, 0xE0, 0x58, 0xEE, 0x39, 0xB4, 0x35,
    0xE6, 0xAE, 0xF4, 0x37, 0x57, 0x05, 0xF6, 0xC8, 0xFF, 0xEC, 0x3F, 0x2D,
    0xCC, 0x29, 0x08, 0x23, 0x9E, 0x05, 0x24, 0xFE, 0xAC, 0xBF, 0x37, 0x51,
    0x1D, 0xDD, 0x31, 0x6B, 0x40, 0xB3, 0xCE, 0xB6, 0xBF, 0xFA, 0xF0, 0x1B,
    0x4F, 0x5D, 0x55, 0xDE, 0xE4, 0x67, 0x21, 0x0F, 0x19, 0x48, 0x46, 0x16,
    0xD5, 0x31, 0x04, 0x32, 0xF2, 0x5B, 0xFA, 0xBD, 0x26, 0xCC, 0xE1, 0x01,
    0xDF, 0x2B, 0x44, 0x4F, 0xF2, 0x8E, 0x22, 0xD6, 0xEB, 0x10, 0xB3, 0x6D,
    0xC4, 0xF8, 0x0E, 0xAA, 0x3B, 0x31, 0x40, 0xE4, 0x5F, 0xC8, 0x10, 0x02,
    0xD5, 0x34, 0xB1, 0x36, 0x37, 0x3E, 0x96, 0xC4, 0x06, 0x1A, 0x7F, 0xEF,
    0x45, 0xBF, 0xD1, 0xAA, 0x44, 0xE1, 0x16, 0x0B, 0xC6, 0x00, 0x2F, 0xF8,
    0xD0, 0xF1, 0x03, 0xEB, 0x4F, 0x3C, 0xDC, 0xCD, 0xD0, 0x01, 0xA8, 0x1F,
    0x33, 0x12, 0xDD, 0xD6, 0xCE, 0x54, 0xE6, 0x69, 0x36, 0xDD, 0xFE, 0xFB,
    0xD8, 0xFD, 0xEE, 0xF8, 0x17, 0x73, 0x37, 0xDB, 0x28, 0xDC, 0xB6, 0x20,
    0x1D, 0xE7, 0xDD, 0xE5, 0xC0, 0x4E, 0x7B, 0xF9, 0xC7, 0x9D, 0x14, 0x1D,
    0xEE, 0x47, 0x7C, 0x7F, 0xE3, 0x31, 0x57, 0x17, 0x00, 0x21, 0x02, 0x0E,
    0xB2, 0x4E, 0x60, 0xD4, 0x88, 0xC7, 0x07, 0xFD, 0x44, 0x46, 0xB9, 0x45,
    0xF6, 0xBC, 0xAA, 0x16, 0x43, 0xBB, 0x91, 0xC7, 0x3E, 0x2D, 0x6B, 0x23,
    0xC2, 0x14, 0x00, 0xE4, 0xC8, 0x3D, 0xD2, 0xEE, 0x34, 0xC3, 0x38, 0x1A,
    0xDF, 0x47, 0x4B, 0x40, 0x05, 0xAC, 0xFE, 0x29, 0xCF, 0x6A, 0xD3, 0xA9,
    0xF4, 0x2E, 0x02, 0x14, 0xA3, 0x5B, 0x60, 0x76, 0xB6, 0xCA, 0x4E, 0xBC,
    0xE3, 0xF4, 0x86, 0xF3, 0xCB, 0xF6, 0x34, 0xCC, 0xEF, 0xEF, 0x3C, 0xC6,
    0x77, 0x23, 0xA8, 0xDF, 0xA0, 0x05, 0x23, 0xC5, 0xD6, 0x3F, 0x2A, 0x07,
    0x14, 0x47, 0x7A, 0x03, 0x2F, 0xDA, 0xD4, 0x1F, 0x96, 0x3C, 0x0D, 0xE2,
    0xC2, 0x2C, 0x42, 0xAD, 0xF7, 0xCF, 0x3D, 0x5F, 0xEB, 0xBF, 0x1A, 0x2E,
    0xAA, 0x05, 0x49, 0xBB, 0xA8, 0x2C, 0xE4, 0x14, 0xC2, 0x60, 0x53, 0x56,
    0x9D, 0x9C, 0x62, 0xB2, 0xC3, 0x35, 0xBC, 0xEE, 0x0C, 0x7F, 0x69, 0xFD,
    0xB0, 0xEB, 0x53, 0x43, 0xE8, 0xA4, 0x27, 0xBB, 0xD7, 0x7A, 0x1E, 0xC7,
    0x1C, 0xD6, 0xF8, 0xDE, 0xF2, 0x16, 0x14, 0xFE, 0xA8, 0xC6, 0x1B, 0xE6,
    0x96, 0x44, 0xC0, 0x62, 0xDD, 0xFE, 0x6B, 0x0C, 0xC3, 0x2E, 0xCE, 0xC3,
    0x24, 0xDF, 0xA6, 0xBF, 0xBD, 0xFE, 0x30, 0xA8, 0x96, 0xFA, 0xE0, 0x95,
    0xEE, 0x31, 0x21, 0x71, 0xCD, 0xCF, 0xF5, 0x81, 0xE4, 0x51, 0x24, 0x4A,
    0xFE, 0xF4, 0x4D, 0xCB, 0x9B, 0x30, 0xBA, 0xFD, 0x50, 0xCB, 0xB1, 0x39,
    0x8C, 0xC1, 0xCA, 0xC8, 0xA8, 0x2E, 0xFC, 0xE9, 0x9E, 0x4A, 0xC4, 0x72,
    0x1A, 0xF7, 0x04, 0xD2, 0x33, 0x28, 0xE7, 0x04, 0xDA, 0x3A, 0x66, 0xA0,
    0x08, 0x34, 0x11, 0xC2, 0xEF, 0x27, 0xF6, 0x31, 0x81, 0xCE, 0xC7, 0x12,
    0xFD, 0xE0, 0xBA, 0xA1, 0xE4, 0xAF, 0xD9, 0x50, 0x2C, 0xF3, 0x4B, 0x1D,
    0xE5, 0xF5, 0xC9, 0x27, 0xEA, 0x1E, 0x10, 0x34, 0xEC, 0x0A, 0xEB, 0x20,
    0x81, 0xEC, 0x60, 0xF9, 0x27, 0xAE, 0x27, 0x10, 0x4B, 0xD6, 0x37, 0x55,
    0x1B, 0xA8, 0xE1, 0xBD, 0x08, 0xE3, 0x3F, 0x3A, 0x05, 0x0F, 0xF2, 0xB9,
    0xFC, 0x2B, 0x5A, 0xD1, 0xDB, 0xE8, 0xD7, 0x0C, 0x9B, 0x18, 0x5E, 0xE5,
    0xCA, 0x8D, 0x08, 0x4A, 0xCC, 0x1F, 0x28, 0x3B, 0xC9, 0x14, 0xB9, 0xFD,
    0x14, 0x03, 0x0E, 0x17, 0x29, 0x2B, 0x69, 0x05, 0x28, 0xC9, 0xDD, 0xD2,
    0xBA, 0x3A, 0x1E, 0xBD, 0x12, 0x10, 0x3E, 0xB9, 0xD2, 0xFB, 0xA6, 0xF3,
    0x1B, 0xDD, 0xB2, 0x50, 0x06, 0xC1, 0x8B, 0xDB, 0xE4, 0xDB, 0xF3, 0x38,
    0x53, 0xE2, 0x65, 0x4B, 0xA6, 0xFD, 0xFF, 0xFF, 0x04, 0x00, 0x00, 0x00,
    0x40, 0x00, 0x00, 0x00, 0x30, 0x00, 0x00, 0x00, 0x48, 0x00, 0x00, 0x00,
    0x6B, 0x00, 0x00, 0x00, 0x12, 0x00, 0x00, 0x00, 0xA0, 0x00, 0x00, 0x00,
    0x37, 0xFF, 0xFF, 0xFF, 0xBD, 0x00, 0x00, 0x00, 0xAA, 0xFF, 0xFF, 0xFF,
    0xBC, 0xFF, 0xFF, 0xFF, 0x64, 0x00, 0x00, 0x00, 0xB1, 0xFF, 0xFF, 0xFF,
    0xA9, 0x00, 0x00, 0x00, 0x66, 0x00, 0x00, 0x00, 0x5C, 0x00, 0x00, 0x00,
    0x6E, 0x00, 0x00, 0x00, 0x81, 0xFF, 0xFF, 0xFF, 0xF2, 0xFD, 0xFF, 0xFF,
    0x04, 0x00, 0x00, 0x00, 0x00, 0x01, 0x00, 0x00, 0x2C, 0x68, 0x7F, 0x12,
    0xF2, 0xC9, 0x7D, 0xDA, 0x18, 0x6B, 0xFF, 0x20, 0x6D, 0x1F, 0x6B, 0xEB,
    0xB6, 0xAA, 0x95, 0x1B, 0x32, 0xD4, 0xC3, 0xC0, 0x9B, 0x94, 0xBF, 0xB4,
    0x58, 0x81, 0x42, 0x41, 0x33, 0x6D, 0x30, 0x68, 0x66, 0xA1, 0x37, 0x22,
    0x65, 0x6C, 0xCE, 0x79, 0xE5, 0x7F, 0x4F, 0xBA, 0x2B, 0xB8, 0xA9, 0x3E,
    0xF6, 0x41, 0x0D, 0xBD, 0x0C, 0x81, 0x98, 0xAF, 0xBC, 0xA9, 0xBC, 0xA1,
    0x23, 0xA1, 0x11, 0xCF, 0xA0, 0x75, 0xFB, 0x98, 0xAB, 0xBF, 0x7F, 0x8E,
    0x47, 0xF8, 0x38, 0xD1, 0x4C, 0x32, 0x97, 0xE0, 0x88, 0x96, 0xA9, 0xB8,
    0x71, 0x13, 0xE3, 0x81, 0xF7, 0x06, 0xAF, 0xCF, 0x52, 0xBB, 0x4D, 0x68,
    0x6A, 0x07, 0x7F, 0xBA, 0xC9, 0xFF, 0xB6, 0x0D, 0x6C, 0x94, 0xC8, 0x28,
    0x58, 0x93, 0x1E, 0xE8, 0xEE, 0x78, 0xB1, 0xB1, 0x92, 0xD0, 0x3B, 0xF6,
    0x91, 0xC2, 0xA3, 0x7F, 0x4A, 0x4A, 0x68, 0x7F, 0x07, 0x17, 0x3A, 0xC1,
    0xC8, 0x26, 0xD8, 0xF2, 0xF8, 0x65, 0x57, 0x9C, 0xE5, 0x8D, 0xA1, 0x84,
    0xFF, 0x41, 0x29, 0x58, 0xAD, 0x86, 0x3F, 0x26, 0xC4, 0x00, 0x81, 0x5D,
    0xDC, 0xA3, 0x17, 0xD4, 0xDA, 0x2C, 0xF6, 0x7F, 0x1E, 0xA6, 0x4E, 0xC0,
    0xAB, 0x12, 0xB2, 0xEA, 0x9C, 0xAC, 0xF5, 0xF8, 0x3A, 0x58, 0xA5, 0x7F,
    0x0D, 0xB3, 0xC4, 0xAC, 0xA5, 0xF9, 0x37, 0x53, 0x62, 0x45, 0xDF, 0x4D,
    0x64, 0xC0, 0x31, 0xEA, 0x3D, 0x31, 0xAD, 0x6C, 0x7F, 0x00, 0x52, 0xCE,
    0x81, 0xB2, 0xE4, 0xD4, 0x02, 0x27, 0x82, 0x40, 0x6D, 0x11, 0x04, 0x50,
    0xFC, 0x97, 0x19, 0x1B, 0xDA, 0xAB, 0xD9, 0xC0, 0xE3, 0x7F, 0xB0, 0xDE,
    0x16, 0xC1, 0x9A, 0x31, 0x16, 0x12, 0xA1, 0x63, 0x40, 0x39, 0x48, 0xBC,
    0x60, 0xA4, 0x01, 0xE6, 0x05, 0x65, 0xF9, 0x52, 0x7F, 0x3C, 0x6F, 0xF6,
    0xFE, 0xFE, 0xFF, 0xFF, 0x04, 0x00, 0x00, 0x00, 0x40, 0x00, 0x00, 0x00,
    0x60, 0x05, 0x00, 0x00, 0xB3, 0xFA, 0xFF, 0xFF, 0x58, 0x03, 0x00, 0x00,
    0x54, 0xF8, 0xFF, 0xFF, 0xD4, 0xFD, 0xFF, 0xFF, 0x2F, 0xFC, 0xFF, 0xFF,
    0xBA, 0x00, 0x00, 0x00, 0x60, 0x00, 0x00, 0x00, 0x4C, 0x06, 0x00, 0x00,
    0x42, 0xFF, 0xFF, 0xFF, 0xE2, 0x01, 0x00, 0x00, 0x71, 0xFF, 0xFF, 0xFF,
    0xC5, 0x05, 0x00, 0x00, 0x95, 0x00, 0x00, 0x00, 0x08, 0x01, 0x00, 0x00,
    0x35, 0x05, 0x00, 0x00, 0x4A, 0xFF, 0xFF, 0xFF, 0x04, 0x00, 0x00, 0x00,
    0x10, 0x00, 0x00, 0x00, 0xBE, 0x19, 0xD7, 0x3C, 0x4C, 0x3E, 0xE7, 0x5D,
    0x83, 0x67, 0x24, 0x30, 0x81, 0x4D, 0x38, 0x93, 0x66, 0xFF, 0xFF, 0xFF,
    0x04, 0x00, 0x00, 0x00, 0x04, 0x00, 0x00, 0x00, 0x96, 0xFE, 0xFF, 0xFF,
    0x76, 0xFF, 0xFF, 0xFF, 0x04, 0x00, 0x00, 0x00, 0x0C, 0x00, 0x00, 0x00,
    0xFF, 0xFF, 0xFF, 0xFF, 0x25, 0x00, 0x00, 0x00, 0x10, 0x00, 0x00, 0x00,
    0x8E, 0xFF, 0xFF, 0xFF, 0x04, 0x00, 0x00, 0x00, 0x0C, 0x00, 0x00, 0x00,
    0xFF, 0xFF, 0xFF, 0xFF, 0x25, 0x00, 0x00, 0x00, 0x20, 0x00, 0x00, 0x00,
    0xA6, 0xFF, 0xFF, 0xFF, 0x04, 0x00, 0x00, 0x00, 0x0C, 0x00, 0x00, 0x00,
    0xFF, 0xFF, 0xFF, 0xFF, 0x4B, 0x00, 0x00, 0x00, 0x20, 0x00, 0x00, 0x00,
    0xBE, 0xFF, 0xFF, 0xFF, 0x04, 0x00, 0x00, 0x00, 0x0C, 0x00, 0x00, 0x00,
    0xFF, 0xFF, 0xFF, 0xFF, 0x4B, 0x00, 0x00, 0x00, 0x10, 0x00, 0x00, 0x00,
    0xD6, 0xFF, 0xFF, 0xFF, 0x04, 0x00, 0x00, 0x00, 0x04, 0x00, 0x00, 0x00,
    0x01, 0x00, 0x00, 0x00, 0xE6, 0xFF, 0xFF, 0xFF, 0x04, 0x00, 0x00, 0x00,
    0x0C, 0x00, 0x00, 0x00, 0xFF, 0xFF, 0xFF, 0xFF, 0x96, 0x00, 0x00, 0x00,
    0x10, 0x00, 0x00, 0x00, 0x00, 0x00, 0x06, 0x00, 0x08, 0x00, 0x04, 0x00,
    0x06, 0x00, 0x00, 0x00, 0x04, 0x00, 0x00, 0x00, 0x04, 0x00, 0x00, 0x00,
    0xFD, 0xFF, 0xFF, 0xFF, 0xA4, 0xD2, 0xFF, 0xFF, 0xA8, 0xD2, 0xFF, 0xFF,
    0x0F, 0x00, 0x00, 0x00, 0x4D, 0x4C, 0x49, 0x52, 0x20, 0x43, 0x6F, 0x6E,
    0x76, 0x65, 0x72, 0x74, 0x65, 0x64, 0x2E, 0x00, 0x01, 0x00, 0x00, 0x00,
    0x14, 0x00, 0x00, 0x00, 0x00, 0x00, 0x0E, 0x00, 0x18, 0x00, 0x14, 0x00,
    0x10, 0x00, 0x0C, 0x00, 0x08, 0x00, 0x04, 0x00, 0x0E, 0x00, 0x00, 0x00,
    0x14, 0x00, 0x00, 0x00, 0x1C, 0x00, 0x00, 0x00, 0x24, 0x05, 0x00, 0x00,
    0x28, 0x05, 0x00, 0x00, 0x2C, 0x05, 0x00, 0x00, 0x04, 0x00, 0x00, 0x00,
    0x6D, 0x61, 0x69, 0x6E, 0x00, 0x00, 0x00, 0x00, 0x17, 0x00, 0x00, 0x00,
    0xDC, 0x04, 0x00, 0x00, 0x7C, 0x04, 0x00, 0x00, 0x38, 0x04, 0x00, 0x00,
    0x04, 0x04, 0x00, 0x00, 0xDC, 0x03, 0x00, 0x00, 0xA0, 0x03, 0x00, 0x00,
    0x4C, 0x03, 0x00, 0x00, 0x14, 0x03, 0x00, 0x00, 0xE4, 0x02, 0x00, 0x00,
    0xA0, 0x02, 0x00, 0x00, 0x6C, 0x02, 0x00, 0x00, 0x38, 0x02, 0x00, 0x00,
    0x10, 0x02, 0x00, 0x00, 0xE0, 0x01, 0x00, 0x00, 0x9C, 0x01, 0x00, 0x00,
    0x74, 0x01, 0x00, 0x00, 0x44, 0x01, 0x00, 0x00, 0x00, 0x01, 0x00, 0x00,
    0xD8, 0x00, 0x00, 0x00, 0xA4, 0x00, 0x00, 0x00, 0x60, 0x00, 0x00, 0x00,
    0x28, 0x00, 0x00, 0x00, 0x04, 0x00, 0x00, 0x00, 0x7A, 0xFC, 0xFF, 0xFF,
    0x0C, 0x00, 0x00, 0x00, 0x10, 0x00, 0x00, 0x00, 0x08, 0x00, 0x00, 0x00,
    0x01, 0x00, 0x00, 0x00, 0x2C, 0x00, 0x00, 0x00, 0x01, 0x00, 0x00, 0x00,
    0x2B, 0x00, 0x00, 0x00, 0x0A, 0xFC, 0xFF, 0xFF, 0x14, 0x00, 0x00, 0x00,
    0x00, 0x00, 0x00, 0x08, 0x10, 0x00, 0x00, 0x00, 0x14, 0x00, 0x00, 0x00,
    0x07, 0x00, 0x00, 0x00, 0x94, 0xD3, 0xFF, 0xFF, 0x01, 0x00, 0x00, 0x00,
    0x2B, 0x00, 0x00, 0x00, 0x03, 0x00, 0x00, 0x00, 0x2A, 0x00, 0x00, 0x00,
    0x09, 0x00, 0x00, 0x00, 0x08, 0x00, 0x00, 0x00, 0x5A, 0xFD, 0xFF, 0xFF,
    0x1C, 0x00, 0x00, 0x00, 0x00, 0x00, 0x00, 0x08, 0x1C, 0x00, 0x00, 0x00,
    0x20, 0x00, 0x00, 0x00, 0x07, 0x00, 0x00, 0x00, 0x00, 0x00, 0x06, 0x00,
    0x08, 0x00, 0x07, 0x00, 0x06, 0x00, 0x00, 0x00, 0x00, 0x00, 0x00, 0x01,
    0x01, 0x00, 0x00, 0x00, 0x2A, 0x00, 0x00, 0x00, 0x03, 0x00, 0x00, 0x00,
    0x29, 0x00, 0x00, 0x00, 0x0B, 0x00, 0x00, 0x00, 0x0A, 0x00, 0x00, 0x00,
    0x7E, 0xFC, 0xFF, 0xFF, 0x14, 0x00, 0x00, 0x00, 0x00, 0x00, 0x00, 0x1B,
    0x10, 0x00, 0x00, 0x00, 0x14, 0x00, 0x00, 0x00, 0x06, 0x00, 0x00, 0x00,
    0x08, 0xD4, 0xFF, 0xFF, 0x01, 0x00, 0x00, 0x00, 0x29, 0x00, 0x00, 0x00,
    0x02, 0x00, 0x00, 0x00, 0x28, 0x00, 0x00, 0x00, 0x03, 0x00, 0x00, 0x00,
    0x3E, 0xFD, 0xFF, 0xFF, 0x0C, 0x00, 0x00, 0x00, 0x10, 0x00, 0x00, 0x00,
    0x04, 0x00, 0x00, 0x00, 0x01, 0x00, 0x00, 0x00, 0x28, 0x00, 0x00, 0x00,
    0x02, 0x00, 0x00, 0x00, 0x27, 0x00, 0x00, 0x00, 0x07, 0x00, 0x00, 0x00,
    0xD2, 0xFC, 0xFF, 0xFF, 0x14, 0x00, 0x00, 0x00, 0x00, 0x00, 0x00, 0x01,
    0x1C, 0x00, 0x00, 0x00, 0x20, 0x00, 0x00, 0x00, 0x01, 0x00, 0x00, 0x00,
    0xC4, 0xFC, 0xFF, 0xFF, 0x00, 0x00, 0x00, 0x01, 0x01, 0x00, 0x00, 0x00,
    0x01, 0x00, 0x00, 0x00, 0x01, 0x00, 0x00, 0x00, 0x27, 0x00, 0x00, 0x00,
    0x03, 0x00, 0x00, 0x00, 0x26, 0x00, 0x00, 0x00, 0x0D, 0x00, 0x00, 0x00,
    0x0C, 0x00, 0x00, 0x00, 0xB6, 0xFC, 0xFF, 0xFF, 0x10, 0x00, 0x00, 0x00,
    0x00, 0x00, 0x00, 0x34, 0x0C, 0x00, 0x00, 0x00, 0x10, 0x00, 0x00, 0x00,
    0x98, 0xD4, 0xFF, 0xFF, 0x01, 0x00, 0x00, 0x00, 0x26, 0x00, 0x00, 0x00,
    0x02, 0x00, 0x00, 0x00, 0x25, 0x00, 0x00, 0x00, 0x01, 0x00, 0x00, 0x00,
    0xCE, 0xFD, 0xFF, 0xFF, 0x0C, 0x00, 0x00, 0x00, 0x10, 0x00, 0x00, 0x00,
    0x04, 0x00, 0x00, 0x00, 0x01, 0x00, 0x00, 0x00, 0x25, 0x00, 0x00, 0x00,
    0x02, 0x00, 0x00, 0x00, 0x24, 0x00, 0x00, 0x00, 0x06, 0x00, 0x00, 0x00,
    0x62, 0xFD, 0xFF, 0xFF, 0x14, 0x00, 0x00, 0x00, 0x00, 0x00, 0x00, 0x05,
    0x24, 0x00, 0x00, 0x00, 0x28, 0x00, 0x00, 0x00, 0x05, 0x00, 0x00, 0x00,
    0x6E, 0xFE, 0xFF, 0xFF, 0x01, 0x00, 0x00, 0x00, 0x02, 0x00, 0x00, 0x00,
    0x01, 0x00, 0x00, 0x00, 0x02, 0x00, 0x00, 0x00, 0x00, 0x00, 0x00, 0x01,
    0x01, 0x00, 0x00, 0x00, 0x24, 0x00, 0x00, 0x00, 0x01, 0x00, 0x00, 0x00,
    0x23, 0x00, 0x00, 0x00, 0x46, 0xFD, 0xFF, 0xFF, 0x10, 0x00, 0x00, 0x00,
    0x00, 0x00, 0x00, 0x34, 0x0C, 0x00, 0x00, 0x00, 0x10, 0x00, 0x00, 0x00,
    0x28, 0xD5, 0xFF, 0xFF, 0x01, 0x00, 0x00, 0x00, 0x23, 0x00, 0x00, 0x00,
    0x02, 0x00, 0x00, 0x00, 0x22, 0x00, 0x00, 0x00, 0x03, 0x00, 0x00, 0x00,
    0x5E, 0xFE, 0xFF, 0xFF, 0x0C, 0x00, 0x00, 0x00, 0x10, 0x00, 0x00, 0x00,
    0x04, 0x00, 0x00, 0x00, 0x01, 0x00, 0x00, 0x00, 0x22, 0x00, 0x00, 0x00,
    0x02, 0x00, 0x00, 0x00, 0x21, 0x00, 0x00, 0x00, 0x05, 0x00, 0x00, 0x00,
    0xF2, 0xFD, 0xFF, 0xFF, 0x14, 0x00, 0x00, 0x00, 0x00, 0x00, 0x00, 0x0B,
    0x10, 0x00, 0x00, 0x00, 0x14, 0x00, 0x00, 0x00, 0x03, 0x00, 0x00, 0x00,
    0x7C, 0xD5, 0xFF, 0xFF, 0x01, 0x00, 0x00, 0x00, 0x21, 0x00, 0x00, 0x00,
    0x02, 0x00, 0x00, 0x00, 0x20, 0x00, 0x00, 0x00, 0x0E, 0x00, 0x00, 0x00,
    0x22, 0xFE, 0xFF, 0xFF, 0x14, 0x00, 0x00, 0x00, 0x00, 0x00, 0x00, 0x15,
    0x10, 0x00, 0x00, 0x00, 0x14, 0x00, 0x00, 0x00, 0x02, 0x00, 0x00, 0x00,
    0xAC, 0xD5, 0xFF, 0xFF, 0x01, 0x00, 0x00, 0x00, 0x20, 0x00, 0x00, 0x00,
    0x02, 0x00, 0x00, 0x00, 0x1F, 0x00, 0x00, 0x00, 0x0F, 0x00, 0x00, 0x00,
    0x52, 0xFE, 0xFF, 0xFF, 0x14, 0x00, 0x00, 0x00, 0x00, 0x00, 0x00, 0x01,
    0x1C, 0x00, 0x00, 0x00, 0x20, 0x00, 0x00, 0x00, 0x01, 0x00, 0x00, 0x00,
    0x44, 0xFE, 0xFF, 0xFF, 0x00, 0x00, 0x00, 0x01, 0x01, 0x00, 0x00, 0x00,
    0x01, 0x00, 0x00, 0x00, 0x01, 0x00, 0x00, 0x00, 0x1F, 0x00, 0x00, 0x00,
    0x03, 0x00, 0x00, 0x00, 0x1E, 0x00, 0x00, 0x00, 0x11, 0x00, 0x00, 0x00,
    0x10, 0x00, 0x00, 0x00, 0x36, 0xFE, 0xFF, 0xFF, 0x10, 0x00, 0x00, 0x00,
    0x00, 0x00, 0x00, 0x34, 0x0C, 0x00, 0x00, 0x00, 0x10, 0x00, 0x00, 0x00,
    0x18, 0xD6, 0xFF, 0xFF, 0x01, 0x00, 0x00, 0x00, 0x1E, 0x00, 0x00, 0x00,
    0x02, 0x00, 0x00, 0x00, 0x1D, 0x00, 0x00, 0x00, 0x01, 0x00, 0x00, 0x00,
    0x4E, 0xFF, 0xFF, 0xFF, 0x0C, 0x00, 0x00, 0x00, 0x10, 0x00, 0x00, 0x00,
    0x04, 0x00, 0x00, 0x00, 0x01, 0x00, 0x00, 0x00, 0x1D, 0x00, 0x00, 0x00,
    0x02, 0x00, 0x00, 0x00, 0x1C, 0x00, 0x00, 0x00, 0x04, 0x00, 0x00, 0x00,
    0x00, 0x00, 0x0E, 0x00, 0x1A, 0x00, 0x14, 0x00, 0x10, 0x00, 0x0C, 0x00,
    0x0B, 0x00, 0x04, 0x00, 0x0E, 0x00, 0x00, 0x00, 0x24, 0x00, 0x00, 0x00,
    0x00, 0x00, 0x00, 0x05, 0x34, 0x00, 0x00, 0x00, 0x38, 0x00, 0x00, 0x00,
    0x05, 0x00, 0x00, 0x00, 0x00, 0x00, 0x0E, 0x00, 0x18, 0x00, 0x17, 0x00,
    0x10, 0x00, 0x0C, 0x00, 0x08, 0x00, 0x04, 0x00, 0x0E, 0x00, 0x00, 0x00,
    0x01, 0x00, 0x00, 0x00, 0x02, 0x00, 0x00, 0x00, 0x01, 0x00, 0x00, 0x00,
    0x02, 0x00, 0x00, 0x00, 0x00, 0x00, 0x00, 0x01, 0x01, 0x00, 0x00, 0x00,
    0x1C, 0x00, 0x00, 0x00, 0x01, 0x00, 0x00, 0x00, 0x1B, 0x00, 0x00, 0x00,
    0xE6, 0xFE, 0xFF, 0xFF, 0x10, 0x00, 0x00, 0x00, 0x00, 0x00, 0x00, 0x34,
    0x0C, 0x00, 0x00, 0x00, 0x10, 0x00, 0x00, 0x00, 0xC8, 0xD6, 0xFF, 0xFF,
    0x01, 0x00, 0x00, 0x00, 0x1B, 0x00, 0x00, 0x00, 0x02, 0x00, 0x00, 0x00,
    0x1A, 0x00, 0x00, 0x00, 0x03, 0x00, 0x00, 0x00, 0x00, 0x00, 0x0A, 0x00,
    0x10, 0x00, 0x0C, 0x00, 0x08, 0x00, 0x04, 0x00, 0x0A, 0x00, 0x00, 0x00,
    0x0C, 0x00, 0x00, 0x00, 0x10, 0x00, 0x00, 0x00, 0x04, 0x00, 0x00, 0x00,
    0x01, 0x00, 0x00, 0x00, 0x1A, 0x00, 0x00, 0x00, 0x02, 0x00, 0x00, 0x00,
    0x19, 0x00, 0x00, 0x00, 0x02, 0x00, 0x00, 0x00, 0x9E, 0xFF, 0xFF, 0xFF,
    0x14, 0x00, 0x00, 0x00, 0x00, 0x00, 0x00, 0x0B, 0x10, 0x00, 0x00, 0x00,
    0x14, 0x00, 0x00, 0x00, 0x03, 0x00, 0x00, 0x00, 0x28, 0xD7, 0xFF, 0xFF,
    0x01, 0x00, 0x00, 0x00, 0x19, 0x00, 0x00, 0x00, 0x02, 0x00, 0x00, 0x00,
    0x18, 0x00, 0x00, 0x00, 0x12, 0x00, 0x00, 0x00, 0xCE, 0xFF, 0xFF, 0xFF,
    0x14, 0x00, 0x00, 0x00, 0x00, 0x00, 0x00, 0x15, 0x10, 0x00, 0x00, 0x00,
    0x14, 0x00, 0x00, 0x00, 0x02, 0x00, 0x00, 0x00, 0x58, 0xD7, 0xFF, 0xFF,
    0x01, 0x00, 0x00, 0x00, 0x18, 0x00, 0x00, 0x00, 0x02, 0x00, 0x00, 0x00,
    0x17, 0x00, 0x00, 0x00, 0x13, 0x00, 0x00, 0x00, 0x00, 0x00, 0x0E, 0x00,
    0x18, 0x00, 0x14, 0x00, 0x10, 0x00, 0x0C, 0x00, 0x0B, 0x00, 0x04, 0x00,
    0x0E, 0x00, 0x00, 0x00, 0x20, 0x00, 0x00, 0x00, 0x00, 0x00, 0x00, 0x01,
    0x28, 0x00, 0x00, 0x00, 0x2C, 0x00, 0x00, 0x00, 0x01, 0x00, 0x00, 0x00,
    0x0C, 0x00, 0x10, 0x00, 0x00, 0x00, 0x0C, 0x00, 0x08, 0x00, 0x07, 0x00,
    0x0C, 0x00, 0x00, 0x00, 0x00, 0x00, 0x00, 0x01, 0x01, 0x00, 0x00, 0x00,
    0x01, 0x00, 0x00, 0x00, 0x01, 0x00, 0x00, 0x00, 0x17, 0x00, 0x00, 0x00,
    0x03, 0x00, 0x00, 0x00, 0x16, 0x00, 0x00, 0x00, 0x15, 0x00, 0x00, 0x00,
    0x14, 0x00, 0x00, 0x00, 0x00, 0x00, 0x0E, 0x00, 0x14, 0x00, 0x00, 0x00,
    0x10, 0x00, 0x0C, 0x00, 0x0B, 0x00, 0x04, 0x00, 0x0E, 0x00, 0x00, 0x00,
    0x10, 0x00, 0x00, 0x00, 0x00, 0x00, 0x00, 0x34, 0x0C, 0x00, 0x00, 0x00,
    0x10, 0x00, 0x00, 0x00, 0xF0, 0xD7, 0xFF, 0xFF, 0x01, 0x00, 0x00, 0x00,
    0x16, 0x00, 0x00, 0x00, 0x02, 0x00, 0x00, 0x00, 0x00, 0x00, 0x00, 0x00,
    0x01, 0x00, 0x00, 0x00, 0x01, 0x00, 0x00, 0x00, 0x2C, 0x00, 0x00, 0x00,
    0x01, 0x00, 0x00, 0x00, 0x00, 0x00, 0x00, 0x00, 0x2D, 0x00, 0x00, 0x00,
    0x1C, 0x28, 0x00, 0x00, 0xC4, 0x27, 0x00, 0x00, 0x50, 0x27, 0x00, 0x00,
    0x14, 0x27, 0x00, 0x00, 0xB4, 0x26, 0x00, 0x00, 0x58, 0x26, 0x00, 0x00,
    0xF4, 0x25, 0x00, 0x00, 0x98, 0x25, 0x00, 0x00, 0x2C, 0x25, 0x00, 0x00,
    0xB8, 0x24, 0x00, 0x00, 0x7C, 0x23, 0x00, 0x00, 0x58, 0x22, 0x00, 0x00,
    0xA4, 0x20, 0x00, 0x00, 0x70, 0x1F, 0x00, 0x00, 0xEC, 0x1E, 0x00, 0x00,
    0x68, 0x1E, 0x00, 0x00, 0xF4, 0x1B, 0x00, 0x00, 0x00, 0x1A, 0x00, 0x00,
    0x7C, 0x19, 0x00, 0x00, 0xF8, 0x18, 0x00, 0x00, 0x54, 0x17, 0x00, 0x00,
    0x20, 0x16, 0x00, 0x00, 0x7C, 0x15, 0x00, 0x00, 0x68, 0x14, 0x00, 0x00,
    0x0C, 0x13, 0x00, 0x00, 0x50, 0x11, 0x00, 0x00, 0x98, 0x0F, 0x00, 0x00,
    0xF0, 0x0E, 0x00, 0x00, 0x54, 0x0E, 0x00, 0x00, 0xBC, 0x0D, 0x00, 0x00,
    0x1C, 0x0D, 0x00, 0x00, 0xF8, 0x0B, 0x00, 0x00, 0x94, 0x0A, 0x00, 0x00,
    0xC8, 0x08, 0x00, 0x00, 0x00, 0x07, 0x00, 0x00, 0x58, 0x06, 0x00, 0x00,
    0xBC, 0x05, 0x00, 0x00, 0x1C, 0x05, 0x00, 0x00, 0x7C, 0x04, 0x00, 0x00,
    0x58, 0x03, 0x00, 0x00, 0x60, 0x02, 0x00, 0x00, 0xD0, 0x01, 0x00, 0x00,
    0x1C, 0x01, 0x00, 0x00, 0x80, 0x00, 0x00, 0x00, 0x04, 0x00, 0x00, 0x00,
    0xAE, 0xD8, 0xFF, 0xFF, 0x00, 0x00, 0x00, 0x01, 0x18, 0x00, 0x00, 0x00,
    0x20, 0x00, 0x00, 0x00, 0x3C, 0x00, 0x00, 0x00, 0x2D, 0x00, 0x00, 0x00,
    0x00, 0x00, 0x00, 0x09, 0x50, 0x00, 0x00, 0x00, 0x02, 0x00, 0x00, 0x00,
    0xFF, 0xFF, 0xFF, 0xFF, 0x01, 0x00, 0x00, 0x00, 0x94, 0xD8, 0xFF, 0xFF,
    0x08, 0x00, 0x00, 0x00, 0x10, 0x00, 0x00, 0x00, 0x01, 0x00, 0x00, 0x00,
    0x80, 0xFF, 0xFF, 0xFF, 0xFF, 0xFF, 0xFF, 0xFF, 0x01, 0x00, 0x00, 0x00,
    0x00, 0x00, 0x80, 0x3B, 0x1B, 0x00, 0x00, 0x00, 0x53, 0x74, 0x61, 0x74,
    0x65, 0x66, 0x75, 0x6C, 0x50, 0x61, 0x72, 0x74, 0x69, 0x74, 0x69, 0x6F,
    0x6E, 0x65, 0x64, 0x43, 0x61, 0x6C, 0x6C, 0x5F, 0x31, 0x3A, 0x30, 0x00,
    0x02, 0x00, 0x00, 0x00, 0x01, 0x00, 0x00, 0x00, 0x01, 0x00, 0x00, 0x00,
    0x26, 0xD9, 0xFF, 0xFF, 0x00, 0x00, 0x00, 0x01, 0x18, 0x00, 0x00, 0x00,
    0x20, 0x00, 0x00, 0x00, 0x3C, 0x00, 0x00, 0x00, 0x2C, 0x00, 0x00, 0x00,
    0x00, 0x00, 0x00, 0x09, 0x70, 0x00, 0x00, 0x00, 0x02, 0x00, 0x00, 0x00,
    0xFF, 0xFF, 0xFF, 0xFF, 0x01, 0x00, 0x00, 0x00, 0x0C, 0xD9, 0xFF, 0xFF,
    0x08, 0x00, 0x00, 0x00, 0x10, 0x00, 0x00, 0x00, 0x01, 0x00, 0x00, 0x00,
    0x62, 0x00, 0x00, 0x00, 0x00, 0x00, 0x00, 0x00, 0x01, 0x00, 0x00, 0x00,
    0x4C, 0x92, 0x16, 0x3E, 0x38, 0x00, 0x00, 0x00, 0x73, 0x65, 0x71, 0x75,
    0x65, 0x6E, 0x74, 0x69, 0x61, 0x6C, 0x5F, 0x31, 0x2F, 0x64, 0x65, 0x6E,
    0x73, 0x65, 0x5F, 0x31, 0x5F, 0x32, 0x2F, 0x4D, 0x61, 0x74, 0x4D, 0x75,
    0x6C, 0x3B, 0x73, 0x65, 0x71, 0x75, 0x65, 0x6E, 0x74, 0x69, 0x61, 0x6C,
    0x5F, 0x31, 0x2F, 0x64, 0x65, 0x6E, 0x73, 0x65, 0x5F, 0x31, 0x5F, 0x32,
    0x2F, 0x41, 0x64, 0x64, 0x00, 0x00, 0x00, 0x00, 0x02, 0x00, 0x00, 0x00,
    0x01, 0x00, 0x00, 0x00, 0x01, 0x00, 0x00, 0x00, 0xBE, 0xD9, 0xFF, 0xFF,
    0x00, 0x00, 0x00, 0x01, 0x18, 0x00, 0x00, 0x00, 0x20, 0x00, 0x00, 0x00,
    0x3C, 0x00, 0x00, 0x00, 0x2B, 0x00, 0x00, 0x00, 0x00, 0x00, 0x00, 0x09,
    0x88, 0x00, 0x00, 0x00, 0x02, 0x00, 0x00, 0x00, 0xFF, 0xFF, 0xFF, 0xFF,
    0x10, 0x00, 0x00, 0x00, 0xA4, 0xD9, 0xFF, 0xFF, 0x08, 0x00, 0x00, 0x00,
    0x10, 0x00, 0x00, 0x00, 0x01, 0x00, 0x00, 0x00, 0x80, 0xFF, 0xFF, 0xFF,
    0xFF, 0xFF, 0xFF, 0xFF, 0x01, 0x00, 0x00, 0x00, 0x23, 0xCC, 0x8F, 0x3D,
    0x52, 0x00, 0x00, 0x00, 0x73, 0x65, 0x71, 0x75, 0x65, 0x6E, 0x74, 0x69,
    0x61, 0x6C, 0x5F, 0x31, 0x2F, 0x64, 0x65, 0x6E, 0x73, 0x65, 0x5F, 0x31,
    0x2F, 0x4D, 0x61, 0x74, 0x4D, 0x75, 0x6C, 0x3B, 0x73, 0x65, 0x71, 0x75,
    0x65, 0x6E, 0x74, 0x69, 0x61, 0x6C, 0x5F, 0x31, 0x2F, 0x64, 0x65, 0x6E,
    0x73, 0x65, 0x5F, 0x31, 0x2F, 0x52, 0x65, 0x6C, 0x75, 0x3B, 0x73, 0x65,
    0x71, 0x75, 0x65, 0x6E, 0x74, 0x69, 0x61, 0x6C, 0x5F, 0x31, 0x2F, 0x64,
    0x65, 0x6E, 0x73, 0x65, 0x5F, 0x31, 0x2F, 0x42, 0x69, 0x61, 0x73, 0x41,
    0x64, 0x64, 0x00, 0x00, 0x02, 0x00, 0x00, 0x00, 0x01, 0x00, 0x00, 0x00,
    0x10, 0x00, 0x00, 0x00, 0x6E, 0xDA, 0xFF, 0xFF, 0x00, 0x00, 0x00, 0x01,
    0x18, 0x00, 0x00, 0x00, 0x20, 0x00, 0x00, 0x00, 0x3C, 0x00, 0x00, 0x00,
    0x2A, 0x00, 0x00, 0x00, 0x00, 0x00, 0x00, 0x09, 0x64, 0x00, 0x00, 0x00,
    0x02, 0x00, 0x00, 0x00, 0xFF, 0xFF, 0xFF, 0xFF, 0x10, 0x00, 0x00, 0x00,
    0x54, 0xDA, 0xFF, 0xFF, 0x08, 0x00, 0x00, 0x00, 0x10, 0x00, 0x00, 0x00,
    0x01, 0x00, 0x00, 0x00, 0x80, 0xFF, 0xFF, 0xFF, 0xFF, 0xFF, 0xFF, 0xFF,
    0x01, 0x00, 0x00, 0x00, 0xE2, 0x56, 0xB5, 0x3C, 0x2C, 0x00, 0x00, 0x00,
    0x73, 0x65, 0x71, 0x75, 0x65, 0x6E, 0x74, 0x69, 0x61, 0x6C, 0x5F, 0x31,
    0x2F, 0x67, 0x6C, 0x6F, 0x62, 0x61, 0x6C, 0x5F, 0x61, 0x76, 0x65, 0x72,
    0x61, 0x67, 0x65, 0x5F, 0x70, 0x6F, 0x6F, 0x6C, 0x69, 0x6E, 0x67, 0x31,
    0x64, 0x5F, 0x31, 0x2F, 0x4D, 0x65, 0x61, 0x6E, 0x00, 0x00, 0x00, 0x00,
    0x02, 0x00, 0x00, 0x00, 0x01, 0x00, 0x00, 0x00, 0x10, 0x00, 0x00, 0x00,
    0xFA, 0xDA, 0xFF, 0xFF, 0x00, 0x00, 0x00, 0x01, 0x18, 0x00, 0x00, 0x00,
    0x24, 0x00, 0x00, 0x00, 0x44, 0x00, 0x00, 0x00, 0x29, 0x00, 0x00, 0x00,
    0x00, 0x00, 0x00, 0x09, 0xC8, 0x00, 0x00, 0x00, 0x03, 0x00, 0x00, 0x00,
    0xFF, 0xFF, 0xFF, 0xFF, 0x25, 0x00, 0x00, 0x00, 0x10, 0x00, 0x00, 0x00,
    0xE4, 0xDA, 0xFF, 0xFF, 0x08, 0x00, 0x00, 0x00, 0x14, 0x00, 0x00, 0x00,
    0x01, 0x00, 0x00, 0x00, 0x80, 0xFF, 0xFF, 0xFF, 0xFF, 0xFF, 0xFF, 0xFF,
    0x00, 0x00, 0x00, 0x00, 0x01, 0x00, 0x00, 0x00, 0x97, 0x7F, 0x30, 0x3E,
    0x88, 0x00, 0x00, 0x00, 0x73, 0x65, 0x71, 0x75, 0x65, 0x6E, 0x74, 0x69,
    0x61, 0x6C, 0x5F, 0x31, 0x2F, 0x63, 0x6F, 0x6E, 0x76, 0x31, 0x64, 0x5F,
    0x32, 0x5F, 0x31, 0x2F, 0x52, 0x65, 0x6C, 0x75, 0x3B, 0x73, 0x65, 0x71,
    0x75, 0x65, 0x6E, 0x74, 0x69, 0x61, 0x6C, 0x5F, 0x31, 0x2F, 0x63, 0x6F,
    0x6E, 0x76, 0x31, 0x64, 0x5F, 0x32, 0x5F, 0x31, 0x2F, 0x42, 0x69, 0x61,
    0x73, 0x41, 0x64, 0x64, 0x3B, 0x73, 0x65, 0x71, 0x75, 0x65, 0x6E, 0x74,
    0x69, 0x61, 0x6C, 0x5F, 0x31, 0x2F, 0x63, 0x6F, 0x6E, 0x76, 0x31, 0x64,
    0x5F, 0x32, 0x5F, 0x31, 0x2F, 0x63, 0x6F, 0x6E, 0x76, 0x6F, 0x6C, 0x75,
    0x74, 0x69, 0x6F, 0x6E, 0x2F, 0x53, 0x71, 0x75, 0x65, 0x65, 0x7A, 0x65,
    0x3B, 0x73, 0x65, 0x71, 0x75, 0x65, 0x6E, 0x74, 0x69, 0x61, 0x6C, 0x5F,
    0x31, 0x2F, 0x63, 0x6F, 0x6E, 0x76, 0x31, 0x64, 0x5F, 0x32, 0x5F, 0x31,
    0x2F, 0x53, 0x71, 0x75, 0x65, 0x65, 0x7A, 0x65, 0x00, 0x00, 0x00, 0x00,
    0x03, 0x00, 0x00, 0x00, 0x01, 0x00, 0x00, 0x00, 0x25, 0x00, 0x00, 0x00,
    0x10, 0x00, 0x00, 0x00, 0xEE, 0xDB, 0xFF, 0xFF, 0x00, 0x00, 0x00, 0x01,
    0x18, 0x00, 0x00, 0x00, 0x28, 0x00, 0x00, 0x00, 0x48, 0x00, 0x00, 0x00,
    0x28, 0x00, 0x00, 0x00, 0x00, 0x00, 0x00, 0x09, 0xF0, 0x00, 0x00, 0x00,
    0x04, 0x00, 0x00, 0x00, 0xFF, 0xFF, 0xFF, 0xFF, 0x01, 0x00, 0x00, 0x00,
    0x25, 0x00, 0x00, 0x00, 0x10, 0x00, 0x00, 0x00, 0xDC, 0xDB, 0xFF, 0xFF,
    0x08, 0x00, 0x00, 0x00, 0x14, 0x00, 0x00, 0x00, 0x01, 0x00, 0x00, 0x00,
    0x80, 0xFF, 0xFF, 0xFF, 0xFF, 0xFF, 0xFF, 0xFF, 0x00, 0x00, 0x00, 0x00,
    0x01, 0x00, 0x00, 0x00, 0x97, 0x7F, 0x30, 0x3E, 0xAD, 0x00, 0x00, 0x00,
    0x73, 0x65, 0x71, 0x75, 0x65, 0x6E, 0x74, 0x69, 0x61, 0x6C, 0x5F, 0x31,
    0x2F, 0x63, 0x6F, 0x6E, 0x76, 0x31, 0x64, 0x5F, 0x32, 0x5F, 0x31, 0x2F,
    0x52, 0x65, 0x6C, 0x75, 0x3B, 0x73, 0x65, 0x71, 0x75, 0x65, 0x6E, 0x74,
    0x69, 0x61, 0x6C, 0x5F, 0x31, 0x2F, 0x63, 0x6F, 0x6E, 0x76, 0x31, 0x64,
    0x5F, 0x32, 0x5F, 0x31, 0x2F, 0x42, 0x69, 0x61, 0x73, 0x41, 0x64, 0x64,
    0x3B, 0x73, 0x65, 0x71, 0x75, 0x65, 0x6E, 0x74, 0x69, 0x61, 0x6C, 0x5F,
    0x31, 0x2F, 0x63, 0x6F, 0x6E, 0x76, 0x31, 0x64, 0x5F, 0x32, 0x5F, 0x31,
    0x2F, 0x63, 0x6F, 0x6E, 0x76, 0x6F, 0x6C, 0x75, 0x74, 0x69, 0x6F, 0x6E,
    0x2F, 0x53, 0x71, 0x75, 0x65, 0x65, 0x7A, 0x65, 0x3B, 0x73, 0x65, 0x71,
    0x75, 0x65, 0x6E, 0x74, 0x69, 0x61, 0x6C, 0x5F, 0x31, 0x2F, 0x63, 0x6F,
    0x6E, 0x76, 0x31, 0x64, 0x5F, 0x32, 0x5F, 0x31, 0x2F, 0x53, 0x71, 0x75,
    0x65, 0x65, 0x7A, 0x65, 0x3B, 0x73, 0x65, 0x71, 0x75, 0x65, 0x6E, 0x74,
    0x69, 0x61, 0x6C, 0x5F, 0x31, 0x2F, 0x63, 0x6F, 0x6E, 0x76, 0x31, 0x64,
    0x5F, 0x32, 0x5F, 0x31, 0x2F, 0x63, 0x6F, 0x6E, 0x76, 0x6F, 0x6C, 0x75,
    0x74, 0x69, 0x6F, 0x6E, 0x31, 0x00, 0x00, 0x00, 0x04, 0x00, 0x00, 0x00,
    0x01, 0x00, 0x00, 0x00, 0x01, 0x00, 0x00, 0x00, 0x25, 0x00, 0x00, 0x00,
    0x10, 0x00, 0x00, 0x00, 0x0E, 0xDD, 0xFF, 0xFF, 0x00, 0x00, 0x00, 0x01,
    0x18, 0x00, 0x00, 0x00, 0x28, 0x00, 0x00, 0x00, 0x44, 0x00, 0x00, 0x00,
    0x27, 0x00, 0x00, 0x00, 0x00, 0x00, 0x00, 0x09, 0x6C, 0x00, 0x00, 0x00,
    0x04, 0x00, 0x00, 0x00, 0xFF, 0xFF, 0xFF, 0xFF, 0x01, 0x00, 0x00, 0x00,
    0x25, 0x00, 0x00, 0x00, 0x20, 0x00, 0x00, 0x00, 0xFC, 0xDC, 0xFF, 0xFF,
    0x08, 0x00, 0x00, 0x00, 0x10, 0x00, 0x00, 0x00, 0x01, 0x00, 0x00, 0x00,
    0x83, 0xFF, 0xFF, 0xFF, 0xFF, 0xFF, 0xFF, 0xFF, 0x01, 0x00, 0x00, 0x00,
    0x71, 0x5E, 0x92, 0x3E, 0x2E, 0x00, 0x00, 0x00, 0x73, 0x65, 0x71, 0x75,
    0x65, 0x6E, 0x74, 0x69, 0x61, 0x6C, 0x5F, 0x31, 0x2F, 0x63, 0x6F, 0x6E,
    0x76, 0x31, 0x64, 0x5F, 0x32, 0x5F, 0x31, 0x2F, 0x63, 0x6F, 0x6E, 0x76,
    0x6F, 0x6C, 0x75, 0x74, 0x69, 0x6F, 0x6E, 0x2F, 0x45, 0x78, 0x70, 0x61,
    0x6E, 0x64, 0x44, 0x69, 0x6D, 0x73, 0x00, 0x00, 0x04, 0x00, 0x00, 0x00,
    0x01, 0x00, 0x00, 0x00, 0x01, 0x00, 0x00, 0x00, 0x25, 0x00, 0x00, 0x00,
    0x20, 0x00, 0x00, 0x00, 0xAA, 0xDD, 0xFF, 0xFF, 0x00, 0x00, 0x00, 0x01,
    0x18, 0x00, 0x00, 0x00, 0x24, 0x00, 0x00, 0x00, 0x44, 0x00, 0x00, 0x00,
    0x26, 0x00, 0x00, 0x00, 0x00, 0x00, 0x00, 0x09, 0x70, 0x00, 0x00, 0x00,
    0x03, 0x00, 0x00, 0x00, 0xFF, 0xFF, 0xFF, 0xFF, 0x25, 0x00, 0x00, 0x00,
    0x20, 0x00, 0x00, 0x00, 0x94, 0xDD, 0xFF, 0xFF, 0x08, 0x00, 0x00, 0x00,
    0x14, 0x00, 0x00, 0x00, 0x01, 0x00, 0x00, 0x00, 0x83, 0xFF, 0xFF, 0xFF,
    0xFF, 0xFF, 0xFF, 0xFF, 0x00, 0x00, 0x00, 0x00, 0x01, 0x00, 0x00, 0x00,
    0x71, 0x5E, 0x92, 0x3E, 0x31, 0x00, 0x00, 0x00, 0x73, 0x65, 0x71, 0x75,
    0x65, 0x6E, 0x74, 0x69, 0x61, 0x6C, 0x5F, 0x31, 0x2F, 0x6D, 0x61, 0x78,
    0x5F, 0x70, 0x6F, 0x6F, 0x6C, 0x69, 0x6E, 0x67, 0x31, 0x64, 0x5F, 0x31,
    0x5F, 0x32, 0x2F, 0x4D, 0x61, 0x78, 0x50, 0x6F, 0x6F, 0x6C, 0x31, 0x64,
    0x2F, 0x53, 0x71, 0x75, 0x65, 0x65, 0x7A, 0x65, 0x31, 0x00, 0x00, 0x00,
    0x03, 0x00, 0x00, 0x00, 0x01, 0x00, 0x00, 0x00, 0x25, 0x00, 0x00, 0x00,
    0x20, 0x00, 0x00, 0x00, 0x46, 0xDE, 0xFF, 0xFF, 0x00, 0x00, 0x00, 0x01,
    0x18, 0x00, 0x00, 0x00, 0x28, 0x00, 0x00, 0x00, 0x44, 0x00, 0x00, 0x00,
    0x25, 0x00, 0x00, 0x00, 0x00, 0x00, 0x00, 0x09, 0x68, 0x00, 0x00, 0x00,
    0x04, 0x00, 0x00, 0x00, 0xFF, 0xFF, 0xFF, 0xFF, 0x01, 0x00, 0x00, 0x00,
    0x25, 0x00, 0x00, 0x00, 0x20, 0x00, 0x00, 0x00, 0x34, 0xDE, 0xFF, 0xFF,
    0x08, 0x00, 0x00, 0x00, 0x10, 0x00, 0x00, 0x00, 0x01, 0x00, 0x00, 0x00,
    0x83, 0xFF, 0xFF, 0xFF, 0xFF, 0xFF, 0xFF, 0xFF, 0x01, 0x00, 0x00, 0x00,
    0x71, 0x5E, 0x92, 0x3E, 0x28, 0x00, 0x00, 0x00, 0x73, 0x65, 0x71, 0x75,
    0x65, 0x6E, 0x74, 0x69, 0x61, 0x6C, 0x5F, 0x31, 0x2F, 0x6D, 0x61, 0x78,
    0x5F, 0x70, 0x6F, 0x6F, 0x6C, 0x69, 0x6E, 0x67, 0x31, 0x64, 0x5F, 0x31,
    0x5F, 0x32, 0x2F, 0x4D, 0x61, 0x78, 0x50, 0x6F, 0x6F, 0x6C, 0x31, 0x64,
    0x00, 0x00, 0x00, 0x00, 0x04, 0x00, 0x00, 0x00, 0x01, 0x00, 0x00, 0x00,
    0x01, 0x00, 0x00, 0x00, 0x25, 0x00, 0x00, 0x00, 0x20, 0x00, 0x00, 0x00,
    0xDE, 0xDE, 0xFF, 0xFF, 0x00, 0x00, 0x00, 0x01, 0x18, 0x00, 0x00, 0x00,
    0x28, 0x00, 0x00, 0x00, 0x48, 0x00, 0x00, 0x00, 0x24, 0x00, 0x00, 0x00,
    0x00, 0x00, 0x00, 0x09, 0x74, 0x00, 0x00, 0x00, 0x04, 0x00, 0x00, 0x00,
    0xFF, 0xFF, 0xFF, 0xFF, 0x01, 0x00, 0x00, 0x00, 0x4B, 0x00, 0x00, 0x00,
    0x20, 0x00, 0x00, 0x00, 0xCC, 0xDE, 0xFF, 0xFF, 0x08, 0x00, 0x00, 0x00,
    0x14, 0x00, 0x00, 0x00, 0x01, 0x00, 0x00, 0x00, 0x83, 0xFF, 0xFF, 0xFF,
    0xFF, 0xFF, 0xFF, 0xFF, 0x00, 0x00, 0x00, 0x00, 0x01, 0x00, 0x00, 0x00,
    0x71, 0x5E, 0x92, 0x3E, 0x33, 0x00, 0x00, 0x00, 0x73, 0x65, 0x71, 0x75,
    0x65, 0x6E, 0x74, 0x69, 0x61, 0x6C, 0x5F, 0x31, 0x2F, 0x6D, 0x61, 0x78,
    0x5F, 0x70, 0x6F, 0x6F, 0x6C, 0x69, 0x6E, 0x67, 0x31, 0x64, 0x5F, 0x31,
    0x5F, 0x32, 0x2F, 0x4D, 0x61, 0x78, 0x50, 0x6F, 0x6F, 0x6C, 0x31, 0x64,
    0x2F, 0x45, 0x78, 0x70, 0x61, 0x6E, 0x64, 0x44, 0x69, 0x6D, 0x73, 0x00,
    0x04, 0x00, 0x00, 0x00, 0x01, 0x00, 0x00, 0x00, 0x01, 0x00, 0x00, 0x00,
    0x4B, 0x00, 0x00, 0x00, 0x20, 0x00, 0x00, 0x00, 0x82, 0xDF, 0xFF, 0xFF,
    0x00, 0x00, 0x00, 0x01, 0x18, 0x00, 0x00, 0x00, 0x24, 0x00, 0x00, 0x00,
    0x44, 0x00, 0x00, 0x00, 0x23, 0x00, 0x00, 0x00, 0x00, 0x00, 0x00, 0x09,
    0x98, 0x01, 0x00, 0x00, 0x03, 0x00, 0x00, 0x00, 0xFF, 0xFF, 0xFF, 0xFF,
    0x4B, 0x00, 0x00, 0x00, 0x20, 0x00, 0x00, 0x00, 0x6C, 0xDF, 0xFF, 0xFF,
    0x08, 0x00, 0x00, 0x00, 0x14, 0x00, 0x00, 0x00, 0x01, 0x00, 0x00, 0x00,
    0x83, 0xFF, 0xFF, 0xFF, 0xFF, 0xFF, 0xFF, 0xFF, 0x00, 0x00, 0x00, 0x00,
    0x01, 0x00, 0x00, 0x00, 0x71, 0x5E, 0x92, 0x3E, 0x59, 0x01, 0x00, 0x00,
    0x73, 0x65, 0x71, 0x75, 0x65, 0x6E, 0x74, 0x69, 0x61, 0x6C, 0x5F, 0x31,
    0x2F, 0x62, 0x61, 0x74, 0x63, 0x68, 0x5F, 0x6E, 0x6F, 0x72, 0x6D, 0x61,
    0x6C, 0x69, 0x7A, 0x61, 0x74, 0x69, 0x6F, 0x6E, 0x5F, 0x31, 0x5F, 0x32,
    0x2F, 0x62, 0x61, 0x74, 0x63, 0x68, 0x6E, 0x6F, 0x72, 0x6D, 0x2F, 0x61,
    0x64, 0x64, 0x5F, 0x31, 0x3B, 0x73, 0x65, 0x71, 0x75, 0x65, 0x6E, 0x74,
    0x69, 0x61, 0x6C, 0x5F, 0x31, 0x2F, 0x63, 0x6F, 0x6E, 0x76, 0x31, 0x64,
    0x5F, 0x31, 0x5F, 0x32, 0x2F, 0x63, 0x6F, 0x6E, 0x76, 0x6F, 0x6C, 0x75,
    0x74, 0x69, 0x6F, 0x6E, 0x2F, 0x53, 0x71, 0x75, 0x65, 0x65, 0x7A, 0x65,
    0x3B, 0x73, 0x65, 0x71, 0x75, 0x65, 0x6E, 0x74, 0x69, 0x61, 0x6C, 0x5F,
    0x31, 0x2F, 0x62, 0x61, 0x74, 0x63, 0x68, 0x5F, 0x6E, 0x6F, 0x72, 0x6D,
    0x61, 0x6C, 0x69, 0x7A, 0x61, 0x74, 0x69, 0x6F, 0x6E, 0x5F, 0x31, 0x5F,
    0x32, 0x2F, 0x62, 0x61, 0x74, 0x63, 0x68, 0x6E, 0x6F, 0x72, 0x6D, 0x2F,
    0x6D, 0x75, 0x6C, 0x5F, 0x31, 0x3B, 0x73, 0x65, 0x71, 0x75, 0x65, 0x6E,
    0x74, 0x69, 0x61, 0x6C, 0x5F, 0x31, 0x2F, 0x63, 0x6F, 0x6E, 0x76, 0x31,
    0x64, 0x5F, 0x31, 0x5F, 0x32, 0x2F, 0x52, 0x65, 0x6C, 0x75, 0x3B, 0x73,
    0x65, 0x71, 0x75, 0x65, 0x6E, 0x74, 0x69, 0x61, 0x6C, 0x5F, 0x31, 0x2F,
    0x63, 0x6F, 0x6E, 0x76, 0x31, 0x64, 0x5F, 0x31, 0x5F, 0x32, 0x2F, 0x42,
    0x69, 0x61, 0x73, 0x41, 0x64, 0x64, 0x3B, 0x73, 0x65, 0x71, 0x75, 0x65,
    0x6E, 0x74, 0x69, 0x61, 0x6C, 0x5F, 0x31, 0x2F, 0x63, 0x6F, 0x6E, 0x76,
    0x31, 0x64, 0x5F, 0x31, 0x5F, 0x32, 0x2F, 0x53, 0x71, 0x75, 0x65, 0x65,
    0x7A, 0x65, 0x3B, 0x73, 0x65, 0x71, 0x75, 0x65, 0x6E, 0x74, 0x69, 0x61,
    0x6C, 0x5F, 0x31, 0x2F, 0x62, 0x61, 0x74, 0x63, 0x68, 0x5F, 0x6E, 0x6F,
    0x72, 0x6D, 0x61, 0x6C, 0x69, 0x7A, 0x61, 0x74, 0x69, 0x6F, 0x6E, 0x5F,
    0x31, 0x5F, 0x32, 0x2F, 0x62, 0x61, 0x74, 0x63, 0x68, 0x6E, 0x6F, 0x72,
    0x6D, 0x2F, 0x6D, 0x75, 0x6C, 0x3B, 0x73, 0x65, 0x71, 0x75, 0x65, 0x6E,
    0x74, 0x69, 0x61, 0x6C, 0x5F, 0x31, 0x2F, 0x62, 0x61, 0x74, 0x63, 0x68,
    0x5F, 0x6E, 0x6F, 0x72, 0x6D, 0x61, 0x6C, 0x69, 0x7A, 0x61, 0x74, 0x69,
    0x6F, 0x6E, 0x5F, 0x31, 0x5F, 0x32, 0x2F, 0x62, 0x61, 0x74, 0x63, 0x68,
    0x6E, 0x6F, 0x72, 0x6D, 0x2F, 0x73, 0x75, 0x62, 0x31, 0x00, 0x00, 0x00,
    0x03, 0x00, 0x00, 0x00, 0x01, 0x00, 0x00, 0x00, 0x4B, 0x00, 0x00, 0x00,
    0x20, 0x00, 0x00, 0x00, 0x46, 0xE1, 0xFF, 0xFF, 0x00, 0x00, 0x00, 0x01,
    0x18, 0x00, 0x00, 0x00, 0x28, 0x00, 0x00, 0x00, 0x44, 0x00, 0x00, 0x00,
    0x22, 0x00, 0x00, 0x00, 0x00, 0x00, 0x00, 0x09, 0x98, 0x01, 0x00, 0x00,
    0x04, 0x00, 0x00, 0x00, 0xFF, 0xFF, 0xFF, 0xFF, 0x01, 0x00, 0x00, 0x00,
    0x4B, 0x00, 0x00, 0x00, 0x20, 0x00, 0x00, 0x00, 0x34, 0xE1, 0xFF, 0xFF,
    0x08, 0x00, 0x00, 0x00, 0x10, 0x00, 0x00, 0x00, 0x01, 0x00, 0x00, 0x00,
    0x83, 0xFF, 0xFF, 0xFF, 0xFF, 0xFF, 0xFF, 0xFF, 0x01, 0x00, 0x00, 0x00,
    0x71, 0x5E, 0x92, 0x3E, 0x58, 0x01, 0x00, 0x00, 0x73, 0x65, 0x71, 0x75,
    0x65, 0x6E, 0x74, 0x69, 0x61, 0x6C, 0x5F, 0x31, 0x2F, 0x62, 0x61, 0x74,
    0x63, 0x68, 0x5F, 0x6E, 0x6F, 0x72, 0x6D, 0x61, 0x6C, 0x69, 0x7A, 0x61,
    0x74, 0x69, 0x6F, 0x6E, 0x5F, 0x31, 0x5F, 0x32, 0x2F, 0x62, 0x61, 0x74,
    0x63, 0x68, 0x6E, 0x6F, 0x72, 0x6D, 0x2F, 0x61, 0x64, 0x64, 0x5F, 0x31,
    0x3B, 0x73, 0x65, 0x71, 0x75, 0x65, 0x6E, 0x74, 0x69, 0x61, 0x6C, 0x5F,
    0x31, 0x2F, 0x63, 0x6F, 0x6E, 0x76, 0x31, 0x64, 0x5F, 0x31, 0x5F, 0x32,
    0x2F, 0x63, 0x6F, 0x6E, 0x76, 0x6F, 0x6C, 0x75, 0x74, 0x69, 0x6F, 0x6E,
    0x2F, 0x53, 0x71, 0x75, 0x65, 0x65, 0x7A, 0x65, 0x3B, 0x73, 0x65, 0x71,
    0x75, 0x65, 0x6E, 0x74, 0x69, 0x61, 0x6C, 0x5F, 0x31, 0x2F, 0x62, 0x61,
    0x74, 0x63, 0x68, 0x5F, 0x6E, 0x6F, 0x72, 0x6D, 0x61, 0x6C, 0x69, 0x7A,
    0x61, 0x74, 0x69, 0x6F, 0x6E, 0x5F, 0x31, 0x5F, 0x32, 0x2F, 0x62, 0x61,
    0x74, 0x63, 0x68, 0x6E, 0x6F, 0x72, 0x6D, 0x2F, 0x6D, 0x75, 0x6C, 0x5F,
    0x31, 0x3B, 0x73, 0x65, 0x71, 0x75, 0x65, 0x6E, 0x74, 0x69, 0x61, 0x6C,
    0x5F, 0x31, 0x2F, 0x63, 0x6F, 0x6E, 0x76, 0x31, 0x64, 0x5F, 0x31, 0x5F,
    0x32, 0x2F, 0x52, 0x65, 0x6C, 0x75, 0x3B, 0x73, 0x65, 0x71, 0x75, 0x65,
    0x6E, 0x74, 0x69, 0x61, 0x6C, 0x5F, 0x31, 0x2F, 0x63, 0x6F, 0x6E, 0x76,
    0x31, 0x64, 0x5F, 0x31, 0x5F, 0x32, 0x2F, 0x42, 0x69, 0x61, 0x73, 0x41,
    0x64, 0x64, 0x3B, 0x73, 0x65, 0x71, 0x75, 0x65, 0x6E, 0x74, 0x69, 0x61,
    0x6C, 0x5F, 0x31, 0x2F, 0x63, 0x6F, 0x6E, 0x76, 0x31, 0x64, 0x5F, 0x31,
    0x5F, 0x32, 0x2F, 0x53, 0x71, 0x75, 0x65, 0x65, 0x7A, 0x65, 0x3B, 0x73,
    0x65, 0x71, 0x75, 0x65, 0x6E, 0x74, 0x69, 0x61, 0x6C, 0x5F, 0x31, 0x2F,
    0x62, 0x61, 0x74, 0x63, 0x68, 0x5F, 0x6E, 0x6F, 0x72, 0x6D, 0x61, 0x6C,
    0x69, 0x7A, 0x61, 0x74, 0x69, 0x6F, 0x6E, 0x5F, 0x31, 0x5F, 0x32, 0x2F,
    0x62, 0x61, 0x74, 0x63, 0x68, 0x6E, 0x6F, 0x72, 0x6D, 0x2F, 0x6D, 0x75,
    0x6C, 0x3B, 0x73, 0x65, 0x71, 0x75, 0x65, 0x6E, 0x74, 0x69, 0x61, 0x6C,
    0x5F, 0x31, 0x2F, 0x62, 0x61, 0x74, 0x63, 0x68, 0x5F, 0x6E, 0x6F, 0x72,
    0x6D, 0x61, 0x6C, 0x69, 0x7A, 0x61, 0x74, 0x69, 0x6F, 0x6E, 0x5F, 0x31,
    0x5F, 0x32, 0x2F, 0x62, 0x61, 0x74, 0x63, 0x68, 0x6E, 0x6F, 0x72, 0x6D,
    0x2F, 0x73, 0x75, 0x62, 0x00, 0x00, 0x00, 0x00, 0x04, 0x00, 0x00, 0x00,
    0x01, 0x00, 0x00, 0x00, 0x01, 0x00, 0x00, 0x00, 0x4B, 0x00, 0x00, 0x00,
    0x20, 0x00, 0x00, 0x00, 0x0E, 0xE3, 0xFF, 0xFF, 0x00, 0x00, 0x00, 0x01,
    0x18, 0x00, 0x00, 0x00, 0x28, 0x00, 0x00, 0x00, 0x44, 0x00, 0x00, 0x00,
    0x21, 0x00, 0x00, 0x00, 0x00, 0x00, 0x00, 0x09, 0x30, 0x01, 0x00, 0x00,
    0x04, 0x00, 0x00, 0x00, 0xFF, 0xFF, 0xFF, 0xFF, 0x01, 0x00, 0x00, 0x00,
    0x4B, 0x00, 0x00, 0x00, 0x20, 0x00, 0x00, 0x00, 0xFC, 0xE2, 0xFF, 0xFF,
    0x08, 0x00, 0x00, 0x00, 0x10, 0x00, 0x00, 0x00, 0x01, 0x00, 0x00, 0x00,
    0x83, 0xFF, 0xFF, 0xFF, 0xFF, 0xFF, 0xFF, 0xFF, 0x01, 0x00, 0x00, 0x00,
    0xDE, 0x07, 0x93, 0x3E, 0xF0, 0x00, 0x00, 0x00, 0x73, 0x65, 0x71, 0x75,
    0x65, 0x6E, 0x74, 0x69, 0x61, 0x6C, 0x5F, 0x31, 0x2F, 0x62, 0x61, 0x74,
    0x63, 0x68, 0x5F, 0x6E, 0x6F, 0x72, 0x6D, 0x61, 0x6C, 0x69, 0x7A, 0x61,
    0x74, 0x69, 0x6F, 0x6E, 0x5F, 0x31, 0x5F, 0x32, 0x2F, 0x62, 0x61, 0x74,
    0x63, 0x68, 0x6E, 0x6F, 0x72, 0x6D, 0x2F, 0x6D, 0x75, 0x6C, 0x5F, 0x31,
    0x3B, 0x73, 0x65, 0x71, 0x75, 0x65, 0x6E, 0x74, 0x69, 0x61, 0x6C, 0x5F,
    0x31, 0x2F, 0x63, 0x6F, 0x6E, 0x76, 0x31, 0x64, 0x5F, 0x31, 0x5F, 0x32,
    0x2F, 0x63, 0x6F, 0x6E, 0x76, 0x6F, 0x6C, 0x75, 0x74, 0x69, 0x6F, 0x6E,
    0x2F, 0x53, 0x71, 0x75, 0x65, 0x65, 0x7A, 0x65, 0x3B, 0x73, 0x65, 0x71,
    0x75, 0x65, 0x6E, 0x74, 0x69, 0x61, 0x6C, 0x5F, 0x31, 0x2F, 0x63, 0x6F,
    0x6E, 0x76, 0x31, 0x64, 0x5F, 0x31, 0x5F, 0x32, 0x2F, 0x52, 0x65, 0x6C,
    0x75, 0x3B, 0x73, 0x65, 0x71, 0x75, 0x65, 0x6E, 0x74, 0x69, 0x61, 0x6C,
    0x5F, 0x31, 0x2F, 0x63, 0x6F, 0x6E, 0x76, 0x31, 0x64, 0x5F, 0x31, 0x5F,
    0x32, 0x2F, 0x42, 0x69, 0x61, 0x73, 0x41, 0x64, 0x64, 0x3B, 0x73, 0x65,
    0x71, 0x75, 0x65, 0x6E, 0x74, 0x69, 0x61, 0x6C, 0x5F, 0x31, 0x2F, 0x63,
    0x6F, 0x6E, 0x76, 0x31, 0x64, 0x5F, 0x31, 0x5F, 0x32, 0x2F, 0x53, 0x71,
    0x75, 0x65, 0x65, 0x7A, 0x65, 0x3B, 0x73, 0x65, 0x71, 0x75, 0x65, 0x6E,
    0x74, 0x69, 0x61, 0x6C, 0x5F, 0x31, 0x2F, 0x62, 0x61, 0x74, 0x63, 0x68,
    0x5F, 0x6E, 0x6F, 0x72, 0x6D, 0x61, 0x6C, 0x69, 0x7A, 0x61, 0x74, 0x69,
    0x6F, 0x6E, 0x5F, 0x31, 0x5F, 0x32, 0x2F, 0x62, 0x61, 0x74, 0x63, 0x68,
    0x6E, 0x6F, 0x72, 0x6D, 0x2F, 0x6D, 0x75, 0x6C, 0x00, 0x00, 0x00, 0x00,
    0x04, 0x00, 0x00, 0x00, 0x01, 0x00, 0x00, 0x00, 0x01, 0x00, 0x00, 0x00,
    0x4B, 0x00, 0x00, 0x00, 0x20, 0x00, 0x00, 0x00, 0x6E, 0xE4, 0xFF, 0xFF,
    0x00, 0x00, 0x00, 0x01, 0x18, 0x00, 0x00, 0x00, 0x28, 0x00, 0x00, 0x00,
    0x48, 0x00, 0x00, 0x00, 0x20, 0x00, 0x00, 0x00, 0x00, 0x00, 0x00, 0x09,
    0xF0, 0x00, 0x00, 0x00, 0x04, 0x00, 0x00, 0x00, 0xFF, 0xFF, 0xFF, 0xFF,
    0x01, 0x00, 0x00, 0x00, 0x4B, 0x00, 0x00, 0x00, 0x20, 0x00, 0x00, 0x00,
    0x5C, 0xE4, 0xFF, 0xFF, 0x08, 0x00, 0x00, 0x00, 0x14, 0x00, 0x00, 0x00,
    0x01, 0x00, 0x00, 0x00, 0x80, 0xFF, 0xFF, 0xFF, 0xFF, 0xFF, 0xFF, 0xFF,
    0x00, 0x00, 0x00, 0x00, 0x01, 0x00, 0x00, 0x00, 0xB9, 0x42, 0x91, 0x3E,
    0xAD, 0x00, 0x00, 0x00, 0x73, 0x65, 0x71, 0x75, 0x65, 0x6E, 0x74, 0x69,
    0x61, 0x6C, 0x5F, 0x31, 0x2F, 0x63, 0x6F, 0x6E, 0x76, 0x31, 0x64, 0x5F,
    0x31, 0x5F, 0x32, 0x2F, 0x52, 0x65, 0x6C, 0x75, 0x3B, 0x73, 0x65, 0x71,
    0x75, 0x65, 0x6E, 0x74, 0x69, 0x61, 0x6C, 0x5F, 0x31, 0x2F, 0x63, 0x6F,
    0x6E, 0x76, 0x31, 0x64, 0x5F, 0x31, 0x5F, 0x32, 0x2F, 0x42, 0x69, 0x61,
    0x73, 0x41, 0x64, 0x64, 0x3B, 0x73, 0x65, 0x71, 0x75, 0x65, 0x6E, 0x74,
    0x69, 0x61, 0x6C, 0x5F, 0x31, 0x2F, 0x63, 0x6F, 0x6E, 0x76, 0x31, 0x64,
    0x5F, 0x31, 0x5F, 0x32, 0x2F, 0x63, 0x6F, 0x6E, 0x76, 0x6F, 0x6C, 0x75,
    0x74, 0x69, 0x6F, 0x6E, 0x2F, 0x53, 0x71, 0x75, 0x65, 0x65, 0x7A, 0x65,
    0x3B, 0x73, 0x65, 0x71, 0x75, 0x65, 0x6E, 0x74, 0x69, 0x61, 0x6C, 0x5F,
    0x31, 0x2F, 0x63, 0x6F, 0x6E, 0x76, 0x31, 0x64, 0x5F, 0x31, 0x5F, 0x32,
    0x2F, 0x53, 0x71, 0x75, 0x65, 0x65, 0x7A, 0x65, 0x3B, 0x73, 0x65, 0x71,
    0x75, 0x65, 0x6E, 0x74, 0x69, 0x61, 0x6C, 0x5F, 0x31, 0x2F, 0x63, 0x6F,
    0x6E, 0x76, 0x31, 0x64, 0x5F, 0x31, 0x5F, 0x32, 0x2F, 0x63, 0x6F, 0x6E,
    0x76, 0x6F, 0x6C, 0x75, 0x74, 0x69, 0x6F, 0x6E, 0x31, 0x00, 0x00, 0x00,
    0x04, 0x00, 0x00, 0x00, 0x01, 0x00, 0x00, 0x00, 0x01, 0x00, 0x00, 0x00,
    0x4B, 0x00, 0x00, 0x00, 0x20, 0x00, 0x00, 0x00, 0x8E, 0xE5, 0xFF, 0xFF,
    0x00, 0x00, 0x00, 0x01, 0x18, 0x00, 0x00, 0x00, 0x28, 0x00, 0x00, 0x00,
    0x44, 0x00, 0x00, 0x00, 0x1F, 0x00, 0x00, 0x00, 0x00, 0x00, 0x00, 0x09,
    0x6C, 0x00, 0x00, 0x00, 0x04, 0x00, 0x00, 0x00, 0xFF, 0xFF, 0xFF, 0xFF,
    0x01, 0x00, 0x00, 0x00, 0x4B, 0x00, 0x00, 0x00, 0x10, 0x00, 0x00, 0x00,
    0x7C, 0xE5, 0xFF, 0xFF, 0x08, 0x00, 0x00, 0x00, 0x10, 0x00, 0x00, 0x00,
    0x01, 0x00, 0x00, 0x00, 0x8B, 0xFF, 0xFF, 0xFF, 0xFF, 0xFF, 0xFF, 0xFF,
    0x01, 0x00, 0x00, 0x00, 0xF9, 0x55, 0xFF, 0x3D, 0x2E, 0x00, 0x00, 0x00,
    0x73, 0x65, 0x71, 0x75, 0x65, 0x6E, 0x74, 0x69, 0x61, 0x6C, 0x5F, 0x31,
    0x2F, 0x63, 0x6F, 0x6E, 0x76, 0x31, 0x64, 0x5F, 0x31, 0x5F, 0x32, 0x2F,
    0x63, 0x6F, 0x6E, 0x76, 0x6F, 0x6C, 0x75, 0x74, 0x69, 0x6F, 0x6E, 0x2F,
    0x45, 0x78, 0x70, 0x61, 0x6E, 0x64, 0x44, 0x69, 0x6D, 0x73, 0x00, 0x00,
    0x04, 0x00, 0x00, 0x00, 0x01, 0x00, 0x00, 0x00, 0x01, 0x00, 0x00, 0x00,
    0x4B, 0x00, 0x00, 0x00, 0x10, 0x00, 0x00, 0x00, 0x2A, 0xE6, 0xFF, 0xFF,
    0x00, 0x00, 0x00, 0x01, 0x18, 0x00, 0x00, 0x00, 0x24, 0x00, 0x00, 0x00,
    0x40, 0x00, 0x00, 0x00, 0x1E, 0x00, 0x00, 0x00, 0x00, 0x00, 0x00, 0x09,
    0x68, 0x00, 0x00, 0x00, 0x03, 0x00, 0x00, 0x00, 0xFF, 0xFF, 0xFF, 0xFF,
    0x4B, 0x00, 0x00, 0x00, 0x10, 0x00, 0x00, 0x00, 0x14, 0xE6, 0xFF, 0xFF,
    0x08, 0x00, 0x00, 0x00, 0x10, 0x00, 0x00, 0x00, 0x01, 0x00, 0x00, 0x00,
    0x8B, 0xFF, 0xFF, 0xFF, 0xFF, 0xFF, 0xFF, 0xFF, 0x01, 0x00, 0x00, 0x00,
    0xF9, 0x55, 0xFF, 0x3D, 0x2F, 0x00, 0x00, 0x00, 0x73, 0x65, 0x71, 0x75,
    0x65, 0x6E, 0x74, 0x69, 0x61, 0x6C, 0x5F, 0x31, 0x2F, 0x6D, 0x61, 0x78,
    0x5F, 0x70, 0x6F, 0x6F, 0x6C, 0x69, 0x6E, 0x67, 0x31, 0x64, 0x5F, 0x31,
    0x2F, 0x4D, 0x61, 0x78, 0x50, 0x6F, 0x6F, 0x6C, 0x31, 0x64, 0x2F, 0x53,
    0x71, 0x75, 0x65, 0x65, 0x7A, 0x65, 0x31, 0x00, 0x03, 0x00, 0x00, 0x00,
    0x01, 0x00, 0x00, 0x00, 0x4B, 0x00, 0x00, 0x00, 0x10, 0x00, 0x00, 0x00,
    0xBE, 0xE6, 0xFF, 0xFF, 0x00, 0x00, 0x00, 0x01, 0x18, 0x00, 0x00, 0x00,
    0x28, 0x00, 0x00, 0x00, 0x48, 0x00, 0x00, 0x00, 0x1D, 0x00, 0x00, 0x00,
    0x00, 0x00, 0x00, 0x09, 0x68, 0x00, 0x00, 0x00, 0x04, 0x00, 0x00, 0x00,
    0xFF, 0xFF, 0xFF, 0xFF, 0x01, 0x00, 0x00, 0x00, 0x4B, 0x00, 0x00, 0x00,
    0x10, 0x00, 0x00, 0x00, 0xAC, 0xE6, 0xFF, 0xFF, 0x08, 0x00, 0x00, 0x00,
    0x14, 0x00, 0x00, 0x00, 0x01, 0x00, 0x00, 0x00, 0x8B, 0xFF, 0xFF, 0xFF,
    0xFF, 0xFF, 0xFF, 0xFF, 0x00, 0x00, 0x00, 0x00, 0x01, 0x00, 0x00, 0x00,
    0xF9, 0x55, 0xFF, 0x3D, 0x26, 0x00, 0x00, 0x00, 0x73, 0x65, 0x71, 0x75,
    0x65, 0x6E, 0x74, 0x69, 0x61, 0x6C, 0x5F, 0x31, 0x2F, 0x6D, 0x61, 0x78,
    0x5F, 0x70, 0x6F, 0x6F, 0x6C, 0x69, 0x6E, 0x67, 0x31, 0x64, 0x5F, 0x31,
    0x2F, 0x4D, 0x61, 0x78, 0x50, 0x6F, 0x6F, 0x6C, 0x31, 0x64, 0x00, 0x00,
    0x04, 0x00, 0x00, 0x00, 0x01, 0x00, 0x00, 0x00, 0x01, 0x00, 0x00, 0x00,
    0x4B, 0x00, 0x00, 0x00, 0x10, 0x00, 0x00, 0x00, 0x56, 0xE7, 0xFF, 0xFF,
    0x00, 0x00, 0x00, 0x01, 0x18, 0x00, 0x00, 0x00, 0x28, 0x00, 0x00, 0x00,
    0x48, 0x00, 0x00, 0x00, 0x1C, 0x00, 0x00, 0x00, 0x00, 0x00, 0x00, 0x09,
    0x74, 0x00, 0x00, 0x00, 0x04, 0x00, 0x00, 0x00, 0xFF, 0xFF, 0xFF, 0xFF,
    0x01, 0x00, 0x00, 0x00, 0x96, 0x00, 0x00, 0x00, 0x10, 0x00, 0x00, 0x00,
    0x44, 0xE7, 0xFF, 0xFF, 0x08, 0x00, 0x00, 0x00, 0x14, 0x00, 0x00, 0x00,
    0x01, 0x00, 0x00, 0x00, 0x8B, 0xFF, 0xFF, 0xFF, 0xFF, 0xFF, 0xFF, 0xFF,
    0x00, 0x00, 0x00, 0x00, 0x01, 0x00, 0x00, 0x00, 0xF9, 0x55, 0xFF, 0x3D,
    0x31, 0x00, 0x00, 0x00, 0x73, 0x65, 0x71, 0x75, 0x65, 0x6E, 0x74, 0x69,
    0x61, 0x6C, 0x5F, 0x31, 0x2F, 0x6D, 0x61, 0x78, 0x5F, 0x70, 0x6F, 0x6F,
    0x6C, 0x69, 0x6E, 0x67, 0x31, 0x64, 0x5F, 0x31, 0x2F, 0x4D, 0x61, 0x78,
    0x50, 0x6F, 0x6F, 0x6C, 0x31, 0x64, 0x2F, 0x45, 0x78, 0x70, 0x61, 0x6E,
    0x64, 0x44, 0x69, 0x6D, 0x73, 0x00, 0x00, 0x00, 0x04, 0x00, 0x00, 0x00,
    0x01, 0x00, 0x00, 0x00, 0x01, 0x00, 0x00, 0x00, 0x96, 0x00, 0x00, 0x00,
    0x10, 0x00, 0x00, 0x00, 0xFA, 0xE7, 0xFF, 0xFF, 0x00, 0x00, 0x00, 0x01,
    0x18, 0x00, 0x00, 0x00, 0x24, 0x00, 0x00, 0x00, 0x44, 0x00, 0x00, 0x00,
    0x1B, 0x00, 0x00, 0x00, 0x00, 0x00, 0x00, 0x09, 0x88, 0x01, 0x00, 0x00,
    0x03, 0x00, 0x00, 0x00, 0xFF, 0xFF, 0xFF, 0xFF, 0x96, 0x00, 0x00, 0x00,
    0x10, 0x00, 0x00, 0x00, 0xE4, 0xE7, 0xFF, 0xFF, 0x08, 0x00, 0x00, 0x00,
    0x14, 0x00, 0x00, 0x00, 0x01, 0x00, 0x00, 0x00, 0x8B, 0xFF, 0xFF, 0xFF,
    0xFF, 0xFF, 0xFF, 0xFF, 0x00, 0x00, 0x00, 0x00, 0x01, 0x00, 0x00, 0x00,
    0xF9, 0x55, 0xFF, 0x3D, 0x49, 0x01, 0x00, 0x00, 0x73, 0x65, 0x71, 0x75,
    0x65, 0x6E, 0x74, 0x69, 0x61, 0x6C, 0x5F, 0x31, 0x2F, 0x62, 0x61, 0x74,
    0x63, 0x68, 0x5F, 0x6E, 0x6F, 0x72, 0x6D, 0x61, 0x6C, 0x69, 0x7A, 0x61,
    0x74, 0x69, 0x6F, 0x6E, 0x5F, 0x31, 0x2F, 0x62, 0x61, 0x74, 0x63, 0x68,
    0x6E, 0x6F, 0x72, 0x6D, 0x2F, 0x61, 0x64, 0x64, 0x5F, 0x31, 0x3B, 0x73,
    0x65, 0x71, 0x75, 0x65, 0x6E, 0x74, 0x69, 0x61, 0x6C, 0x5F, 0x31, 0x2F,
    0x63, 0x6F, 0x6E, 0x76, 0x31, 0x64, 0x5F, 0x31, 0x2F, 0x63, 0x6F, 0x6E,
    0x76, 0x6F, 0x6C, 0x75, 0x74, 0x69, 0x6F, 0x6E, 0x2F, 0x53, 0x71, 0x75,
    0x65, 0x65, 0x7A, 0x65, 0x3B, 0x73, 0x65, 0x71, 0x75, 0x65, 0x6E, 0x74,
    0x69, 0x61, 0x6C, 0x5F, 0x31, 0x2F, 0x62, 0x61, 0x74, 0x63, 0x68, 0x5F,
    0x6E, 0x6F, 0x72, 0x6D, 0x61, 0x6C, 0x69, 0x7A, 0x61, 0x74, 0x69, 0x6F,
    0x6E, 0x5F, 0x31, 0x2F, 0x62, 0x61, 0x74, 0x63, 0x68, 0x6E, 0x6F, 0x72,
    0x6D, 0x2F, 0x6D, 0x75, 0x6C, 0x5F, 0x31, 0x3B, 0x73, 0x65, 0x71, 0x75,
    0x65, 0x6E, 0x74, 0x69, 0x61, 0x6C, 0x5F, 0x31, 0x2F, 0x63, 0x6F, 0x6E,
    0x76, 0x31, 0x64, 0x5F, 0x31, 0x2F, 0x52, 0x65, 0x6C, 0x75, 0x3B, 0x73,
    0x65, 0x71, 0x75, 0x65, 0x6E, 0x74, 0x69, 0x61, 0x6C, 0x5F, 0x31, 0x2F,
    0x63, 0x6F, 0x6E, 0x76, 0x31, 0x64, 0x5F, 0x31, 0x2F, 0x42, 0x69, 0x61,
    0x73, 0x41, 0x64, 0x64, 0x3B, 0x73, 0x65, 0x71, 0x75, 0x65, 0x6E, 0x74,
    0x69, 0x61, 0x6C, 0x5F, 0x31, 0x2F, 0x63, 0x6F, 0x6E, 0x76, 0x31, 0x64,
    0x5F, 0x31, 0x2F, 0x53, 0x71, 0x75, 0x65, 0x65, 0x7A, 0x65, 0x3B, 0x73,
    0x65, 0x71, 0x75, 0x65, 0x6E, 0x74, 0x69, 0x61, 0x6C, 0x5F, 0x31, 0x2F,
    0x62, 0x61, 0x74, 0x63, 0x68, 0x5F, 0x6E, 0x6F, 0x72, 0x6D, 0x61, 0x6C,
    0x69, 0x7A, 0x61, 0x74, 0x69, 0x6F, 0x6E, 0x5F, 0x31, 0x2F, 0x62, 0x61,
    0x74, 0x63, 0x68, 0x6E, 0x6F, 0x72, 0x6D, 0x2F, 0x6D, 0x75, 0x6C, 0x3B,
    0x73, 0x65, 0x71, 0x75, 0x65, 0x6E, 0x74, 0x69, 0x61, 0x6C, 0x5F, 0x31,
    0x2F, 0x62, 0x61, 0x74, 0x63, 0x68, 0x5F, 0x6E, 0x6F, 0x72, 0x6D, 0x61,
    0x6C, 0x69, 0x7A, 0x61, 0x74, 0x69, 0x6F, 0x6E, 0x5F, 0x31, 0x2F, 0x62,
    0x61, 0x74, 0x63, 0x68, 0x6E, 0x6F, 0x72, 0x6D, 0x2F, 0x73, 0x75, 0x62,
    0x31, 0x00, 0x00, 0x00, 0x03, 0x00, 0x00, 0x00, 0x01, 0x00, 0x00, 0x00,
    0x96, 0x00, 0x00, 0x00, 0x10, 0x00, 0x00, 0x00, 0xAE, 0xE9, 0xFF, 0xFF,
    0x00, 0x00, 0x00, 0x01, 0x18, 0x00, 0x00, 0x00, 0x28, 0x00, 0x00, 0x00,
    0x44, 0x00, 0x00, 0x00, 0x1A, 0x00, 0x00, 0x00, 0x00, 0x00, 0x00, 0x09,
    0x88, 0x01, 0x00, 0x00, 0x04, 0x00, 0x00, 0x00, 0xFF, 0xFF, 0xFF, 0xFF,
    0x01, 0x00, 0x00, 0x00, 0x96, 0x00, 0x00, 0x00, 0x10, 0x00, 0x00, 0x00,
    0x9C, 0xE9, 0xFF, 0xFF, 0x08, 0x00, 0x00, 0x00, 0x10, 0x00, 0x00, 0x00,
    0x01, 0x00, 0x00, 0x00, 0x8B, 0xFF, 0xFF, 0xFF, 0xFF, 0xFF, 0xFF, 0xFF,
    0x01, 0x00, 0x00, 0x00, 0xF9, 0x55, 0xFF, 0x3D, 0x48, 0x01, 0x00, 0x00,
    0x73, 0x65, 0x71, 0x75, 0x65, 0x6E, 0x74, 0x69, 0x61, 0x6C, 0x5F, 0x31,
    0x2F, 0x62, 0x61, 0x74, 0x63, 0x68, 0x5F, 0x6E, 0x6F, 0x72, 0x6D, 0x61,
    0x6C, 0x69, 0x7A, 0x61, 0x74, 0x69, 0x6F, 0x6E, 0x5F, 0x31, 0x2F, 0x62,
    0x61, 0x74, 0x63, 0x68, 0x6E, 0x6F, 0x72, 0x6D, 0x2F, 0x61, 0x64, 0x64,
    0x5F, 0x31, 0x3B, 0x73, 0x65, 0x71, 0x75, 0x65, 0x6E, 0x74, 0x69, 0x61,
    0x6C, 0x5F, 0x31, 0x2F, 0x63, 0x6F, 0x6E, 0x76, 0x31, 0x64, 0x5F, 0x31,
    0x2F, 0x63, 0x6F, 0x6E, 0x76, 0x6F, 0x6C, 0x75, 0x74, 0x69, 0x6F, 0x6E,
    0x2F, 0x53, 0x71, 0x75, 0x65, 0x65, 0x7A, 0x65, 0x3B, 0x73, 0x65, 0x71,
    0x75, 0x65, 0x6E, 0x74, 0x69, 0x61, 0x6C, 0x5F, 0x31, 0x2F, 0x62, 0x61,
    0x74, 0x63, 0x68, 0x5F, 0x6E, 0x6F, 0x72, 0x6D, 0x61, 0x6C, 0x69, 0x7A,
    0x61, 0x74, 0x69, 0x6F, 0x6E, 0x5F, 0x31, 0x2F, 0x62, 0x61, 0x74, 0x63,
    0x68, 0x6E, 0x6F, 0x72, 0x6D, 0x2F, 0x6D, 0x75, 0x6C, 0x5F, 0x31, 0x3B,
    0x73, 0x65, 0x71, 0x75, 0x65, 0x6E, 0x74, 0x69, 0x61, 0x6C, 0x5F, 0x31,
    0x2F, 0x63, 0x6F, 0x6E, 0x76, 0x31, 0x64, 0x5F, 0x31, 0x2F, 0x52, 0x65,
    0x6C, 0x75, 0x3B, 0x73, 0x65, 0x71, 0x75, 0x65, 0x6E, 0x74, 0x69, 0x61,
    0x6C, 0x5F, 0x31, 0x2F, 0x63, 0x6F, 0x6E, 0x76, 0x31, 0x64, 0x5F, 0x31,
    0x2F, 0x42, 0x69, 0x61, 0x73, 0x41, 0x64, 0x64, 0x3B, 0x73, 0x65, 0x71,
    0x75, 0x65, 0x6E, 0x74, 0x69, 0x61, 0x6C, 0x5F, 0x31, 0x2F, 0x63, 0x6F,
    0x6E, 0x76, 0x31, 0x64, 0x5F, 0x31, 0x2F, 0x53, 0x71, 0x75, 0x65, 0x65,
    0x7A, 0x65, 0x3B, 0x73, 0x65, 0x71, 0x75, 0x65, 0x6E, 0x74, 0x69, 0x61,
    0x6C, 0x5F, 0x31, 0x2F, 0x62, 0x61, 0x74, 0x63, 0x68, 0x5F, 0x6E, 0x6F,
    0x72, 0x6D, 0x61, 0x6C, 0x69, 0x7A, 0x61, 0x74, 0x69, 0x6F, 0x6E, 0x5F,
    0x31, 0x2F, 0x62, 0x61, 0x74, 0x63, 0x68, 0x6E, 0x6F, 0x72, 0x6D, 0x2F,
    0x6D, 0x75, 0x6C, 0x3B, 0x73, 0x65, 0x71, 0x75, 0x65, 0x6E, 0x74, 0x69,
    0x61, 0x6C, 0x5F, 0x31, 0x2F, 0x62, 0x61, 0x74, 0x63, 0x68, 0x5F, 0x6E,
    0x6F, 0x72, 0x6D, 0x61, 0x6C, 0x69, 0x7A, 0x61, 0x74, 0x69, 0x6F, 0x6E,
    0x5F, 0x31, 0x2F, 0x62, 0x61, 0x74, 0x63, 0x68, 0x6E, 0x6F, 0x72, 0x6D,
    0x2F, 0x73, 0x75, 0x62, 0x00, 0x00, 0x00, 0x00, 0x04, 0x00, 0x00, 0x00,
    0x01, 0x00, 0x00, 0x00, 0x01, 0x00, 0x00, 0x00, 0x96, 0x00, 0x00, 0x00,
    0x10, 0x00, 0x00, 0x00, 0x66, 0xEB, 0xFF, 0xFF, 0x00, 0x00, 0x00, 0x01,
    0x18, 0x00, 0x00, 0x00, 0x28, 0x00, 0x00, 0x00, 0x48, 0x00, 0x00, 0x00,
    0x19, 0x00, 0x00, 0x00, 0x00, 0x00, 0x00, 0x09, 0x28, 0x01, 0x00, 0x00,
    0x04, 0x00, 0x00, 0x00, 0xFF, 0xFF, 0xFF, 0xFF, 0x01, 0x00, 0x00, 0x00,
    0x96, 0x00, 0x00, 0x00, 0x10, 0x00, 0x00, 0x00, 0x54, 0xEB, 0xFF, 0xFF,
    0x08, 0x00, 0x00, 0x00, 0x14, 0x00, 0x00, 0x00, 0x01, 0x00, 0x00, 0x00,
    0x8B, 0xFF, 0xFF, 0xFF, 0xFF, 0xFF, 0xFF, 0xFF, 0x00, 0x00, 0x00, 0x00,
    0x01, 0x00, 0x00, 0x00, 0x03, 0x5C, 0xFF, 0x3D, 0xE4, 0x00, 0x00, 0x00,
    0x73, 0x65, 0x71, 0x75, 0x65, 0x6E, 0x74, 0x69, 0x61, 0x6C, 0x5F, 0x31,
    0x2F, 0x62, 0x61, 0x74, 0x63, 0x68, 0x5F, 0x6E, 0x6F, 0x72, 0x6D, 0x61,
    0x6C, 0x69, 0x7A, 0x61, 0x74, 0x69, 0x6F, 0x6E, 0x5F, 0x31, 0x2F, 0x62,
    0x61, 0x74, 0x63, 0x68, 0x6E, 0x6F, 0x72, 0x6D, 0x2F, 0x6D, 0x75, 0x6C,
    0x5F, 0x31, 0x3B, 0x73, 0x65, 0x71, 0x75, 0x65, 0x6E, 0x74, 0x69, 0x61,
    0x6C, 0x5F, 0x31, 0x2F, 0x63, 0x6F, 0x6E, 0x76, 0x31, 0x64, 0x5F, 0x31,
    0x2F, 0x63, 0x6F, 0x6E, 0x76, 0x6F, 0x6C, 0x75, 0x74, 0x69, 0x6F, 0x6E,
    0x2F, 0x53, 0x71, 0x75, 0x65, 0x65, 0x7A, 0x65, 0x3B, 0x73, 0x65, 0x71,
    0x75, 0x65, 0x6E, 0x74, 0x69, 0x61, 0x6C, 0x5F, 0x31, 0x2F, 0x63, 0x6F,
    0x6E, 0x76, 0x31, 0x64, 0x5F, 0x31, 0x2F, 0x52, 0x65, 0x6C, 0x75, 0x3B,
    0x73, 0x65, 0x71, 0x75, 0x65, 0x6E, 0x74, 0x69, 0x61, 0x6C, 0x5F, 0x31,
    0x2F, 0x63, 0x6F, 0x6E, 0x76, 0x31, 0x64, 0x5F, 0x31, 0x2F, 0x42, 0x69,
    0x61, 0x73, 0x41, 0x64, 0x64, 0x3B, 0x73, 0x65, 0x71, 0x75, 0x65, 0x6E,
    0x74, 0x69, 0x61, 0x6C, 0x5F, 0x31, 0x2F, 0x63, 0x6F, 0x6E, 0x76, 0x31,
    0x64, 0x5F, 0x31, 0x2F, 0x53, 0x71, 0x75, 0x65, 0x65, 0x7A, 0x65, 0x3B,
    0x73, 0x65, 0x71, 0x75, 0x65, 0x6E, 0x74, 0x69, 0x61, 0x6C, 0x5F, 0x31,
    0x2F, 0x62, 0x61, 0x74, 0x63, 0x68, 0x5F, 0x6E, 0x6F, 0x72, 0x6D, 0x61,
    0x6C, 0x69, 0x7A, 0x61, 0x74, 0x69, 0x6F, 0x6E, 0x5F, 0x31, 0x2F, 0x62,
    0x61, 0x74, 0x63, 0x68, 0x6E, 0x6F, 0x72, 0x6D, 0x2F, 0x6D, 0x75, 0x6C,
    0x00, 0x00, 0x00, 0x00, 0x04, 0x00, 0x00, 0x00, 0x01, 0x00, 0x00, 0x00,
    0x01, 0x00, 0x00, 0x00, 0x96, 0x00, 0x00, 0x00, 0x10, 0x00, 0x00, 0x00,
    0xBE, 0xEC, 0xFF, 0xFF, 0x00, 0x00, 0x00, 0x01, 0x18, 0x00, 0x00, 0x00,
    0x28, 0x00, 0x00, 0x00, 0x44, 0x00, 0x00, 0x00, 0x18, 0x00, 0x00, 0x00,
    0x00, 0x00, 0x00, 0x09, 0xE0, 0x00, 0x00, 0x00, 0x04, 0x00, 0x00, 0x00,
    0xFF, 0xFF, 0xFF, 0xFF, 0x01, 0x00, 0x00, 0x00, 0x96, 0x00, 0x00, 0x00,
    0x10, 0x00, 0x00, 0x00, 0xAC, 0xEC, 0xFF, 0xFF, 0x08, 0x00, 0x00, 0x00,
    0x10, 0x00, 0x00, 0x00, 0x01, 0x00, 0x00, 0x00, 0x80, 0xFF, 0xFF, 0xFF,
    0xFF, 0xFF, 0xFF, 0xFF, 0x01, 0x00, 0x00, 0x00, 0xB5, 0x06, 0xF4, 0x3D,
    0xA3, 0x00, 0x00, 0x00, 0x73, 0x65, 0x71, 0x75, 0x65, 0x6E, 0x74, 0x69,
    0x61, 0x6C, 0x5F, 0x31, 0x2F, 0x63, 0x6F, 0x6E, 0x76, 0x31, 0x64, 0x5F,
    0x31, 0x2F, 0x52, 0x65, 0x6C, 0x75, 0x3B, 0x73, 0x65, 0x71, 0x75, 0x65,
    0x6E, 0x74, 0x69, 0x61, 0x6C, 0x5F, 0x31, 0x2F, 0x63, 0x6F, 0x6E, 0x76,
    0x31, 0x64, 0x5F, 0x31, 0x2F, 0x42, 0x69, 0x61, 0x73, 0x41, 0x64, 0x64,
    0x3B, 0x73, 0x65, 0x71, 0x75, 0x65, 0x6E, 0x74, 0x69, 0x61, 0x6C, 0x5F,
    0x31, 0x2F, 0x63, 0x6F, 0x6E, 0x76, 0x31, 0x64, 0x5F, 0x31, 0x2F, 0x63,
    0x6F, 0x6E, 0x76, 0x6F, 0x6C, 0x75, 0x74, 0x69, 0x6F, 0x6E, 0x2F, 0x53,
    0x71, 0x75, 0x65, 0x65, 0x7A, 0x65, 0x3B, 0x73, 0x65, 0x71, 0x75, 0x65,
    0x6E, 0x74, 0x69, 0x61, 0x6C, 0x5F, 0x31, 0x2F, 0x63, 0x6F, 0x6E, 0x76,
    0x31, 0x64, 0x5F, 0x31, 0x2F, 0x53, 0x71, 0x75, 0x65, 0x65, 0x7A, 0x65,
    0x3B, 0x73, 0x65, 0x71, 0x75, 0x65, 0x6E, 0x74, 0x69, 0x61, 0x6C, 0x5F,
    0x31, 0x2F, 0x63, 0x6F, 0x6E, 0x76, 0x31, 0x64, 0x5F, 0x31, 0x2F, 0x63,
    0x6F, 0x6E, 0x76, 0x6F, 0x6C, 0x75, 0x74, 0x69, 0x6F, 0x6E, 0x31, 0x00,
    0x04, 0x00, 0x00, 0x00, 0x01, 0x00, 0x00, 0x00, 0x01, 0x00, 0x00, 0x00,
    0x96, 0x00, 0x00, 0x00, 0x10, 0x00, 0x00, 0x00, 0xCE, 0xED, 0xFF, 0xFF,
    0x00, 0x00, 0x00, 0x01, 0x18, 0x00, 0x00, 0x00, 0x28, 0x00, 0x00, 0x00,
    0x48, 0x00, 0x00, 0x00, 0x17, 0x00, 0x00, 0x00, 0x00, 0x00, 0x00, 0x09,
    0x70, 0x00, 0x00, 0x00, 0x04, 0x00, 0x00, 0x00, 0xFF, 0xFF, 0xFF, 0xFF,
    0x01, 0x00, 0x00, 0x00, 0x96, 0x00, 0x00, 0x00, 0x04, 0x00, 0x00, 0x00,
    0xBC, 0xED, 0xFF, 0xFF, 0x08, 0x00, 0x00, 0x00, 0x14, 0x00, 0x00, 0x00,
    0x01, 0x00, 0x00, 0x00, 0xDD, 0xFF, 0xFF, 0xFF, 0xFF, 0xFF, 0xFF, 0xFF,
    0x00, 0x00, 0x00, 0x00, 0x01, 0x00, 0x00, 0x00, 0x71, 0x89, 0x2F, 0x3D,
    0x2C, 0x00, 0x00, 0x00, 0x73, 0x65, 0x71, 0x75, 0x65, 0x6E, 0x74, 0x69,
    0x61, 0x6C, 0x5F, 0x31, 0x2F, 0x63, 0x6F, 0x6E, 0x76, 0x31, 0x64, 0x5F,
    0x31, 0x2F, 0x63, 0x6F, 0x6E, 0x76, 0x6F, 0x6C, 0x75, 0x74, 0x69, 0x6F,
    0x6E, 0x2F, 0x45, 0x78, 0x70, 0x61, 0x6E, 0x64, 0x44, 0x69, 0x6D, 0x73,
    0x00, 0x00, 0x00, 0x00, 0x04, 0x00, 0x00, 0x00, 0x01, 0x00, 0x00, 0x00,
    0x01, 0x00, 0x00, 0x00, 0x96, 0x00, 0x00, 0x00, 0x04, 0x00, 0x00, 0x00,
    0xC2, 0xEE, 0xFF, 0xFF, 0x00, 0x00, 0x00, 0x01, 0x14, 0x00, 0x00, 0x00,
    0xE8, 0x00, 0x00, 0x00, 0x16, 0x00, 0x00, 0x00, 0x00, 0x00, 0x00, 0x09,
    0x04, 0x01, 0x00, 0x00, 0x44, 0xEE, 0xFF, 0xFF, 0x08, 0x00, 0x00, 0x00,
    0x8C, 0x00, 0x00, 0x00, 0x10, 0x00, 0x00, 0x00, 0x00, 0x00, 0x00, 0x00,
    0x00, 0x00, 0x00, 0x00, 0x00, 0x00, 0x00, 0x00, 0x00, 0x00, 0x00, 0x00,
    0x00, 0x00, 0x00, 0x00, 0x00, 0x00, 0x00, 0x00, 0x00, 0x00, 0x00, 0x00,
    0x00, 0x00, 0x00, 0x00, 0x00, 0x00, 0x00, 0x00, 0x00, 0x00, 0x00, 0x00,
    0x00, 0x00, 0x00, 0x00, 0x00, 0x00, 0x00, 0x00, 0x00, 0x00, 0x00, 0x00,
    0x00, 0x00, 0x00, 0x00, 0x00, 0x00, 0x00, 0x00, 0x00, 0x00, 0x00, 0x00,
    0x00, 0x00, 0x00, 0x00, 0x00, 0x00, 0x00, 0x00, 0x00, 0x00, 0x00, 0x00,
    0x00, 0x00, 0x00, 0x00, 0x00, 0x00, 0x00, 0x00, 0x00, 0x00, 0x00, 0x00,
    0x00, 0x00, 0x00, 0x00, 0x00, 0x00, 0x00, 0x00, 0x00, 0x00, 0x00, 0x00,
    0x00, 0x00, 0x00, 0x00, 0x00, 0x00, 0x00, 0x00, 0x00, 0x00, 0x00, 0x00,
    0x00, 0x00, 0x00, 0x00, 0x00, 0x00, 0x00, 0x00, 0x00, 0x00, 0x00, 0x00,
    0x00, 0x00, 0x00, 0x00, 0x00, 0x00, 0x00, 0x00, 0x10, 0x00, 0x00, 0x00,
    0xD4, 0xC3, 0xCC, 0x3A, 0xB9, 0x17, 0xE7, 0x3A, 0x14, 0xDE, 0xE9, 0x3A,
    0xCC, 0xC6, 0x0A, 0x3B, 0xBC, 0x44, 0xFF, 0x3A, 0xAA, 0x93, 0xF3, 0x3A,
    0xB9, 0x8E, 0x1D, 0x3B, 0xED, 0xC5, 0xF6, 0x3A, 0x65, 0x9B, 0x02, 0x3B,
    0x4A, 0x94, 0xDC, 0x3A, 0x88, 0x20, 0x08, 0x3B, 0x0C, 0xCD, 0x2D, 0x3B,
    0x88, 0x13, 0x05, 0x3B, 0x08, 0xC9, 0x0D, 0x3B, 0xB8, 0x34, 0x05, 0x3B,
    0x67, 0xD0, 0x1F, 0x3B, 0x21, 0x00, 0x00, 0x00, 0x73, 0x65, 0x71, 0x75,
    0x65, 0x6E, 0x74, 0x69, 0x61, 0x6C, 0x5F, 0x31, 0x2F, 0x63, 0x6F, 0x6E,
    0x76, 0x31, 0x64, 0x5F, 0x31, 0x2F, 0x63, 0x6F, 0x6E, 0x76, 0x6F, 0x6C,
    0x75, 0x74, 0x69, 0x6F, 0x6E, 0x00, 0x00, 0x00, 0x04, 0x00, 0x00, 0x00,
    0x10, 0x00, 0x00, 0x00, 0x01, 0x00, 0x00, 0x00, 0x07, 0x00, 0x00, 0x00,
    0x04, 0x00, 0x00, 0x00, 0xF2, 0xEF, 0xFF, 0xFF, 0x00, 0x00, 0x00, 0x01,
    0x14, 0x00, 0x00, 0x00, 0xE4, 0x00, 0x00, 0x00, 0x15, 0x00, 0x00, 0x00,
    0x00, 0x00, 0x00, 0x02, 0x80, 0x01, 0x00, 0x00, 0x74, 0xEF, 0xFF, 0xFF,
    0x08, 0x00, 0x00, 0x00, 0x88, 0x00, 0x00, 0x00, 0x10, 0x00, 0x00, 0x00,
    0x00, 0x00, 0x00, 0x00, 0x00, 0x00, 0x00, 0x00, 0x00, 0x00, 0x00, 0x00,
    0x00, 0x00, 0x00, 0x00, 0x00, 0x00, 0x00, 0x00, 0x00, 0x00, 0x00, 0x00,
    0x00, 0x00, 0x00, 0x00, 0x00, 0x00, 0x00, 0x00, 0x00, 0x00, 0x00, 0x00,
    0x00, 0x00, 0x00, 0x00, 0x00, 0x00, 0x00, 0x00, 0x00, 0x00, 0x00, 0x00,
    0x00, 0x00, 0x00, 0x00, 0x00, 0x00, 0x00, 0x00, 0x00, 0x00, 0x00, 0x00,
    0x00, 0x00, 0x00, 0x00, 0x00, 0x00, 0x00, 0x00, 0x00, 0x00, 0x00, 0x00,
    0x00, 0x00, 0x00, 0x00, 0x00, 0x00, 0x00, 0x00, 0x00, 0x00, 0x00, 0x00,
    0x00, 0x00, 0x00, 0x00, 0x00, 0x00, 0x00, 0x00, 0x00, 0x00, 0x00, 0x00,
    0x00, 0x00, 0x00, 0x00, 0x00, 0x00, 0x00, 0x00, 0x00, 0x00, 0x00, 0x00,
    0x00, 0x00, 0x00, 0x00, 0x00, 0x00, 0x00, 0x00, 0x00, 0x00, 0x00, 0x00,
    0x00, 0x00, 0x00, 0x00, 0x00, 0x00, 0x00, 0x00, 0x10, 0x00, 0x00, 0x00,
    0xCD, 0x67, 0x8C, 0x38, 0x49, 0x75, 0x9E, 0x38, 0x5F, 0x5C, 0xA0, 0x38,
    0xCE, 0x50, 0xBE, 0x38, 0x09, 0x09, 0xAF, 0x38, 0xB7, 0x04, 0xA7, 0x38,
    0x4F, 0x12, 0xD8, 0x38, 0xCA, 0x35, 0xA9, 0x38, 0xB2, 0x1C, 0xB3, 0x38,
    0xCB, 0x3F, 0x97, 0x38, 0xA5, 0xAE, 0xBA, 0x38, 0xF5, 0x58, 0xEE, 0x38,
    0x98, 0x7F, 0xB6, 0x38, 0x17, 0x71, 0xC2, 0x38, 0x1C, 0xAD, 0xB6, 0x38,
    0x87, 0x2A, 0xDB, 0x38, 0xA2, 0x00, 0x00, 0x00, 0x73, 0x65, 0x71, 0x75,
    0x65, 0x6E, 0x74, 0x69, 0x61, 0x6C, 0x5F, 0x31, 0x2F, 0x63, 0x6F, 0x6E,
    0x76, 0x31, 0x64, 0x5F, 0x31, 0x2F, 0x52, 0x65, 0x6C, 0x75, 0x3B, 0x73,
    0x65, 0x71, 0x75, 0x65, 0x6E, 0x74, 0x69, 0x61, 0x6C, 0x5F, 0x31, 0x2F,
    0x63, 0x6F, 0x6E, 0x76, 0x31, 0x64, 0x5F, 0x31, 0x2F, 0x42, 0x69, 0x61,
    0x73, 0x41, 0x64, 0x64, 0x3B, 0x73, 0x65, 0x71, 0x75, 0x65, 0x6E, 0x74,
    0x69, 0x61, 0x6C, 0x5F, 0x31, 0x2F, 0x63, 0x6F, 0x6E, 0x76, 0x31, 0x64,
    0x5F, 0x31, 0x2F, 0x63, 0x6F, 0x6E, 0x76, 0x6F, 0x6C, 0x75, 0x74, 0x69,
    0x6F, 0x6E, 0x2F, 0x53, 0x71, 0x75, 0x65, 0x65, 0x7A, 0x65, 0x3B, 0x73,
    0x65, 0x71, 0x75, 0x65, 0x6E, 0x74, 0x69, 0x61, 0x6C, 0x5F, 0x31, 0x2F,
    0x63, 0x6F, 0x6E, 0x76, 0x31, 0x64, 0x5F, 0x31, 0x2F, 0x53, 0x71, 0x75,
    0x65, 0x65, 0x7A, 0x65, 0x3B, 0x73, 0x65, 0x71, 0x75, 0x65, 0x6E, 0x74,
    0x69, 0x61, 0x6C, 0x5F, 0x31, 0x2F, 0x63, 0x6F, 0x6E, 0x76, 0x31, 0x64,
    0x5F, 0x31, 0x2F, 0x63, 0x6F, 0x6E, 0x76, 0x6F, 0x6C, 0x75, 0x74, 0x69,
    0x6F, 0x6E, 0x00, 0x00, 0x01, 0x00, 0x00, 0x00, 0x10, 0x00, 0x00, 0x00,
    0x92, 0xF1, 0xFF, 0xFF, 0x00, 0x00, 0x00, 0x01, 0x14, 0x00, 0x00, 0x00,
    0x34, 0x00, 0x00, 0x00, 0x14, 0x00, 0x00, 0x00, 0x00, 0x00, 0x00, 0x09,
    0x60, 0x00, 0x00, 0x00, 0x14, 0xF1, 0xFF, 0xFF, 0x08, 0x00, 0x00, 0x00,
    0x14, 0x00, 0x00, 0x00, 0x01, 0x00, 0x00, 0x00, 0x80, 0xFF, 0xFF, 0xFF,
    0xFF, 0xFF, 0xFF, 0xFF, 0x00, 0x00, 0x00, 0x00, 0x01, 0x00, 0x00, 0x00,
    0x00, 0x4C, 0xD5, 0x3D, 0x30, 0x00, 0x00, 0x00, 0x73, 0x65, 0x71, 0x75,
    0x65, 0x6E, 0x74, 0x69, 0x61, 0x6C, 0x5F, 0x31, 0x2F, 0x62, 0x61, 0x74,
    0x63, 0x68, 0x5F, 0x6E, 0x6F, 0x72, 0x6D, 0x61, 0x6C, 0x69, 0x7A, 0x61,
    0x74, 0x69, 0x6F, 0x6E, 0x5F, 0x31, 0x2F, 0x62, 0x61, 0x74, 0x63, 0x68,
    0x6E, 0x6F, 0x72, 0x6D, 0x2F, 0x6D, 0x75, 0x6C, 0x00, 0x00, 0x00, 0x00,
    0x01, 0x00, 0x00, 0x00, 0x10, 0x00, 0x00, 0x00, 0x12, 0xF2, 0xFF, 0xFF,
    0x00, 0x00, 0x00, 0x01, 0x14, 0x00, 0x00, 0x00, 0x34, 0x00, 0x00, 0x00,
    0x13, 0x00, 0x00, 0x00, 0x00, 0x00, 0x00, 0x09, 0x60, 0x00, 0x00, 0x00,
    0x94, 0xF1, 0xFF, 0xFF, 0x08, 0x00, 0x00, 0x00, 0x14, 0x00, 0x00, 0x00,
    0x01, 0x00, 0x00, 0x00, 0x73, 0x00, 0x00, 0x00, 0x00, 0x00, 0x00, 0x00,
    0x00, 0x00, 0x00, 0x00, 0x01, 0x00, 0x00, 0x00, 0x42, 0xE7, 0xBD, 0x3B,
    0x30, 0x00, 0x00, 0x00, 0x73, 0x65, 0x71, 0x75, 0x65, 0x6E, 0x74, 0x69,
    0x61, 0x6C, 0x5F, 0x31, 0x2F, 0x62, 0x61, 0x74, 0x63, 0x68, 0x5F, 0x6E,
    0x6F, 0x72, 0x6D, 0x61, 0x6C, 0x69, 0x7A, 0x61, 0x74, 0x69, 0x6F, 0x6E,
    0x5F, 0x31, 0x2F, 0x62, 0x61, 0x74, 0x63, 0x68, 0x6E, 0x6F, 0x72, 0x6D,
    0x2F, 0x73, 0x75, 0x62, 0x00, 0x00, 0x00, 0x00, 0x01, 0x00, 0x00, 0x00,
    0x10, 0x00, 0x00, 0x00, 0x92, 0xF2, 0xFF, 0xFF, 0x00, 0x00, 0x00, 0x01,
    0x14, 0x00, 0x00, 0x00, 0xA8, 0x01, 0x00, 0x00, 0x12, 0x00, 0x00, 0x00,
    0x00, 0x00, 0x00, 0x09, 0xC4, 0x01, 0x00, 0x00, 0x14, 0xF2, 0xFF, 0xFF,
    0x08, 0x00, 0x00, 0x00, 0x0C, 0x01, 0x00, 0x00, 0x20, 0x00, 0x00, 0x00,
    0x00, 0x00, 0x00, 0x00, 0x00, 0x00, 0x00, 0x00, 0x00, 0x00, 0x00, 0x00,
    0x00, 0x00, 0x00, 0x00, 0x00, 0x00, 0x00, 0x00, 0x00, 0x00, 0x00, 0x00,
    0x00, 0x00, 0x00, 0x00, 0x00, 0x00, 0x00, 0x00, 0x00, 0x00, 0x00, 0x00,
    0x00, 0x00, 0x00, 0x00, 0x00, 0x00, 0x00, 0x00, 0x00, 0x00, 0x00, 0x00,
    0x00, 0x00, 0x00, 0x00, 0x00, 0x00, 0x00, 0x00, 0x00, 0x00, 0x00, 0x00,
    0x00, 0x00, 0x00, 0x00, 0x00, 0x00, 0x00, 0x00, 0x00, 0x00, 0x00, 0x00,
    0x00, 0x00, 0x00, 0x00, 0x00, 0x00, 0x00, 0x00, 0x00, 0x00, 0x00, 0x00,
    0x00, 0x00, 0x00, 0x00, 0x00, 0x00, 0x00, 0x00, 0x00, 0x00, 0x00, 0x00,
    0x00, 0x00, 0x00, 0x00, 0x00, 0x00, 0x00, 0x00, 0x00, 0x00, 0x00, 0x00,
    0x00, 0x00, 0x00, 0x00, 0x00, 0x00, 0x00, 0x00, 0x00, 0x00, 0x00, 0x00,
    0x00, 0x00, 0x00, 0x00, 0x00, 0x00, 0x00, 0x00, 0x00, 0x00, 0x00, 0x00,
    0x00, 0x00, 0x00, 0x00, 0x00, 0x00, 0x00, 0x00, 0x00, 0x00, 0x00, 0x00,
    0x00, 0x00, 0x00, 0x00, 0x00, 0x00, 0x00, 0x00, 0x00, 0x00, 0x00, 0x00,
    0x00, 0x00, 0x00, 0x00, 0x00, 0x00, 0x00, 0x00, 0x00, 0x00, 0x00, 0x00,
    0x00, 0x00, 0x00, 0x00, 0x00, 0x00, 0x00, 0x00, 0x00, 0x00, 0x00, 0x00,
    0x00, 0x00, 0x00, 0x00, 0x00, 0x00, 0x00, 0x00, 0x00, 0x00, 0x00, 0x00,
    0x00, 0x00, 0x00, 0x00, 0x00, 0x00, 0x00, 0x00, 0x00, 0x00, 0x00, 0x00,
    0x00, 0x00, 0x00, 0x00, 0x00, 0x00, 0x00, 0x00, 0x00, 0x00, 0x00, 0x00,
    0x00, 0x00, 0x00, 0x00, 0x00, 0x00, 0x00, 0x00, 0x00, 0x00, 0x00, 0x00,
    0x00, 0x00, 0x00, 0x00, 0x00, 0x00, 0x00, 0x00, 0x00, 0x00, 0x00, 0x00,
    0x00, 0x00, 0x00, 0x00, 0x00, 0x00, 0x00, 0x00, 0x00, 0x00, 0x00, 0x00,
    0x00, 0x00, 0x00, 0x00, 0x00, 0x00, 0x00, 0x00, 0x20, 0x00, 0x00, 0x00,
    0x3D, 0xDA, 0x03, 0x3B, 0x86, 0xDE, 0x2C, 0x3B, 0xDF, 0xE0, 0xE1, 0x3A,
    0x41, 0xED, 0xED, 0x3A, 0x4B, 0x1A, 0xD8, 0x3A, 0x1B, 0x93, 0xFE, 0x3A,
    0xB5, 0x62, 0x05, 0x3B, 0x61, 0xE5, 0x18, 0x3B, 0x5C, 0x0E, 0xED, 0x3A,
    0xD2, 0xE5, 0x0B, 0x3B, 0xC1, 0x6D, 0xF6, 0x3A, 0xA2, 0xEB, 0xF9, 0x3A,
    0x2F, 0xBF, 0xEC, 0x3A, 0xEA, 0x4F, 0xEF, 0x3A, 0x7F, 0xCE, 0x00, 0x3B,
    0x48, 0xE5, 0xFB, 0x3A, 0x89, 0x61, 0xC9, 0x3A, 0xBC, 0xA3, 0xFA, 0x3A,
    0x3C, 0xC6, 0xD3, 0x3A, 0xDB, 0x35, 0xED, 0x3A, 0xFF, 0x1C, 0xEF, 0x3A,
    0xF3, 0x7E, 0xE5, 0x3A, 0x3E, 0xDC, 0x10, 0x3B, 0xE2, 0xFD, 0x0A, 0x3B,
    0x18, 0x56, 0xFA, 0x3A, 0xFD, 0x5C, 0xF1, 0x3A, 0xDC, 0x47, 0xE8, 0x3A,
    0x09, 0xCD, 0xEC, 0x3A, 0xB9, 0xFD, 0xBE, 0x3A, 0x1E, 0x87, 0xC8, 0x3A,
    0xC6, 0xFC, 0xF4, 0x3A, 0x02, 0x95, 0xDA, 0x3A, 0x23, 0x00, 0x00, 0x00,
    0x73, 0x65, 0x71, 0x75, 0x65, 0x6E, 0x74, 0x69, 0x61, 0x6C, 0x5F, 0x31,
    0x2F, 0x63, 0x6F, 0x6E, 0x76, 0x31, 0x64, 0x5F, 0x31, 0x5F, 0x32, 0x2F,
    0x63, 0x6F, 0x6E, 0x76, 0x6F, 0x6C, 0x75, 0x74, 0x69, 0x6F, 0x6E, 0x00,
    0x04, 0x00, 0x00, 0x00, 0x20, 0x00, 0x00, 0x00, 0x01, 0x00, 0x00, 0x00,
    0x05, 0x00, 0x00, 0x00, 0x10, 0x00, 0x00, 0x00, 0x82, 0xF4, 0xFF, 0xFF,
    0x00, 0x00, 0x00, 0x01, 0x14, 0x00, 0x00, 0x00, 0xA8, 0x01, 0x00, 0x00,
    0x11, 0x00, 0x00, 0x00, 0x00, 0x00, 0x00, 0x02, 0x50, 0x02, 0x00, 0x00,
    0x04, 0xF4, 0xFF, 0xFF, 0x08, 0x00, 0x00, 0x00, 0x0C, 0x01, 0x00, 0x00,
    0x20, 0x00, 0x00, 0x00, 0x00, 0x00, 0x00, 0x00, 0x00, 0x00, 0x00, 0x00,
    0x00, 0x00, 0x00, 0x00, 0x00, 0x00, 0x00, 0x00, 0x00, 0x00, 0x00, 0x00,
    0x00, 0x00, 0x00, 0x00, 0x00, 0x00, 0x00, 0x00, 0x00, 0x00, 0x00, 0x00,
    0x00, 0x00, 0x00, 0x00, 0x00, 0x00, 0x00, 0x00, 0x00, 0x00, 0x00, 0x00,
    0x00, 0x00, 0x00, 0x00, 0x00, 0x00, 0x00, 0x00, 0x00, 0x00, 0x00, 0x00,
    0x00, 0x00, 0x00, 0x00, 0x00, 0x00, 0x00, 0x00, 0x00, 0x00, 0x00, 0x00,
    0x00, 0x00, 0x00, 0x00, 0x00, 0x00, 0x00, 0x00, 0x00, 0x00, 0x00, 0x00,
    0x00, 0x00, 0x00, 0x00, 0x00, 0x00, 0x00, 0x00, 0x00, 0x00, 0x00, 0x00,
    0x00, 0x00, 0x00, 0x00, 0x00, 0x00, 0x00, 0x00, 0x00, 0x00, 0x00, 0x00,
    0x00, 0x00, 0x00, 0x00, 0x00, 0x00, 0x00, 0x00, 0x00, 0x00, 0x00, 0x00,
    0x00, 0x00, 0x00, 0x00, 0x00, 0x00, 0x00, 0x00, 0x00, 0x00, 0x00, 0x00,
    0x00, 0x00, 0x00, 0x00, 0x00, 0x00, 0x00, 0x00, 0x00, 0x00, 0x00, 0x00,
    0x00, 0x00, 0x00, 0x00, 0x00, 0x00, 0x00, 0x00, 0x00, 0x00, 0x00, 0x00,
    0x00, 0x00, 0x00, 0x00, 0x00, 0x00, 0x00, 0x00, 0x00, 0x00, 0x00, 0x00,
    0x00, 0x00, 0x00, 0x00, 0x00, 0x00, 0x00, 0x00, 0x00, 0x00, 0x00, 0x00,
    0x00, 0x00, 0x00, 0x00, 0x00, 0x00, 0x00, 0x00, 0x00, 0x00, 0x00, 0x00,
    0x00, 0x00, 0x00, 0x00, 0x00, 0x00, 0x00, 0x00, 0x00, 0x00, 0x00, 0x00,
    0x00, 0x00, 0x00, 0x00, 0x00, 0x00, 0x00, 0x00, 0x00, 0x00, 0x00, 0x00,
    0x00, 0x00, 0x00, 0x00, 0x00, 0x00, 0x00, 0x00, 0x00, 0x00, 0x00, 0x00,
    0x00, 0x00, 0x00, 0x00, 0x00, 0x00, 0x00, 0x00, 0x00, 0x00, 0x00, 0x00,
    0x00, 0x00, 0x00, 0x00, 0x00, 0x00, 0x00, 0x00, 0x00, 0x00, 0x00, 0x00,
    0x00, 0x00, 0x00, 0x00, 0x00, 0x00, 0x00, 0x00, 0x00, 0x00, 0x00, 0x00,
    0x20, 0x00, 0x00, 0x00, 0xAA, 0x82, 0x83, 0x39, 0xB6, 0x6B, 0xAC, 0x39,
    0xD9, 0x4A, 0x61, 0x39, 0x3B, 0x4F, 0x6D, 0x39, 0xC4, 0x8A, 0x57, 0x39,
    0x06, 0xEA, 0x7D, 0x39, 0x1E, 0x0A, 0x85, 0x39, 0xD4, 0x7F, 0x98, 0x39,
    0xEA, 0x70, 0x6C, 0x39, 0xE8, 0x88, 0x8B, 0x39, 0x15, 0xCA, 0x75, 0x39,
    0xA5, 0x45, 0x79, 0x39, 0xF2, 0x21, 0x6C, 0x39, 0xF8, 0xB0, 0x6E, 0x39,
    0xF2, 0x78, 0x80, 0x39, 0xFB, 0x3D, 0x7B, 0x39, 0xC9, 0xDB, 0x48, 0x39,
    0x44, 0xFD, 0x79, 0x39, 0x95, 0x39, 0x53, 0x39, 0x4F, 0x98, 0x6C, 0x39,
    0x2F, 0x7E, 0x6E, 0x39, 0x86, 0xE6, 0x64, 0x39, 0x08, 0x7C, 0x90, 0x39,
    0x92, 0xA1, 0x8A, 0x39, 0xD4, 0xAF, 0x79, 0x39, 0xAF, 0xBC, 0x70, 0x39,
    0x96, 0xAD, 0x67, 0x39, 0xC2, 0x2F, 0x6C, 0x39, 0xDF, 0x7E, 0x3E, 0x39,
    0xEF, 0x01, 0x48, 0x39, 0x0F, 0x5A, 0x74, 0x39, 0xD5, 0x03, 0x5A, 0x39,
    0xAC, 0x00, 0x00, 0x00, 0x73, 0x65, 0x71, 0x75, 0x65, 0x6E, 0x74, 0x69,
    0x61, 0x6C, 0x5F, 0x31, 0x2F, 0x63, 0x6F, 0x6E, 0x76, 0x31, 0x64, 0x5F,
    0x31, 0x5F, 0x32, 0x2F, 0x52, 0x65, 0x6C, 0x75, 0x3B, 0x73, 0x65, 0x71,
    0x75, 0x65, 0x6E, 0x74, 0x69, 0x61, 0x6C, 0x5F, 0x31, 0x2F, 0x63, 0x6F,
    0x6E, 0x76, 0x31, 0x64, 0x5F, 0x31, 0x5F, 0x32, 0x2F, 0x42, 0x69, 0x61,
    0x73, 0x41, 0x64, 0x64, 0x3B, 0x73, 0x65, 0x71, 0x75, 0x65, 0x6E, 0x74,
    0x69, 0x61, 0x6C, 0x5F, 0x31, 0x2F, 0x63, 0x6F, 0x6E, 0x76, 0x31, 0x64,
    0x5F, 0x31, 0x5F, 0x32, 0x2F, 0x63, 0x6F, 0x6E, 0x76, 0x6F, 0x6C, 0x75,
    0x74, 0x69, 0x6F, 0x6E, 0x2F, 0x53, 0x71, 0x75, 0x65, 0x65, 0x7A, 0x65,
    0x3B, 0x73, 0x65, 0x71, 0x75, 0x65, 0x6E, 0x74, 0x69, 0x61, 0x6C, 0x5F,
    0x31, 0x2F, 0x63, 0x6F, 0x6E, 0x76, 0x31, 0x64, 0x5F, 0x31, 0x5F, 0x32,
    0x2F, 0x53, 0x71, 0x75, 0x65, 0x65, 0x7A, 0x65, 0x3B, 0x73, 0x65, 0x71,
    0x75, 0x65, 0x6E, 0x74, 0x69, 0x61, 0x6C, 0x5F, 0x31, 0x2F, 0x63, 0x6F,
    0x6E, 0x76, 0x31, 0x64, 0x5F, 0x31, 0x5F, 0x32, 0x2F, 0x63, 0x6F, 0x6E,
    0x76, 0x6F, 0x6C, 0x75, 0x74, 0x69, 0x6F, 0x6E, 0x00, 0x00, 0x00, 0x00,
    0x01, 0x00, 0x00, 0x00, 0x20, 0x00, 0x00, 0x00, 0xF2, 0xF6, 0xFF, 0xFF,
    0x00, 0x00, 0x00, 0x01, 0x14, 0x00, 0x00, 0x00, 0x34, 0x00, 0x00, 0x00,
    0x10, 0x00, 0x00, 0x00, 0x00, 0x00, 0x00, 0x09, 0x60, 0x00, 0x00, 0x00,
    0x74, 0xF6, 0xFF, 0xFF, 0x08, 0x00, 0x00, 0x00, 0x14, 0x00, 0x00, 0x00,
    0x01, 0x00, 0x00, 0x00, 0x80, 0xFF, 0xFF, 0xFF, 0xFF, 0xFF, 0xFF, 0xFF,
    0x00, 0x00, 0x00, 0x00, 0x01, 0x00, 0x00, 0x00, 0x1E, 0x28, 0xF1, 0x3C,
    0x32, 0x00, 0x00, 0x00, 0x73, 0x65, 0x71, 0x75, 0x65, 0x6E, 0x74, 0x69,
    0x61, 0x6C, 0x5F, 0x31, 0x2F, 0x62, 0x61, 0x74, 0x63, 0x68, 0x5F, 0x6E,
    0x6F, 0x72, 0x6D, 0x61, 0x6C, 0x69, 0x7A, 0x61, 0x74, 0x69, 0x6F, 0x6E,
    0x5F, 0x31, 0x5F, 0x32, 0x2F, 0x62, 0x61, 0x74, 0x63, 0x68, 0x6E, 0x6F,
    0x72, 0x6D, 0x2F, 0x6D, 0x75, 0x6C, 0x00, 0x00, 0x01, 0x00, 0x00, 0x00,
    0x20, 0x00, 0x00, 0x00, 0x72, 0xF7, 0xFF, 0xFF, 0x00, 0x00, 0x00, 0x01,
    0x14, 0x00, 0x00, 0x00, 0x34, 0x00, 0x00, 0x00, 0x0F, 0x00, 0x00, 0x00,
    0x00, 0x00, 0x00, 0x09, 0x60, 0x00, 0x00, 0x00, 0xF4, 0xF6, 0xFF, 0xFF,
    0x08, 0x00, 0x00, 0x00, 0x14, 0x00, 0x00, 0x00, 0x01, 0x00, 0x00, 0x00,
    0x7F, 0x00, 0x00, 0x00, 0x00, 0x00, 0x00, 0x00, 0x00, 0x00, 0x00, 0x00,
    0x01, 0x00, 0x00, 0x00, 0x77, 0x92, 0x62, 0x3B, 0x32, 0x00, 0x00, 0x00,
    0x73, 0x65, 0x71, 0x75, 0x65, 0x6E, 0x74, 0x69, 0x61, 0x6C, 0x5F, 0x31,
    0x2F, 0x62, 0x61, 0x74, 0x63, 0x68, 0x5F, 0x6E, 0x6F, 0x72, 0x6D, 0x61,
    0x6C, 0x69, 0x7A, 0x61, 0x74, 0x69, 0x6F, 0x6E, 0x5F, 0x31, 0x5F, 0x32,
    0x2F, 0x62, 0x61, 0x74, 0x63, 0x68, 0x6E, 0x6F, 0x72, 0x6D, 0x2F, 0x73,
