/*******************************************************************************
 * @file    fall_model_data.h
 * @brief   Modelo TFLite de detección de caídas (generado automáticamente)
 * @details Tamańo: 27824 bytes | Cuantización: INT8
 *          Input: (150, 4) | Output: (1,)
 *          Datos en g directamente (sin normalización)
 *          Entrenado con SisFall + hard negatives + datos locales
 * NO EDITAR — Generado por ml/prepare_and_train.py
 ******************************************************************************/
#pragma once

#include <cstdint>

static constexpr uint32_t FALL_MODEL_SIZE = 27824;

alignas(16) static const uint8_t fall_model_data[27824] = {
    0x1C, 0x00, 0x00, 0x00, 0x54, 0x46, 0x4C, 0x33, 0x14, 0x00, 0x20, 0x00,
    0x1C, 0x00, 0x18, 0x00, 0x14, 0x00, 0x10, 0x00, 0x0C, 0x00, 0x00, 0x00,
    0x08, 0x00, 0x04, 0x00, 0x14, 0x00, 0x00, 0x00, 0x1C, 0x00, 0x00, 0x00,
    0x8C, 0x00, 0x00, 0x00, 0xE4, 0x00, 0x00, 0x00, 0xA8, 0x2D, 0x00, 0x00,
    0xB8, 0x2D, 0x00, 0x00, 0xA8, 0x6B, 0x00, 0x00, 0x03, 0x00, 0x00, 0x00,
    0x01, 0x00, 0x00, 0x00, 0x04, 0x00, 0x00, 0x00, 0x9A, 0xCC, 0xFF, 0xFF,
    0x0C, 0x00, 0x00, 0x00, 0x1C, 0x00, 0x00, 0x00, 0x3C, 0x00, 0x00, 0x00,
    0x0F, 0x00, 0x00, 0x00, 0x73, 0x65, 0x72, 0x76, 0x69, 0x6E, 0x67, 0x5F,
    0x64, 0x65, 0x66, 0x61, 0x75, 0x6C, 0x74, 0x00, 0x01, 0x00, 0x00, 0x00,
    0x04, 0x00, 0x00, 0x00, 0x90, 0xFF, 0xFF, 0xFF, 0x39, 0x00, 0x00, 0x00,
    0x04, 0x00, 0x00, 0x00, 0x08, 0x00, 0x00, 0x00, 0x6F, 0x75, 0x74, 0x70,
    0x75, 0x74, 0x5F, 0x30, 0x00, 0x00, 0x00, 0x00, 0x01, 0x00, 0x00, 0x00,
    0x04, 0x00, 0x00, 0x00, 0xDE, 0xD2, 0xFF, 0xFF, 0x04, 0x00, 0x00, 0x00,
    0x0C, 0x00, 0x00, 0x00, 0x6B, 0x65, 0x72, 0x61, 0x73, 0x5F, 0x74, 0x65,
    0x6E, 0x73, 0x6F, 0x72, 0x00, 0x00, 0x00, 0x00, 0x02, 0x00, 0x00, 0x00,
    0x34, 0x00, 0x00, 0x00, 0x04, 0x00, 0x00, 0x00, 0xDC, 0xFF, 0xFF, 0xFF,
    0x3C, 0x00, 0x00, 0x00, 0x04, 0x00, 0x00, 0x00, 0x13, 0x00, 0x00, 0x00,
    0x43, 0x4F, 0x4E, 0x56, 0x45, 0x52, 0x53, 0x49, 0x4F, 0x4E, 0x5F, 0x4D,
    0x45, 0x54, 0x41, 0x44, 0x41, 0x54, 0x41, 0x00, 0x08, 0x00, 0x0C, 0x00,
    0x08, 0x00, 0x04, 0x00, 0x08, 0x00, 0x00, 0x00, 0x3B, 0x00, 0x00, 0x00,
    0x04, 0x00, 0x00, 0x00, 0x13, 0x00, 0x00, 0x00, 0x6D, 0x69, 0x6E, 0x5F,
    0x72, 0x75, 0x6E, 0x74, 0x69, 0x6D, 0x65, 0x5F, 0x76, 0x65, 0x72, 0x73,
    0x69, 0x6F, 0x6E, 0x00, 0x3D, 0x00, 0x00, 0x00, 0xC0, 0x2C, 0x00, 0x00,
    0xB8, 0x2C, 0x00, 0x00, 0xA4, 0x2C, 0x00, 0x00, 0x80, 0x2C, 0x00, 0x00,
    0x6C, 0x2C, 0x00, 0x00, 0x50, 0x2C, 0x00, 0x00, 0x34, 0x2C, 0x00, 0x00,
    0x18, 0x2C, 0x00, 0x00, 0xFC, 0x2B, 0x00, 0x00, 0xE0, 0x2B, 0x00, 0x00,
    0xCC, 0x2B, 0x00, 0x00, 0xAC, 0x2B, 0x00, 0x00, 0x5C, 0x2B, 0x00, 0x00,
    0x4C, 0x2A, 0x00, 0x00, 0xFC, 0x29, 0x00, 0x00, 0xEC, 0x23, 0x00, 0x00,
    0xBC, 0x23, 0x00, 0x00, 0x8C, 0x23, 0x00, 0x00, 0xFC, 0x22, 0x00, 0x00,
    0xEC, 0x0E, 0x00, 0x00, 0xBC, 0x0E, 0x00, 0x00, 0x8C, 0x0E, 0x00, 0x00,
    0xFC, 0x0D, 0x00, 0x00, 0xEC, 0x03, 0x00, 0x00, 0xCC, 0x03, 0x00, 0x00,
    0xAC, 0x03, 0x00, 0x00, 0x5C, 0x03, 0x00, 0x00, 0x8C, 0x01, 0x00, 0x00,
    0x84, 0x01, 0x00, 0x00, 0x7C, 0x01, 0x00, 0x00, 0x74, 0x01, 0x00, 0x00,
    0x6C, 0x01, 0x00, 0x00, 0x64, 0x01, 0x00, 0x00, 0x5C, 0x01, 0x00, 0x00,
    0x54, 0x01, 0x00, 0x00, 0x4C, 0x01, 0x00, 0x00, 0x44, 0x01, 0x00, 0x00,
    0x3C, 0x01, 0x00, 0x00, 0x34, 0x01, 0x00, 0x00, 0x2C, 0x01, 0x00, 0x00,
    0x24, 0x01, 0x00, 0x00, 0x1C, 0x01, 0x00, 0x00, 0x14, 0x01, 0x00, 0x00,
    0x0C, 0x01, 0x00, 0x00, 0x04, 0x01, 0x00, 0x00, 0xFC, 0x00, 0x00, 0x00,
    0xF4, 0x00, 0x00, 0x00, 0xEC, 0x00, 0x00, 0x00, 0xE4, 0x00, 0x00, 0x00,
    0xDC, 0x00, 0x00, 0x00, 0xD4, 0x00, 0x00, 0x00, 0xCC, 0x00, 0x00, 0x00,
    0xC4, 0x00, 0x00, 0x00, 0xBC, 0x00, 0x00, 0x00, 0xB4, 0x00, 0x00, 0x00,
    0xAC, 0x00, 0x00, 0x00, 0xA4, 0x00, 0x00, 0x00, 0x9C, 0x00, 0x00, 0x00,
    0x94, 0x00, 0x00, 0x00, 0x74, 0x00, 0x00, 0x00, 0x04, 0x00, 0x00, 0x00,
    0x4E, 0xD4, 0xFF, 0xFF, 0x04, 0x00, 0x00, 0x00, 0x60, 0x00, 0x00, 0x00,
    0x0C, 0x00, 0x00, 0x00, 0x08, 0x00, 0x0E, 0x00, 0x08, 0x00, 0x04, 0x00,
    0x08, 0x00, 0x00, 0x00, 0x10, 0x00, 0x00, 0x00, 0x28, 0x00, 0x00, 0x00,
    0x00, 0x00, 0x06, 0x00, 0x08, 0x00, 0x04, 0x00, 0x06, 0x00, 0x00, 0x00,
    0x04, 0x00, 0x00, 0x00, 0x01, 0x00, 0x00, 0x00, 0xEB, 0x03, 0x00, 0x00,
    0x0C, 0x00, 0x18, 0x00, 0x14, 0x00, 0x10, 0x00, 0x0C, 0x00, 0x04, 0x00,
    0x0C, 0x00, 0x00, 0x00, 0xAE, 0x4C, 0x10, 0x7C, 0x56, 0x39, 0x80, 0x2F,
    0x02, 0x00, 0x00, 0x00, 0x02, 0x00, 0x00, 0x00, 0x04, 0x00, 0x00, 0x00,
    0x06, 0x00, 0x00, 0x00, 0x32, 0x2E, 0x32, 0x31, 0x2E, 0x30, 0x00, 0x00,
    0xBA, 0xD4, 0xFF, 0xFF, 0x04, 0x00, 0x00, 0x00, 0x10, 0x00, 0x00, 0x00,
    0x31, 0x2E, 0x31, 0x34, 0x2E, 0x30, 0x00, 0x00, 0x00, 0x00, 0x00, 0x00,
    0x00, 0x00, 0x00, 0x00, 0x78, 0x97, 0xFF, 0xFF, 0x7C, 0x97, 0xFF, 0xFF,
    0x80, 0x97, 0xFF, 0xFF, 0x84, 0x97, 0xFF, 0xFF, 0x88, 0x97, 0xFF, 0xFF,
    0x8C, 0x97, 0xFF, 0xFF, 0x90, 0x97, 0xFF, 0xFF, 0x94, 0x97, 0xFF, 0xFF,
    0x98, 0x97, 0xFF, 0xFF, 0x9C, 0x97, 0xFF, 0xFF, 0xA0, 0x97, 0xFF, 0xFF,
    0xA4, 0x97, 0xFF, 0xFF, 0xA8, 0x97, 0xFF, 0xFF, 0xAC, 0x97, 0xFF, 0xFF,
    0xB0, 0x97, 0xFF, 0xFF, 0xB4, 0x97, 0xFF, 0xFF, 0xB8, 0x97, 0xFF, 0xFF,
    0xBC, 0x97, 0xFF, 0xFF, 0xC0, 0x97, 0xFF, 0xFF, 0xC4, 0x97, 0xFF, 0xFF,
    0xC8, 0x97, 0xFF, 0xFF, 0xCC, 0x97, 0xFF, 0xFF, 0xD0, 0x97, 0xFF, 0xFF,
    0xD4, 0x97, 0xFF, 0xFF, 0xD8, 0x97, 0xFF, 0xFF, 0xDC, 0x97, 0xFF, 0xFF,
    0xE0, 0x97, 0xFF, 0xFF, 0xE4, 0x97, 0xFF, 0xFF, 0xE8, 0x97, 0xFF, 0xFF,
    0xEC, 0x97, 0xFF, 0xFF, 0xF0, 0x97, 0xFF, 0xFF, 0x52, 0xD5, 0xFF, 0xFF,
    0x04, 0x00, 0x00, 0x00, 0xC0, 0x01, 0x00, 0x00, 0xA0, 0xEF, 0x75, 0xB2,
    0x3C, 0xE7, 0x7F, 0x22, 0xAC, 0xF4, 0x0A, 0xEA, 0xB2, 0xF6, 0x67, 0x3D,
    0xAF, 0x05, 0x31, 0x20, 0x04, 0x1D, 0x3D, 0x23, 0xF9, 0x4C, 0x4E, 0xC5,
    0xA2, 0xCD, 0xFF, 0xBC, 0xBE, 0xD6, 0x4E, 0xD9, 0x00, 0xBB, 0xDF, 0x4B,
    0xED, 0xE1, 0x19, 0xF1, 0x81, 0xC3, 0x1B, 0xE1, 0x9F, 0xC5, 0x0C, 0xE8,
    0xF3, 0xCF, 0x23, 0x1D, 0xB3, 0x7F, 0x88, 0xC2, 0xED, 0xE8, 0xC2, 0x5D,
    0xA6, 0x26, 0xED, 0xFF, 0xF3, 0x5E, 0xBA, 0x0E, 0xE4, 0x26, 0xD9, 0x1E,
    0xDE, 0x35, 0x46, 0x55, 0xD9, 0x45, 0xE1, 0x44, 0x0A, 0xE3, 0xF6, 0x60,
    0x43, 0xF7, 0x33, 0x7B, 0x7F, 0xF0, 0x1C, 0x19, 0x34, 0x06, 0x16, 0x65,
    0x52, 0xAF, 0x42, 0x3C, 0xEE, 0x10, 0xD9, 0x65, 0x0F, 0xF5, 0xF9, 0x66,
    0x0C, 0xB9, 0xEF, 0xC4, 0xBE, 0xE6, 0x32, 0x50, 0x18, 0xC6, 0xFD, 0x21,
    0x15, 0x16, 0x1A, 0xEA, 0x60, 0xB2, 0xF3, 0x0B, 0x24, 0x06, 0xD3, 0x7F,
    0x44, 0x08, 0xE7, 0x4C, 0x9E, 0x57, 0x17, 0x27, 0xA1, 0x3A, 0x25, 0xF3,
    0x97, 0x24, 0x22, 0xE4, 0xAA, 0x6B, 0x0D, 0xE5, 0xC5, 0x7F, 0x14, 0xDF,
    0xE1, 0x53, 0xEC, 0xC9, 0xDA, 0x0F, 0xCF, 0xB4, 0xC5, 0x05, 0xF3, 0xA9,
    0xEE, 0xEF, 0xEC, 0x4A, 0xD0, 0xE2, 0x98, 0xEC, 0x7F, 0xC5, 0x10, 0xD0,
    0x74, 0x11, 0x85, 0xF1, 0x03, 0x24, 0xFB, 0xEC, 0x4E, 0x6F, 0xA7, 0xD4,
    0xB3, 0x06, 0xD9, 0xCA, 0xD3, 0xC4, 0xF7, 0x31, 0xC4, 0xDA, 0xD6, 0x64,
    0xCF, 0xFC, 0x8D, 0x1E, 0xDD, 0xBF, 0x89, 0x40, 0xB6, 0xF2, 0xCF, 0xEA,
    0xE6, 0xD7, 0x36, 0x7F, 0x2D, 0x63, 0xFF, 0xD8, 0x1D, 0x5A, 0x1D, 0x37,
    0x6F, 0x69, 0x32, 0x08, 0x3B, 0x1E, 0xE6, 0x2F, 0x14, 0x6C, 0xA6, 0xF8,
    0x35, 0x1C, 0x84, 0xE2, 0x0E, 0x3B, 0xB7, 0x7F, 0x7F, 0x96, 0xAC, 0x05,
    0x70, 0x9C, 0x29, 0xD4, 0x20, 0xA0, 0x3E, 0xF6, 0x6C, 0xB9, 0xAF, 0xF0,
    0x5A, 0xFC, 0xCE, 0x08, 0x1C, 0x9F, 0x39, 0xC0, 0x7A, 0x9B, 0x5A, 0xD8,
    0xE7, 0xFF, 0x7F, 0xF4, 0xE3, 0xDA, 0x05, 0xC9, 0xB6, 0xFD, 0x39, 0xFD,
    0x04, 0x15, 0xEC, 0xA5, 0x46, 0xFD, 0x59, 0x1F, 0x33, 0xCC, 0x2B, 0xEA,
    0x14, 0xFC, 0x29, 0xF1, 0x58, 0x0B, 0x09, 0xDE, 0x2B, 0xFC, 0x3F, 0xB8,
    0x29, 0xF0, 0x33, 0x21, 0xE7, 0x7C, 0x35, 0x03, 0xDE, 0x81, 0x15, 0xBC,
    0xA7, 0x6F, 0xE1, 0x31, 0x9F, 0xC8, 0x05, 0xE9, 0x73, 0xD5, 0xC2, 0x20,
    0xD7, 0x2D, 0xD0, 0x39, 0x5D, 0xE7, 0x2D, 0xF9, 0x1A, 0x03, 0xD1, 0x75,
    0x81, 0xCC, 0x2B, 0x17, 0x68, 0xE1, 0x2A, 0x5A, 0x44, 0xCC, 0x02, 0x45,
    0xB9, 0x11, 0x14, 0x91, 0x4D, 0x22, 0x39, 0xE9, 0x3E, 0x2F, 0xCA, 0x41,
    0xC0, 0xE1, 0x4F, 0x2F, 0xCD, 0xF7, 0xD2, 0x42, 0x81, 0x58, 0x14, 0x16,
    0x6F, 0xBE, 0xDA, 0xF1, 0x10, 0xE3, 0x0B, 0x0B, 0x36, 0x22, 0xFA, 0xE2,
    0x1F, 0x4D, 0xF8, 0x0C, 0xD0, 0x81, 0x52, 0xDE, 0xED, 0x39, 0xF9, 0xC3,
    0xB9, 0x37, 0x3D, 0x02, 0x28, 0xAB, 0x33, 0xC8, 0x92, 0x35, 0x3D, 0xAE,
    0xDA, 0x9B, 0x32, 0xCB, 0xFD, 0x68, 0x0E, 0xD1, 0x5A, 0xC8, 0xD0, 0x2B,
    0x5B, 0x0D, 0xE9, 0xFC, 0xC6, 0x39, 0x0C, 0x3B, 0x7F, 0x9F, 0x1A, 0xBF,
    0x1E, 0xD7, 0xFF, 0xFF, 0x04, 0x00, 0x00, 0x00, 0x40, 0x00, 0x00, 0x00,
    0x7B, 0x00, 0x00, 0x00, 0xE0, 0x00, 0x00, 0x00, 0xA6, 0xFE, 0xFF, 0xFF,
    0x41, 0x00, 0x00, 0x00, 0x0A, 0x00, 0x00, 0x00, 0xD3, 0xFE, 0xFF, 0xFF,
    0x3F, 0x01, 0x00, 0x00, 0x8E, 0xFE, 0xFF, 0xFF, 0x34, 0xFF, 0xFF, 0xFF,
    0x56, 0x00, 0x00, 0x00, 0x15, 0x00, 0x00, 0x00, 0xFF, 0xFE, 0xFF, 0xFF,
    0x21, 0x00, 0x00, 0x00, 0x45, 0xFF, 0xFF, 0xFF, 0xD4, 0xFF, 0xFF, 0xFF,
    0xCA, 0x01, 0x00, 0x00, 0x6A, 0xD7, 0xFF, 0xFF, 0x04, 0x00, 0x00, 0x00,
    0x10, 0x00, 0x00, 0x00, 0xBC, 0xE3, 0xD6, 0xA8, 0xAF, 0xEE, 0x47, 0xC9,
    0xCE, 0x00, 0x04, 0x00, 0xAB, 0xD0, 0x7F, 0x31, 0x86, 0xD7, 0xFF, 0xFF,
    0x04, 0x00, 0x00, 0x00, 0x10, 0x00, 0x00, 0x00, 0xF2, 0x0E, 0x4D, 0x80,
    0xE9, 0x7F, 0x6A, 0xF6, 0x6D, 0x2C, 0x29, 0x31, 0xAD, 0x2E, 0x38, 0x33,
    0xA2, 0xD7, 0xFF, 0xFF, 0x04, 0x00, 0x00, 0x00, 0x00, 0x0A, 0x00, 0x00,
    0x0D, 0xD0, 0x0C, 0x1B, 0x36, 0xAC, 0x54, 0xCF, 0x11, 0xC9, 0xF3, 0x0E,
    0x40, 0x0A, 0x16, 0xF0, 0xC9, 0x09, 0x9A, 0x2A, 0x39, 0xF8, 0x5D, 0x29,
    0x13, 0x81, 0xB3, 0xE7, 0xD6, 0x25, 0xEE, 0x54, 0x18, 0xD2, 0xEE, 0x00,
    0xE3, 0x05, 0x11, 0xCE, 0x07, 0xD0, 0x07, 0xCF, 0x3E, 0x37, 0x0C, 0x07,
    0xB7, 0xB0, 0xB2, 0xE1, 0xF6, 0xC0, 0x46, 0xCF, 0xCF, 0xC7, 0x19, 0xCC,
    0x19, 0xC1, 0x60, 0x3C, 0xF1, 0x2A, 0xF6, 0x33, 0xD5, 0xAD, 0xCD, 0xE9,
    0xB0, 0xB4, 0x07, 0x1E, 0xDE, 0x27, 0xDE, 0x09, 0xB0, 0x4B, 0xF6, 0xD0,
    0xF0, 0xB2, 0xF8, 0x13, 0xDF, 0x0C, 0xD6, 0xEB, 0x09, 0x1C, 0x98, 0xD4,
    0xE5, 0x1A, 0x38, 0xF8, 0x22, 0xE5, 0x31, 0xE3, 0x01, 0x37, 0xD4, 0xF4,
    0xFC, 0xDF, 0xF2, 0x15, 0x9E, 0xFF, 0xFC, 0xD3, 0x2F, 0xD3, 0x0B, 0xE8,
    0xD3, 0xF5, 0xE2, 0x33, 0x19, 0xEF, 0x00, 0x14, 0x93, 0x1F, 0xDE, 0xD8,
    0xF4, 0xE3, 0x15, 0xC8, 0x09, 0xD3, 0xD4, 0xDE, 0xD6, 0x17, 0xDA, 0x41,
    0x81, 0xE2, 0xD5, 0xD2, 0xFF, 0xEB, 0x09, 0x3A, 0x01, 0x0C, 0x8F, 0x4F,
    0xB7, 0xFA, 0xDF, 0x24, 0x5B, 0xCF, 0xA1, 0xF9, 0x48, 0x2F, 0xC0, 0xC9,
    0xFE, 0xDB, 0x7F, 0xF2, 0xFE, 0xA7, 0xE4, 0x3B, 0x29, 0xF8, 0xF2, 0xFA,
    0xE9, 0x0A, 0x1A, 0xC9, 0x19, 0x13, 0xD1, 0xCE, 0x13, 0x42, 0x2B, 0x51,
    0x32, 0xF6, 0xE9, 0x61, 0xF0, 0xA5, 0x46, 0xD8, 0xF9, 0x10, 0xFA, 0x42,
    0x17, 0xF3, 0x02, 0xBE, 0x1E, 0x3F, 0x01, 0x5B, 0xD8, 0x18, 0xC7, 0x4A,
    0x42, 0xFC, 0x13, 0x30, 0xED, 0x23, 0xC5, 0x0D, 0x19, 0x1A, 0x38, 0x49,
    0xD1, 0x21, 0xEC, 0xF2, 0x2B, 0xB9, 0x96, 0x4F, 0x4A, 0x45, 0x65, 0x90,
    0xFE, 0xED, 0x02, 0x25, 0xF9, 0xDC, 0x22, 0xFC, 0xFF, 0x7F, 0xDE, 0x14,
    0x25, 0x12, 0xF8, 0x2F, 0xCA, 0x20, 0x00, 0x61, 0x28, 0xC6, 0xFF, 0x29,
    0x0F, 0x37, 0x12, 0x19, 0x49, 0xF1, 0xF5, 0xE9, 0xC5, 0x3B, 0xE1, 0x2B,
    0xE0, 0x1C, 0xE4, 0xE2, 0xEF, 0x25, 0x0B, 0xEC, 0x0F, 0x20, 0xE3, 0xF7,
    0xF2, 0x10, 0x1C, 0x07, 0x1D, 0xD1, 0xD5, 0x04, 0xFC, 0x17, 0x07, 0x16,
    0x32, 0x05, 0xF0, 0x1F, 0xDC, 0x0E, 0x13, 0x43, 0x14, 0xCB, 0x1A, 0xD5,
    0xE9, 0x23, 0x0E, 0x25, 0x51, 0xFB, 0xE6, 0xFB, 0xDF, 0x91, 0xAF, 0xC7,
    0xE2, 0xEF, 0x0F, 0xE8, 0xAF, 0x99, 0xF7, 0x20, 0xF6, 0x36, 0x32, 0x2E,
    0xD1, 0x00, 0xAD, 0x07, 0xDB, 0xE6, 0x2E, 0x0B, 0x97, 0xD2, 0xCC, 0x0A,
    0xDE, 0x19, 0xFD, 0x4F, 0xF0, 0xC1, 0xFD, 0xC1, 0xCD, 0x03, 0x25, 0xBA,
    0xF7, 0xD0, 0x25, 0x19, 0x21, 0x08, 0x25, 0xF3, 0x08, 0x04, 0xAA, 0xCC,
    0x15, 0xD3, 0xF5, 0xF9, 0x81, 0xCD, 0xDB, 0x17, 0x0A, 0xFD, 0x41, 0x28,
    0xD4, 0xE8, 0xE8, 0xFA, 0xF5, 0xA9, 0xDD, 0xD0, 0xAD, 0xD8, 0x1C, 0x2E,
    0xCB, 0x0C, 0x1C, 0x05, 0xE5, 0x32, 0xC6, 0xEE, 0x06, 0xF6, 0x33, 0xF4,
    0xF3, 0xC8, 0x51, 0xBE, 0x03, 0xD9, 0x4D, 0x10, 0x32, 0xB5, 0xB1, 0x33,
    0x02, 0x2B, 0x82, 0xE4, 0xCC, 0xE8, 0x56, 0xF1, 0x23, 0xE5, 0xDE, 0x45,
    0xD0, 0x03, 0xA6, 0x48, 0xBE, 0x9A, 0xE7, 0xAA, 0xE1, 0x24, 0xF3, 0x13,
    0x13, 0x13, 0x5E, 0x49, 0x01, 0xD8, 0x0E, 0x00, 0xAD, 0x1F, 0x2D, 0xF9,
    0xF8, 0x17, 0xD1, 0x7F, 0xC2, 0xA9, 0x4F, 0x99, 0x1A, 0x04, 0xCF, 0xBE,
    0xE6, 0xF7, 0x9F, 0x04, 0xC2, 0xF5, 0x89, 0x6C, 0x27, 0xE7, 0x26, 0x09,
    0xC5, 0x52, 0xCE, 0x0B, 0x0F, 0x0F, 0x08, 0x3A, 0xD7, 0x1E, 0xA3, 0x17,
    0xC8, 0xEA, 0x34, 0xE3, 0xE8, 0x41, 0xE2, 0x92, 0xEB, 0x19, 0x29, 0x70,
    0xFC, 0xE6, 0xBF, 0xB5, 0x3B, 0xE9, 0xE2, 0xEC, 0xFD, 0x58, 0x45, 0x1C,
    0x37, 0x47, 0x51, 0x69, 0x2F, 0xF6, 0xB2, 0xC1, 0xD5, 0xD8, 0x1E, 0x77,
    0x05, 0x20, 0x7A, 0xD6, 0x3D, 0x68, 0xC6, 0x59, 0x1D, 0x18, 0x2E, 0x33,
    0x31, 0x06, 0x29, 0xD9, 0xEC, 0x24, 0x52, 0xBF, 0xFA, 0x3B, 0xD0, 0x23,
    0x34, 0x26, 0x1C, 0x56, 0xED, 0x01, 0x66, 0x7F, 0x0D, 0xD4, 0xFF, 0x13,
    0xD2, 0x23, 0xD6, 0xDE, 0x05, 0x15, 0xCD, 0xD5, 0xC5, 0x25, 0x09, 0xE1,
    0x08, 0x11, 0xC3, 0x24, 0xD1, 0xDC, 0xED, 0xE5, 0x03, 0xF3, 0x0B, 0xC3,
    0xCB, 0xD4, 0xFD, 0xCB, 0xF5, 0xC7, 0xBA, 0xD8, 0xCB, 0x29, 0xF0, 0xB9,
    0x13, 0x04, 0x05, 0x81, 0x9C, 0xD3, 0xA9, 0xF1, 0xEE, 0x09, 0x0C, 0xA5,
    0xB6, 0x09, 0x55, 0xE1, 0xC2, 0xE6, 0x05, 0xAC, 0xC1, 0xB0, 0xC3, 0xFF,
    0xDE, 0xF3, 0xDD, 0xB5, 0xEB, 0xCD, 0x20, 0xDC, 0xF0, 0x10, 0xE2, 0x8E,
    0xC1, 0xCC, 0xCD, 0xEA, 0xE1, 0x0D, 0x1A, 0x9D, 0x0F, 0x16, 0x0B, 0xF6,
    0x88, 0xD2, 0x20, 0x13, 0xB3, 0xD4, 0xE6, 0x12, 0xBF, 0xCB, 0xF1, 0xC4,
    0xE6, 0x0D, 0xE8, 0xF0, 0x9F, 0xAC, 0xFB, 0x10, 0x20, 0x3C, 0x02, 0xDC,
    0xBF, 0xDA, 0x9A, 0xE4, 0x2B, 0xEA, 0xEB, 0xDF, 0x81, 0xBF, 0x35, 0x1D,
    0x0D, 0x36, 0x0E, 0x32, 0xB4, 0xC2, 0xBA, 0xC1, 0x17, 0xCE, 0x11, 0xDC,
    0xB9, 0xF2, 0x03, 0x1B, 0x07, 0xD2, 0x49, 0x20, 0xFA, 0xD2, 0x9D, 0x06,
    0xD8, 0xD0, 0xDA, 0xBA, 0xEC, 0xAD, 0xDA, 0xED, 0x1F, 0x18, 0x11, 0x24,
    0x40, 0xE3, 0x12, 0xD4, 0x17, 0x67, 0x31, 0x19, 0xDC, 0x1E, 0x17, 0x32,
    0xAB, 0x0C, 0x05, 0xD1, 0xFD, 0xBA, 0x23, 0xF6, 0xDB, 0x7F, 0x31, 0x0E,
    0xFF, 0xD5, 0x21, 0xC1, 0xA4, 0xC8, 0xF0, 0xD2, 0xFA, 0xD8, 0xE0, 0xE5,
    0xC6, 0xDD, 0x43, 0x20, 0x14, 0xD9, 0x37, 0xB0, 0xA0, 0xA5, 0xCC, 0x04,
    0xBB, 0xE9, 0xD4, 0xCB, 0xBE, 0x0A, 0xF9, 0xD1, 0xEB, 0x22, 0xFE, 0xB0,
    0xD1, 0xD9, 0xB7, 0x1B, 0xCF, 0xC7, 0xE7, 0xD4, 0xA0, 0x21, 0xFA, 0xD1,
    0xE0, 0xDC, 0xA4, 0xF6, 0xFA, 0xF6, 0xB0, 0x08, 0x0A, 0x22, 0x0A, 0xF6,
    0xBF, 0xDD, 0x20, 0x6F, 0x48, 0x04, 0xDD, 0xF2, 0x4B, 0x46, 0x05, 0x05,
    0xC8, 0x09, 0x3C, 0xEA, 0xEF, 0xEC, 0x62, 0x7F, 0x0A, 0xF5, 0xCC, 0xF1,
    0xF5, 0xC2, 0xDA, 0x1B, 0x17, 0xF7, 0x0D, 0x00, 0x2F, 0xFB, 0xE2, 0xFD,
    0x26, 0x05, 0xBF, 0x87, 0x19, 0xC4, 0xFB, 0xBE, 0xD8, 0xF9, 0xE6, 0x0A,
    0x39, 0xED, 0x68, 0x34, 0x15, 0x44, 0x4C, 0xCD, 0xE8, 0xD7, 0xF7, 0x65,
    0x19, 0x12, 0xDA, 0xF9, 0xC2, 0xC2, 0xAF, 0x2F, 0x31, 0x36, 0x30, 0xFF,
    0x43, 0x0E, 0xEF, 0x1A, 0xE3, 0xF0, 0x18, 0xC8, 0xE8, 0x17, 0x05, 0xE9,
    0xB5, 0xD3, 0xE6, 0x0F, 0xC6, 0x06, 0x04, 0x21, 0xE9, 0x91, 0xAB, 0x04,
    0x0D, 0xE2, 0x1D, 0xCB, 0xDE, 0x9F, 0x2A, 0xE5, 0xCC, 0xDB, 0x1F, 0x24,
    0xFF, 0xDF, 0xD7, 0x09, 0xFB, 0x97, 0xF7, 0xFC, 0xB5, 0x0A, 0xF5, 0x12,
    0xF6, 0xDE, 0x0D, 0x12, 0x1F, 0xE3, 0x90, 0xEE, 0xED, 0xE0, 0x24, 0xC0,
    0x81, 0xEA, 0xAD, 0x18, 0x27, 0x02, 0x0C, 0xB0, 0x09, 0xAC, 0xC5, 0x0D,
    0xEC, 0x2B, 0xD0, 0x0E, 0x8D, 0xBC, 0x10, 0x25, 0xD4, 0x09, 0x19, 0x21,
    0xDF, 0xC8, 0xA1, 0xE4, 0x1F, 0xD8, 0xE2, 0xDF, 0xDE, 0x9E, 0x4C, 0x26,
    0xFE, 0x2A, 0x20, 0x15, 0xCE, 0xDD, 0xD2, 0x01, 0xD3, 0xBF, 0xF1, 0xDF,
    0xE1, 0x94, 0x3F, 0xEB, 0xE2, 0xDB, 0xFB, 0x1F, 0x24, 0xFF, 0xA4, 0x0D,
    0xC2, 0x90, 0x1B, 0xCE, 0x85, 0xD9, 0xA7, 0x42, 0xE3, 0xE0, 0x31, 0x27,
    0xE1, 0xD7, 0xE5, 0x14, 0xEB, 0xD9, 0xF2, 0xC8, 0xA0, 0xAE, 0x1A, 0x22,
    0xC8, 0xD8, 0xE4, 0x0B, 0x1B, 0xFD, 0xC7, 0xF9, 0x2D, 0x0C, 0x1E, 0xA5,
    0xB1, 0x81, 0xB2, 0x05, 0x0F, 0xFE, 0x33, 0x15, 0xB4, 0xFF, 0xDB, 0x3A,
    0x42, 0xD7, 0x43, 0x22, 0x61, 0x1D, 0xD4, 0x00, 0xD9, 0xEB, 0x06, 0x72,
    0x10, 0xF4, 0x0D, 0xE8, 0x81, 0xDC, 0xFC, 0x09, 0xF9, 0x58, 0xB5, 0x26,
    0x36, 0x2D, 0x20, 0x2C, 0xE8, 0xDD, 0xD8, 0x23, 0x03, 0xC8, 0xEA, 0xF2,
    0xD7, 0x19, 0xEF, 0xF7, 0x10, 0xDE, 0x2A, 0x04, 0x04, 0xBD, 0x01, 0xCA,
    0xA2, 0xEA, 0x94, 0xE8, 0x07, 0xDA, 0xE8, 0xCC, 0x00, 0x16, 0x37, 0xF9,
    0x8F, 0xE0, 0xFF, 0xDF, 0xD9, 0xB0, 0xD0, 0x26, 0xBF, 0xB6, 0xFC, 0xFE,
    0x96, 0xC4, 0xFC, 0x2E, 0x2E, 0xC1, 0xE1, 0xBA, 0xB2, 0x2D, 0xD1, 0xCA,
    0xAA, 0xBB, 0x0D, 0xDC, 0xFD, 0x17, 0xE1, 0xD1, 0xCD, 0xEB, 0xE4, 0x07,
    0xB6, 0xF3, 0x13, 0xBA, 0xE6, 0x02, 0xF4, 0xB8, 0xD3, 0xD0, 0xC3, 0xB8,
    0xDE, 0xD3, 0xED, 0xB5, 0x07, 0xB7, 0xF3, 0xF2, 0x81, 0xE4, 0xCC, 0xA4,
    0x81, 0x9B, 0xBB, 0xBA, 0xF4, 0xCA, 0x9F, 0xA3, 0xF6, 0x00, 0xFB, 0xCB,
    0xEE, 0xA9, 0x00, 0x91, 0xA5, 0xD5, 0xCE, 0xD8, 0x08, 0xEB, 0xEA, 0xEC,
    0xAB, 0xD3, 0xD4, 0xD2, 0xD1, 0xAB, 0x14, 0x90, 0xEE, 0xFA, 0xEA, 0xFC,
    0x4D, 0xD5, 0x22, 0xF8, 0x17, 0x04, 0xBC, 0x04, 0x00, 0x23, 0xF4, 0x5D,
    0xDB, 0x22, 0x51, 0x81, 0x49, 0x2F, 0xF1, 0xF4, 0x0B, 0xF7, 0xB7, 0x42,
    0x0E, 0xB6, 0x18, 0x03, 0x20, 0x2A, 0xD4, 0x10, 0x24, 0xE0, 0xED, 0xCB,
    0xDD, 0xDB, 0xBA, 0x06, 0xEF, 0x15, 0x00, 0x04, 0xDC, 0x36, 0x20, 0x2D,
    0x2E, 0xEA, 0xE1, 0x2B, 0x09, 0x19, 0x0E, 0x36, 0xF9, 0xE4, 0x57, 0xBB,
    0x1D, 0xFB, 0x25, 0x2B, 0x31, 0xC8, 0xE3, 0x29, 0x10, 0xDD, 0xCB, 0xEA,
    0xAD, 0x5F, 0x4A, 0xED, 0xEF, 0xEE, 0x0A, 0x42, 0xEF, 0x81, 0xCD, 0x15,
    0xF3, 0xBC, 0xFE, 0xB5, 0x03, 0x08, 0x24, 0xE0, 0x18, 0x0F, 0x31, 0xCA,
    0x16, 0x20, 0xFA, 0x59, 0x34, 0xEB, 0xDC, 0xE3, 0x06, 0xF5, 0x26, 0x3B,
    0x05, 0xCB, 0xEC, 0x49, 0x42, 0x1A, 0x1B, 0x16, 0xBD, 0x03, 0x90, 0x13,
    0x58, 0xE4, 0xEB, 0x03, 0x01, 0x5B, 0xE7, 0xFF, 0x28, 0xFC, 0x19, 0xF7,
    0xF6, 0xEC, 0xC1, 0x28, 0x1F, 0x0B, 0x31, 0x23, 0xC0, 0x1E, 0x16, 0xBC,
    0x30, 0x09, 0x02, 0x34, 0xC6, 0x54, 0xB1, 0x28, 0xD0, 0xAC, 0x1F, 0x56,
    0x0A, 0xE2, 0xE5, 0xE3, 0x1E, 0x1F, 0xD8, 0xF0, 0x26, 0xE2, 0xDD, 0xBB,
    0x18, 0x81, 0x5E, 0x2F, 0xDD, 0xE3, 0x0C, 0xCD, 0x75, 0x54, 0x3E, 0x16,
    0xF7, 0xDD, 0xCC, 0xF6, 0x3D, 0xAE, 0x27, 0xF7, 0xF0, 0x6B, 0xC9, 0x3E,
    0x43, 0xAE, 0x0E, 0x07, 0xC4, 0x39, 0x12, 0x2D, 0xB0, 0x39, 0x2D, 0xD9,
    0x03, 0x38, 0x41, 0x29, 0xEC, 0x2F, 0x0C, 0x48, 0x24, 0xEE, 0x26, 0x1A,
    0x0E, 0xD1, 0xEC, 0xEF, 0x2B, 0xC6, 0x3A, 0xC9, 0x2E, 0xBB, 0xDD, 0xFD,
    0x17, 0xB2, 0xD6, 0x83, 0x0B, 0x37, 0xEE, 0xEC, 0x1A, 0x3D, 0x33, 0x24,
    0x16, 0xA2, 0xDC, 0xBD, 0xF9, 0x08, 0xF5, 0xE4, 0x8D, 0x12, 0x42, 0x09,
    0x23, 0xAB, 0x05, 0xCE, 0x47, 0xEA, 0x1B, 0x11, 0x32, 0xBE, 0x0C, 0xDC,
    0x39, 0xEF, 0x2A, 0x50, 0xE5, 0x32, 0x5C, 0x3D, 0x01, 0xB1, 0xC8, 0x49,
    0xC5, 0x18, 0xEB, 0xD3, 0x52, 0xB8, 0x01, 0x32, 0x06, 0xE4, 0xB1, 0xB7,
    0xD5, 0xDD, 0xD0, 0xC6, 0xAE, 0xC0, 0x15, 0x36, 0xE9, 0xFC, 0x49, 0x4C,
    0xE4, 0x0A, 0xE6, 0x28, 0x15, 0x5A, 0x26, 0x2D, 0x81, 0x30, 0xDD, 0x01,
    0xCE, 0xEB, 0x8A, 0x27, 0x2C, 0x1A, 0x4D, 0xF5, 0x2D, 0xD6, 0x23, 0x4D,
    0xC3, 0xED, 0x11, 0xAF, 0x18, 0x59, 0x13, 0xCD, 0x2E, 0xE8, 0xDC, 0x19,
    0xF4, 0xB9, 0xC2, 0xE5, 0xEB, 0xCB, 0xEE, 0x88, 0xE4, 0x1B, 0x0B, 0xF0,
    0x28, 0x39, 0x11, 0xF8, 0xFB, 0xBC, 0xCC, 0x14, 0x31, 0xF4, 0xD3, 0x03,
    0xEB, 0xE1, 0x75, 0x40, 0x25, 0x88, 0x02, 0xFE, 0x7B, 0x4D, 0x10, 0x03,
    0xE7, 0x02, 0xC7, 0x47, 0x04, 0xAD, 0xBA, 0x38, 0x13, 0x2C, 0x09, 0xBF,
    0x7F, 0x10, 0xFF, 0xFE, 0x84, 0x0C, 0xD8, 0x52, 0xFE, 0xD2, 0xAE, 0x3F,
    0xDF, 0x09, 0x1F, 0x8F, 0x76, 0x19, 0x08, 0xB9, 0xB4, 0x14, 0xE1, 0x05,
    0xC6, 0xFA, 0xDC, 0xE9, 0xDE, 0xF6, 0xCA, 0xA1, 0x7F, 0xE0, 0xD3, 0xE5,
    0xFC, 0x1A, 0xDF, 0xA2, 0x9F, 0xDC, 0x2C, 0xAC, 0xE3, 0xD9, 0x04, 0x8D,
    0x13, 0x30, 0x09, 0xDB, 0x3A, 0xC9, 0x19, 0x02, 0x30, 0xEE, 0x39, 0xB1,
    0x29, 0x0B, 0x32, 0x4A, 0x63, 0x03, 0xCB, 0x76, 0x23, 0x1F, 0x40, 0x2E,
    0xFB, 0xE4, 0x72, 0xC8, 0x30, 0x2F, 0xDB, 0x1C, 0xFE, 0xFF, 0xEE, 0x40,
    0xF9, 0xAC, 0xED, 0x39, 0x34, 0x59, 0x1F, 0x11, 0x21, 0x07, 0x15, 0x2F,
    0x4A, 0x12, 0x2B, 0xE6, 0xB8, 0x20, 0xAC, 0x05, 0xDB, 0xC8, 0xCD, 0x47,
    0x3C, 0xFA, 0x53, 0xFE, 0x5B, 0xE5, 0xD0, 0x0C, 0x16, 0x0D, 0x17, 0xDA,
    0x8C, 0xA8, 0x41, 0x3A, 0x0D, 0xA6, 0xB4, 0xFB, 0x1B, 0x0E, 0xD3, 0x01,
    0x19, 0xAE, 0xC9, 0xE1, 0xFD, 0xD3, 0xEB, 0x07, 0xF7, 0x2B, 0x3F, 0xD9,
    0x67, 0xC1, 0xEB, 0x08, 0x47, 0x1E, 0xF1, 0xC6, 0xCE, 0xF9, 0x7F, 0xB1,
    0x26, 0xE3, 0xDB, 0x0E, 0x0F, 0x26, 0x08, 0x74, 0x19, 0xC6, 0x3F, 0xF6,
    0x44, 0x37, 0x4E, 0xF2, 0xDE, 0xF5, 0x06, 0x28, 0x3B, 0xE1, 0xB5, 0x3B,
    0xC6, 0xF1, 0xDA, 0x9C, 0xAE, 0x18, 0x1D, 0x27, 0x38, 0x1E, 0xDB, 0xF9,
    0x63, 0x85, 0x86, 0x2F, 0xC1, 0xE5, 0xA6, 0x81, 0xDA, 0xCC, 0x24, 0x15,
    0xFE, 0x10, 0x40, 0xAE, 0x04, 0x17, 0xDD, 0xD5, 0xDE, 0xFD, 0xB0, 0xD2,
    0x0E, 0xE3, 0x43, 0x24, 0xC4, 0xFD, 0x0F, 0x01, 0x62, 0x3E, 0x2E, 0xFD,
    0xF9, 0x0E, 0xFC, 0xFC, 0x47, 0xF8, 0x9B, 0x0E, 0x31, 0x5B, 0x03, 0xC7,
    0x72, 0x31, 0x1A, 0x16, 0x2F, 0x41, 0xF4, 0x63, 0x0D, 0xD9, 0xE0, 0x02,
    0x12, 0x49, 0xE6, 0x18, 0xC9, 0x22, 0x30, 0xD2, 0x19, 0x05, 0x56, 0xD1,
    0x2F, 0x26, 0xB2, 0xB8, 0xEC, 0xDC, 0xE6, 0xD9, 0x9A, 0xD2, 0xDA, 0xB4,
    0x13, 0xE2, 0x1E, 0xF9, 0x15, 0x2D, 0xA4, 0xB7, 0x0C, 0xFC, 0xE6, 0xF9,
    0xBC, 0xE9, 0xFA, 0xB4, 0xEB, 0xF8, 0x11, 0x1A, 0x05, 0xF5, 0xD9, 0x01,
    0xF0, 0x0F, 0x81, 0xD5, 0x9D, 0xC9, 0x1C, 0x08, 0x09, 0xF6, 0x2A, 0x0A,
    0xFF, 0xF8, 0xDB, 0xF0, 0xE0, 0x0A, 0xD5, 0x3E, 0xFE, 0x08, 0x2C, 0x08,
    0x24, 0xB2, 0xF3, 0xD8, 0xDA, 0x0C, 0x12, 0xED, 0x29, 0x4E, 0x47, 0x0E,
    0xDE, 0xCF, 0xAB, 0x18, 0xEC, 0xBC, 0x0B, 0xE0, 0xCF, 0xBD, 0xDD, 0x21,
    0x23, 0x14, 0xD1, 0xED, 0xF3, 0xBF, 0xC8, 0xCC, 0xE8, 0xC9, 0xF9, 0x01,
    0x93, 0x9A, 0xED, 0x3F, 0xFF, 0xF6, 0x29, 0x14, 0x17, 0x09, 0x81, 0xDB,
    0xC1, 0xD3, 0x22, 0xED, 0xC5, 0x88, 0x0B, 0xEF, 0xD2, 0xD8, 0x0B, 0x11,
    0x0B, 0xCB, 0x9D, 0xF9, 0xED, 0x12, 0xFE, 0xE0, 0xB6, 0xC0, 0xD9, 0xFA,
    0x28, 0x12, 0x1E, 0xDB, 0xDA, 0x96, 0x92, 0xBC, 0x0B, 0xE3, 0x1B, 0xDA,
    0xAE, 0x9F, 0x31, 0xEB, 0xE8, 0xEB, 0x05, 0x00, 0xDA, 0xD0, 0xB9, 0x16,
    0xCD, 0x81, 0xE4, 0xD5, 0x03, 0xFD, 0xFD, 0x29, 0x24, 0xE5, 0xF1, 0x30,
    0x0A, 0xD0, 0x00, 0x0D, 0xCE, 0xDD, 0xEB, 0xFD, 0xB4, 0xC4, 0xD2, 0x35,
    0xF9, 0x16, 0x2A, 0xD8, 0xFB, 0xDD, 0xF1, 0xD1, 0xCF, 0x25, 0xFC, 0x01,
    0xCC, 0xEF, 0xEA, 0x33, 0xDA, 0x19, 0xBD, 0x08, 0x0E, 0xFD, 0xE7, 0xCC,
    0xD7, 0xF5, 0xE4, 0xE0, 0xD0, 0x95, 0x17, 0xEC, 0x16, 0xEA, 0x09, 0xEA,
    0x0B, 0x01, 0xAE, 0xD3, 0x30, 0xEE, 0x0D, 0x09, 0xDF, 0xBC, 0x33, 0xE8,
    0x0A, 0x02, 0x0C, 0x33, 0xB1, 0xE1, 0x05, 0x08, 0x00, 0xBE, 0xD4, 0xF0,
    0x00, 0x19, 0xE8, 0xF1, 0xD9, 0xC0, 0x2F, 0xEB, 0xB1, 0xC3, 0xEF, 0x1E,
    0xDA, 0xD7, 0xFD, 0xD8, 0x1B, 0x37, 0xDF, 0x03, 0xE8, 0xDD, 0x3C, 0xF3,
    0x30, 0xE1, 0x2B, 0x0F, 0x0D, 0x05, 0x1E, 0xF3, 0x03, 0xCA, 0xEE, 0x14,
    0xDB, 0xE2, 0x1B, 0x17, 0x3A, 0xD0, 0xFB, 0xD1, 0xFC, 0x07, 0x08, 0xE0,
    0xFD, 0xFA, 0x0B, 0x28, 0x17, 0x36, 0x24, 0x1C, 0x13, 0xF6, 0x07, 0xF9,
    0xEB, 0x3E, 0x02, 0xE0, 0x0E, 0xEE, 0xE7, 0x7F, 0x0A, 0x50, 0x23, 0x26,
    0xEE, 0xD9, 0x26, 0x07, 0xF4, 0xF1, 0x90, 0xB4, 0xDE, 0x59, 0xCF, 0x39,
    0x3D, 0x2D, 0xFF, 0x34, 0x30, 0x1F, 0x3F, 0x2E, 0x20, 0xF2, 0x00, 0xE0,
    0xAA, 0xE1, 0x15, 0x28, 0xDC, 0x85, 0x25, 0xA1, 0x4D, 0x60, 0x4B, 0x4B,
    0xB9, 0x07, 0xFB, 0x0E, 0xEE, 0xAB, 0xCA, 0x11, 0x1F, 0x5D, 0x0F, 0xE2,
    0x5A, 0xDB, 0xEC, 0x06, 0xD4, 0xDE, 0x1E, 0x1E, 0xEC, 0xEF, 0x10, 0xEF,
    0xD2, 0xEE, 0x0C, 0xFC, 0x04, 0x4D, 0x09, 0x35, 0xF4, 0x0C, 0xDF, 0xD5,
    0xB0, 0xE9, 0x6A, 0x85, 0x11, 0xE8, 0xCE, 0x7F, 0xFF, 0xB5, 0xB5, 0xED,
    0xFA, 0xB5, 0x16, 0xFE, 0xC9, 0xBC, 0xE8, 0x0E, 0x11, 0xE4, 0x19, 0x08,
    0x0A, 0xC8, 0xA7, 0xDB, 0xBE, 0xE5, 0x24, 0xF8, 0xA9, 0xF7, 0x17, 0x2D,
    0xFA, 0x01, 0x22, 0x1B, 0xF1, 0xDC, 0xC8, 0xDA, 0xFF, 0xC5, 0xF1, 0xF2,
    0x81, 0xB6, 0xF6, 0x2D, 0xE9, 0xF8, 0x0C, 0x1C, 0x19, 0x0C, 0xDD, 0xEC,
    0xE3, 0xE6, 0xF5, 0xF7, 0xEF, 0xA8, 0xCF, 0xE2, 0x17, 0xF9, 0xE6, 0x21,
    0xDB, 0xB9, 0xCC, 0xD8, 0x0F, 0x15, 0x13, 0xDB, 0xD9, 0xC0, 0x27, 0x01,
    0xDB, 0xD1, 0x0E, 0x09, 0x96, 0xD7, 0x22, 0x86, 0x00, 0xC7, 0x16, 0x07,
    0x10, 0x06, 0xF8, 0x13, 0xBA, 0x0F, 0xAE, 0x15, 0x81, 0xFE, 0xEC, 0xB1,
    0x0C, 0xB4, 0x0E, 0xE8, 0xF8, 0xF1, 0xEF, 0xD3, 0xF3, 0xFE, 0x8E, 0x02,
    0x9B, 0xFC, 0xDF, 0xEC, 0xFC, 0xE0, 0x06, 0x0F, 0x03, 0x37, 0xE0, 0xF4,
    0x03, 0xE9, 0xC5, 0xE4, 0xEA, 0x00, 0xFA, 0x00, 0xFD, 0xD1, 0x25, 0xD3,
    0xBF, 0xDF, 0xCA, 0xE3, 0x05, 0xEA, 0xFB, 0x21, 0x04, 0xFF, 0x10, 0x2B,
    0x24, 0xF5, 0xE2, 0xF6, 0xE6, 0x15, 0x05, 0x11, 0x12, 0x41, 0x3C, 0x28,
    0x90, 0xCC, 0xCC, 0x03, 0xFE, 0x0E, 0xE2, 0x1E, 0x56, 0xA4, 0xFF, 0x0B,
    0xD1, 0xCA, 0xE7, 0x0C, 0x41, 0x3B, 0xED, 0x0D, 0xBF, 0xE6, 0xA3, 0x2D,
    0x07, 0x81, 0x9B, 0x03, 0x0F, 0x10, 0x13, 0xB8, 0x1A, 0xD4, 0x40, 0xCE,
    0xBC, 0x0B, 0x1A, 0xDA, 0x0E, 0xAC, 0xE5, 0x08, 0xE3, 0x1E, 0xEE, 0xC5,
    0x2F, 0x06, 0xDF, 0xCD, 0x0E, 0x12, 0x0E, 0x00, 0xB2, 0x0B, 0x59, 0xAF,
    0xE6, 0xDF, 0x0F, 0xE2, 0x2C, 0xF1, 0xBD, 0x41, 0xEA, 0x14, 0xBA, 0xEA,
    0xC8, 0x07, 0x57, 0x0A, 0x36, 0x00, 0xEC, 0x39, 0x42, 0xF3, 0x07, 0xE0,
    0xE2, 0x2A, 0xD0, 0x18, 0xEF, 0xEB, 0x06, 0x03, 0xD2, 0xF8, 0xFA, 0xFE,
    0x2C, 0x08, 0xC3, 0xF2, 0xD8, 0x09, 0xF0, 0x1B, 0x98, 0x9F, 0x2E, 0x09,
    0xEE, 0x81, 0xE1, 0x12, 0x4A, 0x02, 0xE8, 0x1F, 0x0E, 0xCB, 0xA4, 0xB8,
    0xE4, 0xF3, 0xD4, 0x43, 0xD3, 0x2A, 0x46, 0xFE, 0x24, 0x94, 0xB7, 0x2D,
    0x1C, 0xED, 0x22, 0xC1, 0x1F, 0x03, 0xCB, 0x45, 0x32, 0xEA, 0x16, 0xF0,
    0x26, 0xE0, 0xE6, 0x21, 0x29, 0xD7, 0x05, 0x00, 0xEB, 0x29, 0xDC, 0x41,
    0xDF, 0xB1, 0xE4, 0xDF, 0xAE, 0xE1, 0xFF, 0xFF, 0x04, 0x00, 0x00, 0x00,
    0x80, 0x00, 0x00, 0x00, 0x37, 0xFE, 0xFF, 0xFF, 0x3A, 0xFD, 0xFF, 0xFF,
    0x38, 0x00, 0x00, 0x00, 0x17, 0xFF, 0xFF, 0xFF, 0x7B, 0xFD, 0xFF, 0xFF,
    0xB1, 0xFF, 0xFF, 0xFF, 0xE6, 0xFE, 0xFF, 0xFF, 0x35, 0x00, 0x00, 0x00,
    0x3D, 0xFD, 0xFF, 0xFF, 0x7C, 0x00, 0x00, 0x00, 0x44, 0xFF, 0xFF, 0xFF,
    0xAC, 0xFF, 0xFF, 0xFF, 0x54, 0xFF, 0xFF, 0xFF, 0xA6, 0xFE, 0xFF, 0xFF,
    0x85, 0xFF, 0xFF, 0xFF, 0x69, 0x00, 0x00, 0x00, 0x0C, 0x00, 0x00, 0x00,
    0x8A, 0x00, 0x00, 0x00, 0x9A, 0x01, 0x00, 0x00, 0xB3, 0xFF, 0xFF, 0xFF,
    0xCD, 0xFF, 0xFF, 0xFF, 0x55, 0x01, 0x00, 0x00, 0xAD, 0xFF, 0xFF, 0xFF,
    0x4B, 0xFF, 0xFF, 0xFF, 0x30, 0xFE, 0xFF, 0xFF, 0xF3, 0xFF, 0xFF, 0xFF,
    0xEE, 0xFE, 0xFF, 0xFF, 0x8D, 0x00, 0x00, 0x00, 0x00, 0xFE, 0xFF, 0xFF,
    0x2F, 0xFD, 0xFF, 0xFF, 0xCB, 0x00, 0x00, 0x00, 0x21, 0x01, 0x00, 0x00,
    0x3A, 0xE2, 0xFF, 0xFF, 0x04, 0x00, 0x00, 0x00, 0x20, 0x00, 0x00, 0x00,
    0xEC, 0xE4, 0xA8, 0xAC, 0x63, 0xDF, 0xA6, 0xDD, 0x7F, 0xCE, 0xA8, 0x3D,
    0x18, 0xEA, 0xFB, 0xBF, 0xB5, 0xB2, 0xC1, 0xC1, 0xBB, 0xBE, 0xC4, 0xD0,
    0x1E, 0x1B, 0xC4, 0xB5, 0x44, 0x10, 0xD7, 0xE8, 0x66, 0xE2, 0xFF, 0xFF,
    0x04, 0x00, 0x00, 0x00, 0x20, 0x00, 0x00, 0x00, 0x35, 0x03, 0x0B, 0xC9,
    0x06, 0x30, 0xE0, 0x80, 0x43, 0xAD, 0x57, 0x27, 0xFD, 0x7C, 0x9D, 0xCD,
    0x07, 0xDA, 0xFC, 0x34, 0xFF, 0xC2, 0xDA, 0xD2, 0x33, 0x28, 0x12, 0x20,
    0xFC, 0xB6, 0x25, 0x16, 0x92, 0xE2, 0xFF, 0xFF, 0x04, 0x00, 0x00, 0x00,
    0x00, 0x14, 0x00, 0x00, 0xF7, 0xB8, 0x0A, 0xD5, 0xEB, 0x18, 0xE7, 0x01,
    0xF4, 0xE1, 0xF5, 0xB7, 0xD2, 0xE2, 0xFF, 0xE3, 0x30, 0x0E, 0x06, 0xFC,
    0xD7, 0xF1, 0xF2, 0xD3, 0xD2, 0x1B, 0xD5, 0xEB, 0xE3, 0xCF, 0xD7, 0xFD,
    0xA8, 0x02, 0xEB, 0xE1, 0x01, 0x03, 0xD1, 0x10, 0xDB, 0x22, 0x26, 0xD3,
    0xBE, 0xE3, 0xD5, 0xE6, 0xE0, 0xA2, 0xD5, 0xD2, 0x01, 0x81, 0xD7, 0x12,
    0xAE, 0xFB, 0xC5, 0xB9, 0xE3, 0xFB, 0x20, 0xBE, 0xAD, 0xEA, 0xD3, 0x32,
    0xD7, 0xEF, 0x19, 0x3C, 0xE0, 0x09, 0x04, 0xC1, 0xE0, 0xC9, 0x24, 0x9A,
    0xA1, 0xAF, 0xA5, 0xC6, 0xC4, 0xB6, 0xAC, 0x06, 0xF3, 0xC8, 0xFB, 0xB7,
    0x91, 0xF2, 0x0E, 0xE5, 0xE2, 0xF5, 0xD5, 0xFB, 0xCA, 0xE6, 0xCE, 0x47,
    0xF3, 0x0A, 0xDF, 0xCC, 0xC7, 0x1F, 0x2F, 0xC5, 0xFC, 0xE3, 0xDF, 0xDF,
    0xDA, 0xC7, 0xDE, 0x00, 0xF1, 0xBD, 0xF9, 0xE3, 0xE3, 0x2A, 0xC1, 0xF5,
    0xEC, 0xE4, 0xBE, 0x04, 0xE1, 0x06, 0x2C, 0xF2, 0xD3, 0x46, 0xE1, 0xDE,
    0xFE, 0x2D, 0x09, 0x9A, 0x17, 0xD8, 0xF4, 0xE9, 0xEC, 0xFB, 0xC7, 0x22,
    0xD5, 0xEF, 0x26, 0xEF, 0xE8, 0x04, 0xEF, 0xFE, 0xD5, 0xA5, 0xC1, 0xB8,
    0x27, 0xB5, 0xE4, 0xEC, 0xCD, 0xBE, 0x08, 0x29, 0x2F, 0xA0, 0xF8, 0x3D,
    0xD5, 0xCB, 0xE5, 0x0D, 0x0B, 0x41, 0x3C, 0xD9, 0x02, 0x10, 0xF9, 0x07,
    0x49, 0x81, 0x22, 0x22, 0x02, 0xBE, 0x0E, 0xCD, 0xE6, 0xF8, 0xC9, 0xD4,
    0xDB, 0xE9, 0xF4, 0xC5, 0x2D, 0xC5, 0xBA, 0x41, 0xE2, 0x2A, 0x1A, 0xD4,
    0x46, 0x52, 0x24, 0xBD, 0xC5, 0xEB, 0xC4, 0xC6, 0xDF, 0xEA, 0xCE, 0x56,
    0x28, 0xF3, 0x32, 0xDF, 0x19, 0x09, 0x0F, 0xBA, 0xF6, 0xD5, 0x10, 0xFD,
    0x11, 0x29, 0xE3, 0x23, 0xED, 0x08, 0xFD, 0xF1, 0x48, 0x36, 0x2B, 0xD4,
    0xCB, 0xE3, 0x01, 0xCE, 0xD6, 0xEA, 0x18, 0x15, 0xBA, 0x17, 0xFC, 0x2F,
    0xDE, 0x12, 0x23, 0xDF, 0xB7, 0xB5, 0xFC, 0x27, 0xF7, 0x11, 0x8D, 0xF4,
    0x3E, 0x31, 0xD4, 0x4B, 0xCA, 0x0A, 0x20, 0x08, 0x38, 0xE6, 0x0D, 0x1B,
    0x37, 0xEB, 0xE4, 0x24, 0x2B, 0x10, 0xC1, 0x0D, 0x03, 0xC6, 0x26, 0xEA,
    0x54, 0xC5, 0x11, 0x02, 0xEF, 0xF1, 0xD0, 0x19, 0xCB, 0x0A, 0xD2, 0x25,
    0x30, 0xF5, 0x20, 0x12, 0xF9, 0x27, 0x04, 0x4C, 0xEA, 0x10, 0x26, 0xDF,
    0xD0, 0x8E, 0xF9, 0xCE, 0x3D, 0x12, 0xC9, 0xB1, 0xD0, 0xBB, 0x81, 0x55,
    0x48, 0xEF, 0xD9, 0xE4, 0x0D, 0x2D, 0xF9, 0xDD, 0xBB, 0x1B, 0x09, 0x96,
    0x07, 0x23, 0x10, 0x1F, 0x47, 0xBB, 0xED, 0x0D, 0x19, 0xAC, 0xEE, 0xDD,
    0x0C, 0xEE, 0x0A, 0xB8, 0xEE, 0xCC, 0x1E, 0xB0, 0x4B, 0xC5, 0xC7, 0x18,
    0xC6, 0xE5, 0xF2, 0xFA, 0x3E, 0x39, 0x39, 0xBF, 0xF6, 0x2C, 0xC8, 0xC9,
    0xD1, 0xB1, 0x41, 0x4A, 0xC0, 0xF1, 0x41, 0xC6, 0xDE, 0x47, 0xCA, 0x9A,
    0xF0, 0xE1, 0xDE, 0x45, 0x20, 0xE6, 0x9A, 0x36, 0xF2, 0x39, 0x2C, 0xCE,
    0x4D, 0xD7, 0x29, 0xC4, 0x2F, 0xAB, 0x06, 0xEA, 0xFC, 0xEC, 0xC0, 0x47,
    0x30, 0x00, 0x19, 0x2C, 0x37, 0xFC, 0xCE, 0xEE, 0xCA, 0xD6, 0xEB, 0xE5,
    0xD8, 0xFC, 0x99, 0xB8, 0x1A, 0xE9, 0xC3, 0x03, 0x0A, 0xFF, 0x5B, 0x35,
    0x12, 0xCB, 0x0F, 0x17, 0xE9, 0xE5, 0x05, 0xFD, 0xC6, 0x06, 0x14, 0xF4,
    0x29, 0x08, 0x3F, 0xF4, 0x19, 0x98, 0x12, 0x03, 0x25, 0xFC, 0xC9, 0x18,
    0x20, 0x2A, 0xBC, 0x09, 0xF2, 0x1A, 0x5C, 0x61, 0x2C, 0x17, 0x2D, 0x65,
    0xE8, 0xFD, 0x58, 0xEA, 0x23, 0xCE, 0x04, 0xDF, 0xD6, 0x1A, 0xFE, 0x01,
    0xF7, 0xAD, 0xAE, 0x0D, 0x45, 0x07, 0xC3, 0xFA, 0x23, 0xEF, 0xFB, 0x59,
    0x21, 0x34, 0x6B, 0xBA, 0xBD, 0xE9, 0x05, 0xB0, 0xE3, 0xB8, 0x28, 0xEA,
    0xC0, 0xA3, 0x0A, 0x8E, 0x34, 0xD0, 0x40, 0xDC, 0x03, 0x8C, 0xD6, 0x14,
    0xEF, 0x19, 0xD3, 0x4E, 0x1F, 0xFB, 0xE1, 0x16, 0xEA, 0xEB, 0x69, 0x2C,
    0x3E, 0x1F, 0x35, 0x4F, 0x1B, 0xAC, 0x76, 0xE9, 0xF8, 0xC5, 0xD3, 0xF0,
    0xEC, 0x05, 0x0E, 0xAE, 0xF8, 0x19, 0x5F, 0xA3, 0xF4, 0xD8, 0xC6, 0x7C,
    0xD4, 0x6B, 0xE2, 0xC2, 0x6B, 0x67, 0xC4, 0x19, 0xEC, 0xEE, 0xF2, 0x0E,
    0xEC, 0xE3, 0x62, 0x38, 0xF9, 0xCE, 0x32, 0x15, 0xEB, 0x1D, 0xE9, 0x01,
    0x09, 0x31, 0xB2, 0x2E, 0xE7, 0x2A, 0xDD, 0xE0, 0xD4, 0xFD, 0x3D, 0x38,
    0xF3, 0xF1, 0xD5, 0xEB, 0x13, 0xB2, 0xBC, 0x2A, 0x30, 0xF4, 0x9C, 0x24,
    0x1E, 0xF8, 0x3B, 0x0E, 0x39, 0x57, 0xC1, 0x29, 0x17, 0x96, 0xF6, 0xE1,
    0x46, 0x60, 0xCD, 0x3C, 0x21, 0x17, 0x22, 0x7F, 0xEF, 0xDF, 0x54, 0xD5,
    0x2E, 0xF8, 0x3D, 0xFB, 0x14, 0xEF, 0x01, 0xD1, 0xF9, 0xEE, 0x00, 0xF9,
    0xE6, 0x06, 0xF2, 0x9A, 0xF8, 0xC7, 0xF6, 0x3E, 0x4B, 0xF8, 0xE4, 0xFF,
    0x1D, 0xFF, 0xEC, 0xC6, 0x04, 0x17, 0x18, 0x96, 0xEE, 0x0F, 0xEB, 0x29,
    0xF5, 0x9D, 0xFC, 0x16, 0xFD, 0xC9, 0x0D, 0xB6, 0x29, 0x31, 0xE4, 0xFE,
    0xF8, 0xF4, 0xA3, 0x2F, 0x2A, 0xBA, 0xCE, 0x0F, 0x23, 0x11, 0xC5, 0x0F,
    0xE9, 0x03, 0x1D, 0xC3, 0xDB, 0x16, 0xD2, 0x22, 0x14, 0x81, 0xB0, 0x22,
    0xCE, 0xDA, 0x28, 0xBB, 0x06, 0xEB, 0x12, 0xAE, 0xE7, 0xCA, 0xB6, 0x2C,
    0x31, 0x10, 0x88, 0xC3, 0xF4, 0x2E, 0x05, 0x36, 0xCC, 0xD3, 0x53, 0x01,
    0xF9, 0x3A, 0x1F, 0xCE, 0xEA, 0xFD, 0xCB, 0xCB, 0x29, 0xC9, 0xE1, 0xFB,
    0x16, 0xC0, 0x18, 0xF1, 0xC6, 0xED, 0x24, 0xE4, 0xE7, 0x13, 0xDD, 0x3B,
    0x13, 0xF3, 0xD6, 0xCF, 0x04, 0x43, 0x0E, 0x12, 0x15, 0x2D, 0x0F, 0x0F,
    0xFB, 0xCA, 0x67, 0xF4, 0x02, 0x10, 0x02, 0x20, 0x0C, 0x47, 0x09, 0xC6,
    0x3B, 0xF2, 0x2C, 0xDA, 0xDE, 0xF0, 0x9A, 0x35, 0xF6, 0xF7, 0xD4, 0x2E,
    0x50, 0x4B, 0x36, 0x0B, 0x0D, 0xE8, 0xFB, 0x23, 0xB9, 0x2D, 0xE3, 0x43,
    0xF1, 0xC8, 0xE3, 0xD9, 0x3E, 0x05, 0xD2, 0xE9, 0x07, 0xE9, 0x07, 0x17,
    0x2D, 0xB6, 0xC7, 0x35, 0xDE, 0xFC, 0xFD, 0xFD, 0xE6, 0x31, 0xDC, 0xD5,
    0xFD, 0xFA, 0xAB, 0x15, 0xF2, 0x81, 0x14, 0xF3, 0x0F, 0xCD, 0x1C, 0xE0,
    0x18, 0x20, 0xD7, 0xD6, 0xE5, 0x06, 0xF7, 0xE3, 0xE5, 0xF7, 0xDC, 0x25,
    0xEA, 0x0B, 0x0F, 0xEA, 0x0F, 0x25, 0x20, 0xA5, 0xFD, 0xFE, 0xFC, 0x01,
    0x05, 0x96, 0xCD, 0x24, 0xC8, 0xC6, 0x28, 0xE3, 0x25, 0x0C, 0xF4, 0xBE,
    0xFB, 0xBB, 0xE9, 0xDF, 0x2B, 0x20, 0xE0, 0xED, 0x14, 0x0A, 0x3D, 0xF4,
    0xF0, 0xEA, 0x3E, 0xD2, 0xEF, 0xF5, 0x12, 0xE1, 0x28, 0xD4, 0x12, 0x0A,
    0xDE, 0x02, 0x24, 0xED, 0xFF, 0xE5, 0x28, 0xD9, 0xD9, 0xC5, 0x00, 0xE1,
    0xEE, 0xF8, 0xC8, 0x18, 0x02, 0x0B, 0xED, 0x0B, 0x1A, 0x45, 0x29, 0x12,
    0xF7, 0xFB, 0xEC, 0x2C, 0xDA, 0x19, 0x0B, 0xDF, 0x41, 0xEA, 0x0E, 0x09,
    0xEB, 0xE8, 0x2A, 0xC8, 0x06, 0xE4, 0x19, 0xF4, 0x01, 0x1A, 0x97, 0x32,
    0x14, 0x11, 0x09, 0xF2, 0x37, 0xF3, 0xFC, 0x2B, 0xE7, 0xE1, 0x0A, 0x11,
    0x12, 0xF6, 0x14, 0x05, 0xC1, 0xF8, 0xE2, 0x29, 0xD5, 0xBA, 0xF4, 0x0D,
    0xD2, 0x25, 0xF5, 0xFF, 0xFF, 0xE2, 0xFD, 0xF7, 0xA5, 0xE4, 0xE5, 0xE5,
    0xDE, 0xB8, 0xC1, 0xF8, 0xCC, 0xB6, 0x47, 0xCC, 0xC8, 0x00, 0xD3, 0xD6,
    0xE0, 0xE9, 0xE6, 0x1F, 0xF3, 0xF2, 0x2D, 0xEF, 0x2D, 0x38, 0xF6, 0xA0,
    0xC0, 0xBB, 0x37, 0x98, 0xC3, 0xA6, 0xF1, 0x82, 0xD2, 0x81, 0xE7, 0x21,
    0xD5, 0xDF, 0x09, 0xB3, 0xB2, 0xDA, 0xE8, 0xD2, 0xF6, 0xEE, 0xC3, 0x1E,
    0xC8, 0xF9, 0x43, 0xC7, 0xDF, 0xD5, 0xF1, 0x20, 0x1B, 0xBD, 0x0B, 0xB3,
    0xDE, 0x0D, 0xE8, 0xBE, 0x18, 0xF4, 0xCB, 0x28, 0x9D, 0xE4, 0x29, 0xE6,
    0xB4, 0x47, 0xCD, 0x29, 0x23, 0xF9, 0x13, 0x04, 0x2A, 0xEC, 0x3F, 0x05,
    0x09, 0x12, 0xF3, 0x07, 0xF6, 0xE2, 0x0D, 0xCD, 0xD4, 0x08, 0x26, 0x0D,
    0x27, 0x19, 0x07, 0xD7, 0x53, 0x10, 0x17, 0xF3, 0xF2, 0xF3, 0xEA, 0x2B,
    0x1D, 0xCB, 0x0D, 0xFC, 0x41, 0x3A, 0x15, 0xB7, 0x19, 0x0D, 0x08, 0x30,
    0x40, 0x94, 0x1C, 0xFD, 0x2C, 0x00, 0x61, 0x18, 0x56, 0x23, 0x61, 0x23,
    0x2D, 0x51, 0x41, 0x34, 0x46, 0xFE, 0x28, 0x10, 0x1A, 0x0F, 0x10, 0x0A,
    0x67, 0xDE, 0x32, 0xF6, 0x7A, 0x56, 0xFA, 0x22, 0x23, 0xE8, 0x5D, 0xD7,
    0xF3, 0xE1, 0x1A, 0x17, 0x22, 0x0D, 0xF2, 0x67, 0x54, 0x04, 0x23, 0x09,
    0x7F, 0x22, 0xB6, 0xA3, 0x16, 0xE7, 0x12, 0x02, 0x0E, 0xEA, 0x14, 0xC4,
    0x1C, 0xE1, 0xCD, 0xFA, 0x38, 0x27, 0xF2, 0xFA, 0x38, 0x17, 0xE7, 0xF7,
    0xE3, 0xD8, 0x16, 0x23, 0x19, 0xFF, 0x3F, 0x0A, 0x41, 0x1F, 0xFB, 0xCA,
    0x0A, 0xD3, 0xE4, 0xF7, 0x1A, 0xD0, 0xFD, 0xF8, 0xDC, 0xFF, 0xCE, 0xD8,
    0xF8, 0xFA, 0x21, 0x24, 0xF0, 0x13, 0xC6, 0x13, 0x1D, 0xDD, 0xE1, 0xF4,
    0x24, 0xBC, 0xEB, 0xE4, 0xEE, 0xFF, 0x02, 0xF0, 0x13, 0xF6, 0xD5, 0xDA,
    0xE4, 0xC2, 0xE8, 0xD7, 0xD5, 0x40, 0xC3, 0xED, 0xFE, 0xBD, 0xF0, 0xEC,
    0xEF, 0xB7, 0xD4, 0xC8, 0xCA, 0xE6, 0xE2, 0xEE, 0xEE, 0x01, 0xD1, 0x15,
    0x25, 0xFA, 0x91, 0xF4, 0x11, 0xDC, 0xDC, 0x0B, 0x08, 0x99, 0xD8, 0xED,
    0xFA, 0x26, 0xD9, 0xD4, 0x0B, 0x9A, 0x36, 0xC1, 0xAF, 0xE3, 0xD9, 0x9D,
    0x99, 0xBB, 0xF0, 0xE1, 0x19, 0xBD, 0x06, 0xD0, 0xEA, 0xBB, 0xE3, 0xB1,
    0x2B, 0x15, 0xFE, 0xEA, 0x5C, 0x06, 0xEE, 0x02, 0x65, 0x12, 0x01, 0x20,
    0xEF, 0xF2, 0x16, 0x03, 0x0E, 0xFC, 0xD9, 0x12, 0x14, 0x04, 0x01, 0x13,
    0x16, 0xD4, 0x3A, 0xC9, 0x70, 0x20, 0x21, 0xF2, 0x2C, 0x28, 0x24, 0x0B,
    0x54, 0xF7, 0xCB, 0xE8, 0x0B, 0x31, 0xEF, 0x06, 0x09, 0xDF, 0x15, 0x0F,
    0xD1, 0x11, 0xED, 0xE4, 0xE5, 0xDE, 0x3B, 0x3F, 0x5E, 0xD8, 0x3A, 0x0E,
    0x68, 0x4D, 0x08, 0x06, 0x16, 0x30, 0x07, 0x01, 0x7F, 0xEB, 0xC1, 0xE8,
    0x1C, 0x0A, 0xDA, 0xFC, 0x16, 0xF7, 0x01, 0xFE, 0x07, 0xE8, 0x10, 0x0A,
    0x15, 0x14, 0xFA, 0xF0, 0x0F, 0xE9, 0xF8, 0x0F, 0x5D, 0x23, 0xE3, 0x0B,
    0x0C, 0x2A, 0xE5, 0xF5, 0x27, 0xDF, 0xBF, 0xF5, 0x24, 0xF9, 0xA6, 0x0F,
    0xEF, 0x00, 0xED, 0x02, 0x18, 0xF1, 0xFC, 0xEC, 0xED, 0x15, 0x14, 0xF5,
    0x11, 0xFD, 0x11, 0x04, 0x46, 0x24, 0xC9, 0xC9, 0x31, 0xFE, 0xBD, 0xE3,
    0x37, 0xF0, 0x94, 0xEF, 0x25, 0x09, 0xE2, 0xE8, 0x0C, 0xD1, 0xFD, 0xE0,
    0xFA, 0xF7, 0xF6, 0xE5, 0xDE, 0xFF, 0xE0, 0xF1, 0x16, 0xCF, 0x10, 0xE1,
    0x04, 0x17, 0xEA, 0xC0, 0xD1, 0xD7, 0xDB, 0xD0, 0x07, 0x38, 0xB3, 0xD5,
    0xA2, 0xFF, 0x29, 0xAE, 0xD5, 0xB0, 0xF4, 0xA2, 0xC0, 0x9B, 0x05, 0xEF,
    0xA4, 0xC6, 0x03, 0x33, 0x9F, 0xC8, 0xD7, 0x1C, 0xD6, 0x18, 0x13, 0xF6,
    0xCD, 0xB1, 0xAE, 0xCA, 0xBB, 0xC8, 0x11, 0x06, 0xB5, 0x18, 0xEF, 0x90,
    0xB1, 0x12, 0xC4, 0x9B, 0xB5, 0xA6, 0xE4, 0xC9, 0xC2, 0x81, 0xC6, 0x26,
    0xBE, 0xDD, 0x05, 0xE0, 0xF7, 0xF6, 0xD9, 0xCB, 0xEA, 0x3E, 0x11, 0x16,
    0x8E, 0xCC, 0x33, 0x06, 0xFA, 0x03, 0xE9, 0xA9, 0x07, 0xC7, 0x33, 0xC5,
    0xD1, 0x11, 0x87, 0x93, 0xCD, 0xD2, 0xE1, 0x26, 0xD9, 0xBB, 0xFE, 0xA8,
    0xDB, 0xC1, 0x39, 0xCD, 0x18, 0xDC, 0xF6, 0x05, 0xAE, 0xF5, 0xF1, 0x2C,
    0xE0, 0x1B, 0xD4, 0xAC, 0xF7, 0xED, 0x41, 0x8A, 0xAA, 0x93, 0xA1, 0xE8,
    0xBF, 0xB9, 0x02, 0x0C, 0xD1, 0xE9, 0x03, 0xA1, 0x19, 0xEB, 0x38, 0xD4,
    0x67, 0x1D, 0xCD, 0x17, 0xCC, 0xDC, 0x3C, 0x3D, 0xE1, 0x65, 0xDA, 0x3F,
    0x04, 0x34, 0xF0, 0xC2, 0x2A, 0xAA, 0xE5, 0xDF, 0x07, 0xE2, 0xA3, 0x1F,
    0x22, 0xF5, 0x34, 0xF9, 0xD3, 0xD1, 0x39, 0x1F, 0x4A, 0x1E, 0x0A, 0xDD,
    0x2F, 0xF6, 0x1B, 0x02, 0xF6, 0xE0, 0x12, 0x1D, 0x3D, 0x0D, 0x13, 0x1A,
    0xE4, 0x09, 0x12, 0xDF, 0x12, 0xFD, 0xDB, 0x2D, 0x56, 0x20, 0xF1, 0x0A,
    0x29, 0x04, 0x1D, 0xD6, 0x45, 0x19, 0xE6, 0x12, 0x6D, 0x14, 0xC9, 0xFE,
    0x03, 0x35, 0x00, 0xF9, 0x0E, 0x23, 0x12, 0x1B, 0xF5, 0xFE, 0x2A, 0x0A,
    0x0F, 0xFC, 0xF5, 0xF2, 0x3E, 0xD7, 0x2E, 0xF1, 0x4C, 0x2B, 0x00, 0x0F,
    0x16, 0x25, 0x2E, 0x24, 0x7F, 0x23, 0xC5, 0x15, 0x30, 0xED, 0xF0, 0x27,
    0x13, 0x04, 0x22, 0x0D, 0xF6, 0xFD, 0x29, 0x07, 0x0F, 0x14, 0xFF, 0x1F,
    0x07, 0x0E, 0x1C, 0xF4, 0x3C, 0x02, 0xFD, 0xEE, 0xE1, 0x09, 0xFD, 0x0B,
    0x7D, 0xFF, 0xED, 0xF9, 0x3A, 0x09, 0xD0, 0x33, 0x3D, 0x04, 0x1D, 0x01,
    0xF7, 0x0F, 0x12, 0xFB, 0x0F, 0xF4, 0xF3, 0xFF, 0x37, 0xEB, 0x39, 0xF6,
    0x4C, 0x1C, 0xEA, 0x18, 0xF0, 0x13, 0xE9, 0x00, 0x14, 0xED, 0x0E, 0xFA,
    0x37, 0xF9, 0xD0, 0xB7, 0xF5, 0x03, 0x1E, 0x1B, 0xF9, 0xF9, 0xE3, 0x00,
    0x1A, 0x1A, 0x06, 0x39, 0x35, 0x32, 0x1C, 0x1A, 0x19, 0x1F, 0x4A, 0xE0,
    0xC8, 0x9D, 0x10, 0xBA, 0xF3, 0xF7, 0xEC, 0xDD, 0xCC, 0xB7, 0xD2, 0x1B,
    0x3A, 0xC6, 0x02, 0x01, 0xFF, 0x08, 0x40, 0x08, 0x27, 0x41, 0xDC, 0xA0,
    0x2E, 0xE3, 0xAC, 0xE5, 0x24, 0xA0, 0xF7, 0xFE, 0xF9, 0xBA, 0xEE, 0xE6,
    0x0A, 0xD3, 0xB8, 0xD8, 0x07, 0xD1, 0x00, 0x03, 0x38, 0xB3, 0xCE, 0x15,
    0xCB, 0x15, 0xEA, 0x06, 0x39, 0x30, 0xE9, 0xBF, 0xDC, 0xFB, 0xB0, 0x06,
    0xEE, 0xAA, 0x17, 0x3E, 0x05, 0x0F, 0xD9, 0xF7, 0x19, 0x29, 0xC9, 0xCE,
    0xCB, 0x02, 0xC5, 0x24, 0xE0, 0xEB, 0x8F, 0x2C, 0xFF, 0xF8, 0x1C, 0xDD,
    0x0A, 0x0F, 0x49, 0xE2, 0xEE, 0xDE, 0xED, 0x2C, 0x10, 0xFC, 0xF0, 0x22,
    0xEC, 0xE8, 0xF5, 0x02, 0xFB, 0xE5, 0xED, 0xD6, 0x1B, 0xB9, 0x47, 0xCC,
    0x17, 0x35, 0xE6, 0x2E, 0x2E, 0x34, 0xDB, 0xE7, 0xCD, 0xE9, 0x4F, 0xEF,
    0xCD, 0x10, 0x02, 0xF3, 0xFC, 0xE5, 0x42, 0x1D, 0x16, 0xE5, 0x0F, 0x0D,
    0xD3, 0xF2, 0x4E, 0xD8, 0x29, 0x17, 0x18, 0xB2, 0xE9, 0xEB, 0x81, 0x59,
    0xFF, 0x26, 0x2C, 0x05, 0x51, 0x40, 0xFA, 0x4D, 0xFF, 0xF4, 0xFD, 0x4C,
    0xEE, 0xFF, 0x05, 0xDE, 0x55, 0x0D, 0xDC, 0x37, 0x66, 0xDE, 0xCD, 0xEF,
    0x2E, 0xF0, 0xEE, 0x0B, 0xDC, 0xF7, 0xE8, 0x31, 0x0C, 0xF9, 0x1B, 0x01,
    0xE2, 0x21, 0xE9, 0x21, 0xED, 0x13, 0x55, 0xD0, 0x14, 0x21, 0x07, 0xD3,
    0x5C, 0x25, 0x07, 0x24, 0x49, 0x1D, 0x13, 0x0B, 0x25, 0xFC, 0x1A, 0x21,
    0x31, 0x23, 0xEA, 0x02, 0xCC, 0x00, 0x0A, 0x07, 0xF8, 0xF6, 0x03, 0x47,
    0xFC, 0xC8, 0x37, 0x1F, 0x3D, 0x19, 0xD8, 0xEE, 0x4B, 0x4F, 0xD4, 0x37,
    0x7F, 0x02, 0xBE, 0x21, 0xEC, 0xC8, 0xC2, 0xF2, 0x1F, 0xD5, 0xC9, 0xF4,
    0xF1, 0xF9, 0x1C, 0xE3, 0xEE, 0x0A, 0x07, 0xF9, 0x40, 0x1E, 0x77, 0x0D,
    0x78, 0x36, 0x11, 0xE8, 0x2B, 0x1A, 0xFA, 0x18, 0x7B, 0xC4, 0x1D, 0x14,
    0x4A, 0x2E, 0xDD, 0xC0, 0x1F, 0x1C, 0x05, 0xFD, 0xD4, 0x23, 0xFC, 0xA5,
    0xE2, 0x0A, 0xF8, 0x39, 0x37, 0xD3, 0x11, 0x21, 0xFD, 0x4C, 0x24, 0xB6,
    0xF0, 0xE5, 0xD4, 0x00, 0xF4, 0x20, 0x13, 0xBB, 0xED, 0xE4, 0xC7, 0xB5,
    0xDB, 0xD3, 0x9F, 0xF1, 0xFE, 0x15, 0xF6, 0xE6, 0x12, 0xD8, 0x0B, 0xC3,
    0xCC, 0xC3, 0x19, 0xD0, 0xD2, 0xD4, 0xAB, 0x04, 0x34, 0xDC, 0x0B, 0xBE,
    0xEE, 0x10, 0xCD, 0xDE, 0xF9, 0x00, 0xEB, 0x0B, 0xFE, 0x10, 0xBD, 0xD5,
    0xE0, 0x28, 0x35, 0xF2, 0xFA, 0x01, 0x35, 0xE7, 0xF2, 0x1E, 0xB9, 0x1C,
    0x2E, 0x8E, 0xF3, 0x12, 0x06, 0x9E, 0x19, 0xBF, 0xEB, 0xE4, 0xF4, 0x03,
    0x3D, 0xA5, 0xCA, 0xCA, 0x08, 0xB9, 0xD0, 0x40, 0x13, 0x2D, 0xE6, 0x32,
    0xEA, 0x08, 0xFB, 0xE9, 0x02, 0xE7, 0x1D, 0x2A, 0x33, 0x9F, 0x14, 0x2B,
    0xD5, 0xC7, 0xE0, 0xEE, 0x1C, 0x0F, 0x10, 0xDC, 0xB1, 0xDA, 0x1D, 0x20,
    0x26, 0xE2, 0xAD, 0x02, 0x2F, 0xD2, 0xF2, 0xD6, 0xF7, 0x42, 0x2B, 0xB8,
    0x03, 0x24, 0x08, 0xEA, 0x22, 0xB2, 0x1F, 0x2E, 0xF9, 0xD8, 0x1C, 0xEA,
    0x08, 0x28, 0x0A, 0xFA, 0x21, 0x04, 0x21, 0xDD, 0xF7, 0xC8, 0x81, 0x27,
    0x16, 0x33, 0x3F, 0x45, 0x3D, 0xE8, 0x42, 0x16, 0xA8, 0xF4, 0x02, 0xC4,
    0xB4, 0xB5, 0xBD, 0xE6, 0xF9, 0xF5, 0x09, 0x1A, 0x0A, 0x35, 0x0A, 0xA1,
    0xCF, 0xB6, 0x23, 0x13, 0x15, 0x49, 0xA6, 0xFD, 0xE5, 0x2D, 0x17, 0x16,
    0x04, 0xBB, 0x2F, 0x24, 0x15, 0x2D, 0x1F, 0xED, 0xFC, 0x34, 0x50, 0x04,
    0x1C, 0xD2, 0xE9, 0xD2, 0x07, 0x06, 0xEB, 0xE1, 0xE7, 0xB7, 0xE1, 0x1B,
    0x16, 0xC4, 0xEE, 0xF0, 0xEC, 0x28, 0x2C, 0xFC, 0xE6, 0x06, 0x2A, 0xC4,
    0x1D, 0x1E, 0xF9, 0xEB, 0xD8, 0x81, 0x3B, 0xF1, 0xEB, 0xF9, 0x01, 0xBE,
    0x1D, 0x11, 0xAD, 0xD9, 0x02, 0x0A, 0xFA, 0x25, 0xEC, 0xB8, 0xBB, 0x1C,
    0xF3, 0x26, 0x31, 0xF4, 0x15, 0x27, 0xFC, 0xE0, 0x08, 0xCC, 0xE6, 0x13,
    0x08, 0xAD, 0xEF, 0x0A, 0x05, 0xD9, 0x16, 0x0E, 0xEC, 0x05, 0x04, 0xF1,
    0xFB, 0xCF, 0x15, 0xCA, 0x24, 0xF2, 0xAA, 0x07, 0x33, 0xF1, 0x17, 0x2E,
    0x20, 0x24, 0x1A, 0xD7, 0xDA, 0x0E, 0xDF, 0xF5, 0xEB, 0xC3, 0xD1, 0xEE,
    0xDF, 0xFF, 0x00, 0xF4, 0x11, 0xE2, 0x15, 0xD2, 0x09, 0xE2, 0xCB, 0xC4,
    0xFA, 0xFA, 0xBC, 0xCD, 0x18, 0x16, 0x15, 0xFD, 0x03, 0xFC, 0x14, 0x2A,
    0xFA, 0xDE, 0x04, 0x02, 0x0B, 0xF1, 0x25, 0xD3, 0x22, 0x13, 0x27, 0xF5,
    0xF8, 0xEB, 0x35, 0xE9, 0xED, 0xDB, 0x41, 0xBF, 0xE2, 0x15, 0x8E, 0xFF,
    0x12, 0x39, 0xEE, 0x04, 0x40, 0x0B, 0x33, 0xFE, 0x0C, 0x21, 0xF6, 0x31,
    0xEB, 0xEB, 0x1F, 0xDD, 0xCA, 0x90, 0xB2, 0x9A, 0xF6, 0xC0, 0x1C, 0xCE,
    0x05, 0xDE, 0x00, 0x17, 0x2D, 0xB7, 0xB3, 0x16, 0xD6, 0x2C, 0xEF, 0x09,
    0xD2, 0x27, 0x56, 0x9A, 0x10, 0xE6, 0xE4, 0x3C, 0x35, 0xB1, 0x02, 0xC0,
    0xE0, 0xE4, 0x27, 0xA9, 0x1D, 0xBA, 0xD0, 0x01, 0xF8, 0xA2, 0x44, 0x0D,
    0xF0, 0xC7, 0x03, 0x43, 0xCB, 0x46, 0xDD, 0x1E, 0x50, 0x28, 0xF8, 0xCD,
    0x0C, 0x42, 0xC4, 0xE6, 0xD2, 0xB6, 0x56, 0xD7, 0x1D, 0xF0, 0x34, 0x10,
    0x34, 0x58, 0xBB, 0xB2, 0x2F, 0x09, 0x16, 0x33, 0xF0, 0x26, 0xB4, 0x15,
    0xF7, 0x29, 0x04, 0xE0, 0x2D, 0xD6, 0xAF, 0xCE, 0xDD, 0xF3, 0xF1, 0xE9,
    0xD3, 0xDA, 0xBF, 0xE8, 0xEA, 0xF4, 0x0F, 0xF5, 0xEE, 0x64, 0xC1, 0xC9,
    0xEA, 0xAA, 0xA5, 0xF9, 0x34, 0x36, 0xA7, 0xD3, 0x20, 0xF4, 0xFA, 0xFE,
    0x01, 0xDB, 0x2A, 0xF3, 0xEF, 0x33, 0x0C, 0xF8, 0x20, 0xE5, 0xAF, 0x19,
    0x02, 0x96, 0x1E, 0x08, 0xF6, 0x07, 0xFB, 0xFD, 0x18, 0xC3, 0x38, 0x00,
    0xD5, 0x12, 0xC0, 0x1B, 0x32, 0xE0, 0x00, 0x20, 0xFF, 0xD0, 0x7F, 0x05,
    0x26, 0x2D, 0x0B, 0xE1, 0x38, 0xEA, 0x5F, 0xE6, 0xF4, 0xB5, 0xB8, 0xF6,
    0xEE, 0xF8, 0x2B, 0x2B, 0xF5, 0xED, 0x30, 0xF2, 0x14, 0x14, 0xCD, 0x5F,
    0xD4, 0x0E, 0xF1, 0xD5, 0xED, 0x15, 0xDA, 0xDA, 0x14, 0x2E, 0xF9, 0x11,
    0x08, 0x81, 0xE7, 0x0F, 0xCB, 0xBE, 0x00, 0xDC, 0x03, 0x32, 0xB2, 0xBF,
    0xEB, 0x28, 0xDA, 0x42, 0x40, 0x05, 0xD2, 0x1E, 0xED, 0x21, 0x03, 0xE2,
    0xED, 0x00, 0x0F, 0xA1, 0x07, 0xC6, 0xF6, 0xDF, 0xF4, 0xED, 0xEE, 0x20,
    0xD1, 0xD8, 0x1B, 0x19, 0x18, 0x30, 0xCA, 0x08, 0xF5, 0xCE, 0xCF, 0x18,
    0x3C, 0xE7, 0xDE, 0x0B, 0xFD, 0xE8, 0xFE, 0x37, 0xFB, 0xD7, 0x01, 0xB8,
    0x3B, 0x2C, 0x0B, 0xC9, 0x14, 0xD2, 0xBE, 0x13, 0xD1, 0xD7, 0xEA, 0xCF,
    0x3B, 0xFF, 0x06, 0xF6, 0xE4, 0x00, 0x07, 0xFE, 0x4E, 0xBC, 0x09, 0x2D,
    0xF4, 0xE7, 0x03, 0xF9, 0x2C, 0x00, 0x29, 0xDB, 0x16, 0x2E, 0x34, 0x29,
    0x20, 0x0C, 0x1E, 0xEC, 0x31, 0xE8, 0x17, 0x02, 0x44, 0xE5, 0x36, 0xE4,
    0x39, 0xBF, 0x17, 0x00, 0x12, 0xF2, 0xDC, 0x3C, 0x14, 0x09, 0xC2, 0xDD,
    0x11, 0x40, 0xFD, 0xF9, 0x02, 0xEF, 0x09, 0x07, 0x2A, 0xF1, 0x20, 0x2B,
    0xDE, 0xDF, 0x0F, 0x01, 0xCE, 0x31, 0xCE, 0xEF, 0xF3, 0x88, 0xE4, 0xCF,
    0x19, 0xBA, 0x81, 0x1E, 0x4B, 0x0B, 0x25, 0xF7, 0x0E, 0x54, 0x59, 0x06,
    0x0E, 0xDC, 0xE8, 0xFC, 0xE1, 0xEA, 0x12, 0x44, 0x0A, 0xC3, 0x3C, 0xF1,
    0xE0, 0x16, 0x3B, 0xB7, 0xC3, 0xCD, 0x18, 0xFD, 0xF8, 0xF7, 0x89, 0x12,
    0x35, 0x0F, 0xFB, 0x23, 0xE9, 0xFF, 0x3D, 0x34, 0x14, 0xA6, 0x0D, 0x11,
    0xB7, 0xB5, 0x16, 0xE5, 0x2C, 0xD6, 0xF6, 0xBD, 0xDB, 0xDA, 0x20, 0xC3,
    0xD0, 0xB2, 0x71, 0x98, 0xE5, 0x6E, 0x8E, 0x0B, 0xCE, 0x6B, 0xD6, 0xAB,
    0x1E, 0xD9, 0x08, 0xF9, 0x15, 0x5F, 0xE4, 0xEA, 0xFF, 0xC5, 0x62, 0xDD,
    0x31, 0x26, 0xC8, 0x1C, 0xE8, 0x58, 0xBB, 0x0B, 0x1C, 0x29, 0x30, 0x4C,
    0xD5, 0x47, 0xAB, 0x62, 0xFF, 0xC1, 0xFB, 0x53, 0xFA, 0xF8, 0xF5, 0xF6,
    0x12, 0xDE, 0xCD, 0xF4, 0x25, 0x0B, 0xE5, 0xF6, 0xDD, 0xB9, 0x50, 0xE3,
    0x18, 0x63, 0xC7, 0xF0, 0xED, 0xA7, 0x93, 0x23, 0x70, 0xCF, 0xFD, 0x13,
    0x0C, 0x11, 0x00, 0x2E, 0x13, 0x0B, 0xDD, 0x89, 0x21, 0x62, 0x09, 0x30,
    0xE3, 0xC7, 0x0E, 0x1F, 0x08, 0xFE, 0x0C, 0x35, 0x27, 0x35, 0xEC, 0xD1,
    0xEA, 0x44, 0xEB, 0xF1, 0xDA, 0x09, 0xEB, 0xB5, 0xFB, 0xE0, 0xEE, 0xE9,
    0x0A, 0xDD, 0x21, 0xCD, 0xD4, 0x0E, 0xFD, 0xE4, 0xBE, 0xD2, 0xF6, 0x29,
    0xF7, 0xC2, 0xC9, 0x03, 0xCE, 0xCB, 0xF7, 0x25, 0xDB, 0xF3, 0x1D, 0x0F,
    0xF8, 0x1A, 0xDE, 0x84, 0xAB, 0x99, 0xA8, 0xCF, 0xE0, 0x95, 0x03, 0xE7,
    0xA6, 0xF8, 0xEA, 0xA8, 0xC0, 0xC8, 0xB8, 0xD5, 0xF0, 0xD3, 0xF7, 0x2C,
    0x03, 0xE7, 0xE8, 0xDB, 0xC6, 0x41, 0x1C, 0xF4, 0xE7, 0x0F, 0xFF, 0x89,
    0xB1, 0xBE, 0x14, 0xEE, 0xF5, 0xE6, 0xE0, 0x09, 0xEE, 0xB8, 0xCE, 0xED,
    0xC0, 0x0C, 0xD2, 0xC9, 0xC3, 0xFC, 0xB7, 0x2C, 0xBF, 0xEA, 0x0C, 0xE5,
    0xFA, 0xED, 0xEE, 0x14, 0xC7, 0xBD, 0x3B, 0xDF, 0xCD, 0x01, 0x2A, 0xA1,
    0xB4, 0x81, 0xDB, 0x3E, 0xF6, 0xE0, 0x36, 0xBE, 0xB6, 0x15, 0xEC, 0xD2,
    0xF0, 0xFE, 0xFC, 0xFF, 0xCC, 0x28, 0x24, 0x39, 0xCA, 0xF1, 0x17, 0xEB,
    0xEB, 0x19, 0x2C, 0x93, 0x00, 0xA8, 0xFE, 0xC0, 0xFF, 0xA9, 0xB0, 0x18,
    0xF2, 0xB1, 0x16, 0xB4, 0x1C, 0xE4, 0x04, 0xD0, 0x2E, 0x81, 0xC4, 0xAC,
    0x3E, 0x07, 0x10, 0xFE, 0xC9, 0xB1, 0xAE, 0x21, 0x1D, 0xB0, 0x1E, 0xE1,
    0xE8, 0xDC, 0xFD, 0x2C, 0xC8, 0x25, 0xF8, 0xD0, 0x2A, 0x39, 0xC7, 0x09,
    0x22, 0x8B, 0x33, 0xFF, 0xC4, 0xCA, 0x21, 0x90, 0xDC, 0xDC, 0xEC, 0x00,
    0x05, 0x08, 0xE0, 0x4B, 0x3D, 0xC6, 0xE3, 0x03, 0xD2, 0x0A, 0xBD, 0x05,
    0x02, 0x20, 0xF7, 0x96, 0x32, 0x1D, 0x99, 0xEA, 0x24, 0xBE, 0xE3, 0x3F,
    0xC5, 0xF1, 0x01, 0xE1, 0xF3, 0x48, 0xB4, 0xF2, 0x02, 0xEF, 0xC6, 0x28,
    0x41, 0xAB, 0x0B, 0xD0, 0x1B, 0x0D, 0x2F, 0x1C, 0x1F, 0x31, 0xF4, 0xBA,
    0xF9, 0x22, 0x04, 0xCA, 0x32, 0xB1, 0xCB, 0x3B, 0xAD, 0xFD, 0x21, 0xC6,
    0xE8, 0x3B, 0xBF, 0x04, 0xF8, 0x02, 0xD3, 0x11, 0xF2, 0xDF, 0xF5, 0xCE,
    0xF1, 0xD5, 0x05, 0x06, 0x03, 0xE9, 0x4C, 0xF2, 0xD8, 0xE2, 0xFF, 0x19,
    0xE5, 0xEF, 0xF1, 0x49, 0x14, 0x13, 0xE5, 0x13, 0xBA, 0x22, 0x46, 0xC1,
    0xEF, 0xC7, 0x00, 0x93, 0xB5, 0x15, 0xAB, 0x36, 0xF0, 0x09, 0xDD, 0xEF,
    0x14, 0xDF, 0x25, 0x3E, 0x1D, 0x2C, 0xF3, 0xC1, 0xF9, 0xF5, 0x25, 0xB5,
    0xC1, 0xB3, 0xD6, 0x20, 0xDD, 0xCD, 0x3C, 0x05, 0xFD, 0xD5, 0xE6, 0xF0,
    0x15, 0x13, 0x13, 0xDC, 0xD5, 0xEA, 0xF6, 0xF9, 0xF3, 0xBF, 0xAD, 0xDC,
    0xF6, 0xE6, 0xDF, 0xC0, 0xC7, 0xF7, 0xD8, 0xED, 0xF6, 0xA6, 0xD8, 0xDE,
    0xD4, 0x3A, 0xFC, 0x02, 0xB7, 0xE6, 0x10, 0xEC, 0xB0, 0xBC, 0x21, 0x8E,
    0xA7, 0xDE, 0xFF, 0xF7, 0xD2, 0x81, 0xA4, 0x0D, 0xF3, 0xA5, 0xC8, 0xAB,
    0x99, 0x05, 0xBD, 0x24, 0xE2, 0xFB, 0xE2, 0x45, 0xDB, 0xE8, 0xF1, 0x07,
    0xBF, 0xEC, 0x02, 0xEE, 0xD2, 0xC1, 0x1A, 0xC2, 0xAB, 0xA3, 0xA8, 0x04,
    0x98, 0x99, 0xF7, 0xFB, 0xB8, 0x8D, 0x2C, 0xB3, 0x86, 0xC7, 0x10, 0xD3,
    0xB3, 0xF8, 0xC6, 0x1F, 0x9A, 0x2F, 0x11, 0x2E, 0xDC, 0x32, 0x0B, 0xC1,
    0xBE, 0xF0, 0x26, 0xFF, 0xEC, 0xC1, 0x03, 0xBE, 0xD6, 0xAA, 0xDA, 0xE7,
    0x9E, 0xC4, 0xE5, 0xEE, 0xBA, 0xF0, 0xDC, 0xFA, 0x04, 0xF3, 0x94, 0x05,
    0xC7, 0x02, 0x1A, 0x29, 0x30, 0xFE, 0xC2, 0xE9, 0x13, 0x03, 0x42, 0xF5,
    0xE0, 0xB9, 0xDF, 0xE7, 0x2B, 0xDB, 0x01, 0xEE, 0x08, 0xCC, 0x3E, 0xC9,
    0xE0, 0xC2, 0x0C, 0xED, 0xFC, 0xC5, 0xE2, 0xFE, 0xA5, 0x34, 0xED, 0x17,
    0xD6, 0xE5, 0xD3, 0xD0, 0xC8, 0x05, 0xE8, 0xEE, 0xEC, 0xDC, 0xD1, 0x06,
    0xD8, 0xC9, 0xC8, 0xDF, 0xBB, 0xB3, 0xC5, 0xDF, 0x9A, 0xB5, 0xF7, 0xE6,
    0xDE, 0x0E, 0xB5, 0x17, 0x98, 0xFE, 0x0D, 0x38, 0xC3, 0xD1, 0xEC, 0x99,
    0xA0, 0xEF, 0xFE, 0xE2, 0xD8, 0x86, 0x0E, 0xEC, 0x00, 0xC7, 0xDE, 0x06,
    0xB4, 0xC7, 0xA6, 0x01, 0xAA, 0xDF, 0x17, 0xC0, 0xF9, 0xEA, 0xD1, 0x17,
    0x09, 0xEC, 0xF6, 0x03, 0x01, 0xF5, 0x1A, 0xCF, 0xDC, 0xB9, 0xDF, 0xAB,
    0xC7, 0xEA, 0xFA, 0xFB, 0x0C, 0xCE, 0x81, 0x0E, 0xEF, 0xC7, 0x16, 0xE2,
    0xF8, 0xED, 0x18, 0xD5, 0x2C, 0xC7, 0x07, 0x2A, 0x07, 0xEA, 0x23, 0xEB,
    0xE8, 0x0B, 0x36, 0x28, 0xF1, 0x24, 0x05, 0x97, 0xB7, 0xB6, 0xC2, 0xA5,
    0xC8, 0x9E, 0xAD, 0x3D, 0x2F, 0xFA, 0x21, 0xDF, 0x1E, 0x19, 0xE6, 0xCA,
    0x11, 0x05, 0x1E, 0xE4, 0xF0, 0xE1, 0x34, 0xF2, 0xFF, 0x1F, 0xE6, 0x39,
    0x3A, 0x0A, 0x3C, 0xE2, 0xE3, 0xD6, 0x12, 0xD0, 0x0B, 0xD3, 0x04, 0x17,
    0x21, 0x18, 0x0C, 0x99, 0x12, 0x0E, 0xE4, 0xCD, 0xCC, 0xD3, 0xF0, 0xB7,
    0x29, 0x20, 0xE5, 0xDC, 0xBD, 0xD9, 0xC7, 0x49, 0x37, 0x81, 0xCF, 0x0D,
    0xD5, 0xF4, 0xF5, 0xD5, 0x04, 0x3D, 0xFF, 0x85, 0xDC, 0x31, 0xD7, 0x00,
    0x2E, 0x94, 0xD2, 0x33, 0x38, 0xD5, 0x0D, 0xAF, 0xF4, 0x0B, 0xD5, 0xD7,
    0x36, 0x1E, 0x0D, 0xE0, 0x4B, 0xAB, 0xB6, 0xEF, 0x0A, 0xE2, 0xFB, 0xFC,
    0xF2, 0x0E, 0x2C, 0xBE, 0xD5, 0xE3, 0xE1, 0xA8, 0x25, 0xAB, 0xB6, 0x4A,
    0xBC, 0xC1, 0x18, 0xCA, 0xF7, 0x4F, 0x01, 0xB8, 0x11, 0xDD, 0x9B, 0x12,
    0x43, 0xCD, 0xC3, 0x12, 0x0B, 0x13, 0x18, 0x31, 0xFC, 0x14, 0x48, 0xE2,
    0x23, 0xE4, 0xFF, 0xC7, 0xE6, 0xD5, 0xC5, 0x16, 0x04, 0x03, 0xDA, 0xF5,
    0xE4, 0xA3, 0xF4, 0xF0, 0xDD, 0x9E, 0x26, 0xE1, 0xCA, 0xE8, 0xA7, 0x02,
    0xFF, 0xF1, 0xE1, 0xF4, 0x01, 0x0C, 0x07, 0x25, 0x07, 0x15, 0x33, 0x03,
    0x14, 0xDD, 0x6A, 0xE0, 0xE1, 0x31, 0x07, 0xC5, 0xCE, 0x2E, 0x21, 0xEE,
    0x3C, 0x37, 0x33, 0x16, 0xDA, 0x36, 0x97, 0x67, 0x0A, 0x5C, 0x3F, 0xFF,
    0x57, 0x30, 0xD6, 0x2E, 0x06, 0xCB, 0xF2, 0x31, 0xFA, 0xD5, 0x09, 0xF7,
    0x3D, 0x97, 0xD1, 0xBF, 0xF9, 0xD7, 0xE0, 0xE6, 0x2E, 0x3C, 0x56, 0x06,
    0x1D, 0x03, 0xD0, 0x39, 0xF3, 0x36, 0xC8, 0xA8, 0x50, 0x49, 0xE6, 0xEE,
    0x02, 0x21, 0xAE, 0xEC, 0x0B, 0xC0, 0x1D, 0x14, 0x1E, 0xF0, 0x23, 0xA7,
    0x29, 0x33, 0xDF, 0xDA, 0x09, 0xED, 0xD8, 0x08, 0x17, 0x35, 0xBF, 0xD5,
    0x09, 0xFB, 0x2D, 0x21, 0xD2, 0xD5, 0xC2, 0xDF, 0xC3, 0xE7, 0x3E, 0x9D,
    0xD9, 0xF9, 0xB0, 0x23, 0xCF, 0xE1, 0xE4, 0xBD, 0xF5, 0x1A, 0xF9, 0x23,
    0xB7, 0xCA, 0xD2, 0xF7, 0x24, 0x1F, 0xE5, 0x3C, 0x2D, 0xC6, 0x20, 0xDE,
    0x1E, 0xFC, 0xFD, 0xD9, 0xED, 0x7F, 0x44, 0xDB, 0xFD, 0xFA, 0x38, 0xF2,
    0x0B, 0xA9, 0xFB, 0xAD, 0x29, 0x56, 0x27, 0xE7, 0x0B, 0xCF, 0xC5, 0x4D,
    0x11, 0xC9, 0xC2, 0xF5, 0xDA, 0xE4, 0xFE, 0x23, 0x1A, 0x13, 0x21, 0xB9,
    0xDD, 0x16, 0xD3, 0xCB, 0x36, 0xB2, 0x0B, 0x05, 0x92, 0xD6, 0x4B, 0xA8,
    0xFC, 0x1C, 0x34, 0xC2, 0x46, 0xF0, 0x01, 0x2F, 0xE1, 0x04, 0xCC, 0xF3,
    0xD5, 0x3E, 0x0F, 0xCE, 0x1A, 0x4D, 0x16, 0xDD, 0xDA, 0x54, 0xEA, 0xDA,
    0x21, 0xC8, 0xFC, 0x4B, 0x4C, 0xF8, 0x43, 0x07, 0xEC, 0x20, 0xC5, 0xE4,
    0xF7, 0xC8, 0xEB, 0x25, 0x41, 0xDF, 0x9F, 0x18, 0x32, 0x40, 0x3C, 0xF0,
    0xFD, 0xDA, 0xD6, 0xA7, 0xFB, 0xDD, 0xAD, 0x0E, 0xE7, 0xB8, 0xD1, 0xF8,
    0x17, 0xEC, 0x35, 0xDF, 0x3D, 0x37, 0xF1, 0xC9, 0xE2, 0xDC, 0xDD, 0x29,
    0x10, 0xDA, 0xDB, 0x0A, 0x17, 0x1D, 0xE4, 0x03, 0xCE, 0x26, 0x29, 0xA1,
    0x16, 0xFC, 0xE2, 0x00, 0x0D, 0xDD, 0xF0, 0x46, 0xF4, 0xFB, 0x3A, 0xA8,
    0x1B, 0xBE, 0xE9, 0x1D, 0xF4, 0xCB, 0x06, 0xC2, 0xDF, 0x14, 0xBB, 0x05,
    0x25, 0x07, 0x0D, 0x1A, 0xF8, 0x3A, 0x01, 0x05, 0xC3, 0x2B, 0x9B, 0xE4,
    0xE9, 0xB8, 0xFB, 0xD9, 0x3D, 0x08, 0x2D, 0xE1, 0x14, 0x09, 0x0D, 0xE9,
    0xEC, 0x03, 0x01, 0x1A, 0xF3, 0x3F, 0xB1, 0x3D, 0x0A, 0x0D, 0x17, 0xE8,
    0xDF, 0x0B, 0x3B, 0xD3, 0x04, 0xE9, 0xB1, 0x1F, 0xFF, 0xE2, 0xED, 0xF0,
    0xEB, 0x22, 0xFC, 0xF6, 0x28, 0x16, 0x2B, 0xB2, 0xEF, 0x81, 0x18, 0x02,
    0x0B, 0x36, 0xCF, 0xFB, 0x3A, 0x1B, 0xC2, 0x4B, 0x14, 0x32, 0x57, 0xF9,
    0xD4, 0xF3, 0x12, 0x0B, 0xDA, 0x2C, 0xFE, 0x10, 0x40, 0xE1, 0xDA, 0x8C,
    0x1E, 0x1D, 0x14, 0xA4, 0xCC, 0xD1, 0x19, 0x43, 0x66, 0xCE, 0x99, 0x36,
    0xDC, 0xF8, 0x2F, 0xD9, 0xFD, 0xDD, 0x0B, 0x9C, 0x36, 0xD6, 0x95, 0xEA,
    0x24, 0xB0, 0x52, 0x1C, 0xCC, 0xDB, 0x11, 0xCF, 0xF0, 0xD2, 0xAC, 0xE8,
    0xB3, 0xE1, 0x19, 0xF1, 0xC1, 0xCC, 0x9F, 0xEC, 0x25, 0xE6, 0x00, 0xF0,
    0x4A, 0x64, 0x2D, 0xDD, 0xC8, 0xE8, 0xF9, 0xF7, 0x35, 0xB6, 0xC2, 0x4A,
    0xEF, 0xE2, 0x5D, 0x1A, 0x06, 0x6E, 0x04, 0x97, 0xDC, 0xB6, 0x0E, 0xE7,
    0xF0, 0x15, 0x94, 0x2E, 0xFE, 0x1E, 0x4B, 0x26, 0x39, 0xDD, 0x44, 0xE3,
    0x12, 0xAC, 0x0B, 0xEC, 0xC9, 0xF0, 0x12, 0xC6, 0x08, 0xB5, 0x4C, 0xEE,
    0x24, 0x28, 0x2C, 0xD0, 0xF6, 0xD5, 0x18, 0x10, 0xE2, 0x0F, 0xEE, 0xCF,
    0xFB, 0x2E, 0x23, 0x15, 0xE0, 0xF3, 0x51, 0x36, 0x17, 0x05, 0x28, 0x38,
    0xE2, 0x2C, 0x40, 0xE1, 0xF3, 0xCC, 0xBD, 0xE3, 0xCD, 0xF5, 0x50, 0xFA,
    0x02, 0xAA, 0x28, 0xE4, 0x07, 0x3C, 0xB0, 0x7F, 0x00, 0x27, 0x25, 0xE6,
    0x3B, 0x15, 0x40, 0xC2, 0x42, 0x41, 0x0A, 0x3D, 0xEA, 0xAE, 0x3F, 0xEA,
    0xD0, 0xBB, 0xD9, 0xDF, 0x17, 0xD3, 0xB2, 0xD6, 0x08, 0xA9, 0x17, 0xF8,
    0x40, 0xA6, 0xF7, 0x25, 0xE6, 0xF2, 0x28, 0x32, 0xE5, 0x12, 0x53, 0xD6,
    0x09, 0x1C, 0xDC, 0x0A, 0x0A, 0x87, 0xFE, 0x2A, 0x28, 0xB3, 0x02, 0x0C,
    0x2B, 0xE1, 0xB9, 0xC1, 0xEF, 0xAA, 0xF1, 0xFF, 0xFB, 0xCC, 0x95, 0x5A,
    0xD8, 0xF5, 0x0C, 0xF0, 0x43, 0x64, 0xDC, 0xC1, 0x31, 0x0D, 0xD7, 0x33,
    0x12, 0x9F, 0x2C, 0x20, 0x05, 0xC1, 0x53, 0xF8, 0xFE, 0x05, 0xEA, 0xB5,
    0xFC, 0xD2, 0xBA, 0x1D, 0xD4, 0x14, 0xDE, 0xDE, 0x3E, 0x08, 0xF0, 0x40,
    0x25, 0xE4, 0x3C, 0xED, 0xE5, 0xC5, 0x16, 0x10, 0xD4, 0xAC, 0xBF, 0x0D,
    0xFA, 0x01, 0xF7, 0x14, 0xD9, 0x24, 0xFC, 0xEA, 0x38, 0xC1, 0x2E, 0xB0,
    0x1E, 0x70, 0xB9, 0xF5, 0xF8, 0x37, 0xD3, 0x29, 0xE2, 0x20, 0x65, 0x0B,
    0xED, 0xFE, 0xE4, 0xF9, 0xF8, 0xFA, 0x46, 0x2B, 0xD9, 0xD7, 0x2D, 0x08,
    0x17, 0xCC, 0x3C, 0xB4, 0xF0, 0x81, 0x11, 0xD6, 0xD9, 0x16, 0x92, 0x67,
    0x2F, 0x0C, 0x2E, 0x14, 0x20, 0x38, 0x1F, 0x37, 0xE9, 0x3D, 0x2B, 0x59,
    0x33, 0xE5, 0x2D, 0xD3, 0x04, 0xF7, 0xDE, 0x0B, 0xE3, 0xFB, 0x11, 0x1A,
    0x02, 0x1D, 0x0A, 0x9D, 0xE4, 0xF7, 0xBE, 0xF1, 0xE2, 0x01, 0xD1, 0xA5,
    0xB1, 0xC0, 0xDA, 0xF0, 0xFA, 0xB6, 0x04, 0xFD, 0x01, 0xB8, 0xBB, 0x0A,
    0xD1, 0xFE, 0x19, 0x21, 0x00, 0xEE, 0x20, 0x24, 0xBF, 0xEA, 0xD6, 0xCA,
    0xA5, 0xFA, 0x12, 0x8B, 0xB9, 0xD2, 0x26, 0xE8, 0xCF, 0xAB, 0x98, 0x06,
    0xA5, 0xF0, 0x92, 0xE6, 0xF2, 0xF2, 0xF1, 0xD0, 0xA8, 0xDC, 0x09, 0xD1,
    0xB5, 0xD8, 0x1D, 0x17, 0xCC, 0x11, 0x23, 0xE0, 0xBB, 0xAE, 0xFF, 0xCF,
    0xB7, 0xD6, 0xE7, 0xE0, 0xF9, 0xB2, 0xB8, 0xF1, 0xCA, 0x96, 0xF5, 0xD4,
    0xEF, 0x01, 0x1C, 0xD1, 0xBD, 0xD1, 0xE0, 0xDD, 0xD4, 0xFE, 0x42, 0x06,
    0xBD, 0xE7, 0x25, 0xB5, 0x9F, 0xF1, 0x38, 0xBE, 0xC9, 0xCA, 0xB8, 0xC4,
    0xC1, 0x81, 0xC1, 0x2C, 0xD9, 0x94, 0x09, 0xE9, 0xFF, 0x0C, 0xF1, 0xD1,
    0xE7, 0xCD, 0xE4, 0xDD, 0xDF, 0x21, 0x1E, 0x00, 0xDB, 0x25, 0xFC, 0xD0,
    0xF6, 0xDF, 0x40, 0xA2, 0xD8, 0xB0, 0xC6, 0xFD, 0xE9, 0xA5, 0xBF, 0x23,
    0xF1, 0xE9, 0xDB, 0xD1, 0x00, 0xE7, 0x01, 0xED, 0x10, 0xEC, 0xD2, 0xF7,
    0x11, 0x27, 0xEB, 0xF4, 0xEB, 0xDE, 0xAE, 0x2D, 0x28, 0x86, 0xC2, 0xF2,
    0xCB, 0x02, 0x04, 0xB7, 0xDE, 0x14, 0xC5, 0xA0, 0xCB, 0x07, 0xFB, 0xDD,
    0x01, 0xC0, 0x1E, 0x16, 0xEA, 0xCB, 0xC6, 0xF0, 0x11, 0x14, 0xE6, 0xF1,
    0xC3, 0xB4, 0xF4, 0x1E, 0x2D, 0x81, 0xDD, 0x2A, 0xE9, 0xF7, 0x2C, 0x00,
    0xE2, 0xFA, 0xE0, 0x94, 0x13, 0xE0, 0x23, 0xD7, 0x11, 0xC0, 0xD3, 0x1E,
    0xCB, 0xD3, 0x0C, 0xC7, 0xDF, 0x20, 0xD5, 0xCF, 0xF7, 0xB0, 0xD6, 0xEA,
    0xFB, 0xD6, 0xD2, 0x15, 0xD4, 0x11, 0xDB, 0xE9, 0x18, 0x1B, 0x21, 0xC3,
    0x20, 0x0E, 0xF4, 0x11, 0x2C, 0xED, 0x1D, 0x15, 0x2C, 0x20, 0x21, 0x1F,
    0x02, 0xEE, 0x46, 0xC4, 0x2A, 0xB4, 0x40, 0xD7, 0xE9, 0x18, 0xB0, 0xF0,
    0xE5, 0x1D, 0xFF, 0x33, 0xE3, 0xD5, 0x21, 0x1B, 0xD5, 0xFF, 0xEB, 0xE6,
    0xED, 0xFE, 0xEB, 0xF9, 0x2B, 0x2A, 0xDD, 0x19, 0x1F, 0x2B, 0x20, 0xB4,
    0xE3, 0xE0, 0x05, 0xF7, 0xD3, 0x32, 0x87, 0xF2, 0x3A, 0x04, 0xCE, 0x13,
    0xCA, 0xDA, 0x26, 0x22, 0xDD, 0xDA, 0x19, 0x04, 0xE9, 0x2F, 0x0B, 0xFA,
    0xED, 0xBD, 0xD8, 0xF0, 0x15, 0xE0, 0xC8, 0x06, 0xDE, 0x9E, 0xFC, 0x23,
    0x25, 0xE4, 0xC9, 0x35, 0xEE, 0x03, 0x33, 0xFA, 0xC9, 0x20, 0x0C, 0xB6,
    0x1E, 0xFD, 0xF4, 0x25, 0x2D, 0xB9, 0x09, 0x12, 0x10, 0xBD, 0xF9, 0xE5,
    0x1D, 0x08, 0xDC, 0x06, 0xD7, 0xC3, 0xCD, 0xF9, 0x14, 0xBD, 0xF7, 0xF9,
    0x0F, 0x2B, 0x02, 0xE6, 0x13, 0x2A, 0x26, 0xCD, 0x02, 0x0A, 0xC9, 0x36,
    0xED, 0x81, 0xE6, 0x02, 0xEA, 0x03, 0xE6, 0xC0, 0x2E, 0x16, 0xAA, 0xD0,
    0xD1, 0xC3, 0xDC, 0x03, 0x01, 0xF5, 0xEF, 0x0B, 0xE7, 0x01, 0xF2, 0x25,
    0x31, 0x38, 0x21, 0xAC, 0x13, 0x11, 0xE0, 0x12, 0xEA, 0xD3, 0x10, 0x20,
    0x21, 0x15, 0x4B, 0xBC, 0xD8, 0x14, 0x1A, 0xAB, 0x0E, 0xBA, 0x1A, 0xD5,
    0xEC, 0x15, 0x8A, 0xF1, 0x41, 0x1B, 0x02, 0xED, 0x00, 0x05, 0x46, 0xE4,
    0xE4, 0xD2, 0xFE, 0xEB, 0x04, 0x08, 0xE6, 0xFC, 0x0B, 0x08, 0x19, 0x19,
    0xCF, 0x22, 0xF6, 0xC2, 0xDF, 0xA8, 0xFB, 0xC0, 0xF5, 0x2F, 0x8E, 0xDA,
    0x30, 0x16, 0xDC, 0xFC, 0x1D, 0x07, 0x41, 0x40, 0x14, 0x24, 0x36, 0x28,
    0xEE, 0x1D, 0x27, 0xF2, 0xAB, 0xDA, 0xB3, 0x08, 0xDA, 0x00, 0x02, 0xE0,
    0xC6, 0x23, 0xED, 0xAB, 0xB4, 0xDB, 0x25, 0xA3, 0xD1, 0xA6, 0xC1, 0x06,
    0x20, 0x03, 0xBB, 0xFE, 0xA8, 0xA5, 0x13, 0xDF, 0xBA, 0x26, 0xFB, 0x10,
    0xBB, 0x15, 0xC4, 0x24, 0xCC, 0xBF, 0xC2, 0x10, 0xDF, 0x39, 0x02, 0xD1,
    0x05, 0xCE, 0xD9, 0xC5, 0xB6, 0xDE, 0xB3, 0x24, 0xB3, 0x84, 0x0E, 0xF7,
    0xA4, 0x83, 0x19, 0xB8, 0xCB, 0xBD, 0xBA, 0x81, 0xEB, 0x22, 0xAB, 0x33,
    0xCF, 0xFC, 0xDB, 0xFE, 0xAF, 0x2F, 0x1B, 0xA9, 0xA7, 0x2C, 0xCB, 0xCC,
    0x98, 0xA8, 0x02, 0xC6, 0xFF, 0xB0, 0x94, 0xD9, 0xAE, 0xAE, 0xD1, 0x9C,
    0xC2, 0xD0, 0xCA, 0xB8, 0xF1, 0x13, 0x06, 0x02, 0xAB, 0xAB, 0xEA, 0x1A,
    0x11, 0x0C, 0x23, 0xE5, 0x0F, 0x4B, 0x47, 0xE8, 0xE3, 0xB2, 0xE8, 0xDA,
    0xE7, 0xF1, 0xCE, 0x03, 0xA8, 0xE7, 0xDA, 0xE5, 0x9E, 0xF5, 0xD6, 0xB6,
    0x52, 0x0B, 0xE7, 0x1D, 0xBD, 0xDB, 0x24, 0xE8, 0xE0, 0x37, 0x20, 0x54,
    0x4A, 0x3D, 0x0D, 0xCC, 0xB2, 0xCE, 0x3E, 0xEA, 0xFE, 0x0E, 0x43, 0x5E,
    0xE0, 0x3C, 0x08, 0xE8, 0xDE, 0x63, 0x5D, 0x04, 0x13, 0x94, 0x20, 0x8E,
    0x4D, 0x52, 0xE1, 0xC8, 0x99, 0xA0, 0xDA, 0x32, 0x20, 0xE8, 0xDA, 0xE9,
    0xF4, 0x24, 0xF5, 0xEA, 0xB7, 0x28, 0x14, 0xBC, 0xEE, 0x11, 0xDD, 0x12,
    0x1D, 0xCC, 0xC6, 0x3E, 0x2E, 0xF2, 0x32, 0xDC, 0x15, 0xDE, 0xF9, 0x21,
    0xAF, 0x15, 0x04, 0xCE, 0xF5, 0xF3, 0xD1, 0xDE, 0xC8, 0x18, 0x3E, 0xFE,
    0xE2, 0xB9, 0xD0, 0xB6, 0xC1, 0xEA, 0x22, 0xD3, 0xE1, 0xAE, 0xFD, 0xEB,
    0xC6, 0xCB, 0xCE, 0x90, 0x31, 0x3F, 0x0F, 0xAC, 0x14, 0xA6, 0xE2, 0x33,
    0x25, 0xB2, 0xEE, 0x3B, 0xD9, 0xD5, 0x4E, 0x2F, 0xD8, 0x3C, 0x35, 0xBD,
    0xBE, 0x17, 0xA7, 0x48, 0xF3, 0xDC, 0x38, 0xEC, 0x98, 0x9A, 0xD1, 0xAB,
    0x49, 0xDD, 0xFC, 0xA9, 0xB9, 0xDE, 0x05, 0xBB, 0x56, 0xDB, 0x97, 0x11,
    0x35, 0xEF, 0x25, 0xE6, 0x27, 0x7F, 0x32, 0xD6, 0x02, 0xFD, 0x13, 0x42,
    0x53, 0xB6, 0xFF, 0x24, 0xFD, 0xCE, 0x34, 0x21, 0x23, 0x5F, 0xDE, 0xA7,
    0x05, 0xF5, 0xDB, 0x0D, 0xCB, 0xCF, 0xB8, 0xE3, 0x42, 0xE9, 0x31, 0x23,
    0x0E, 0xFD, 0x33, 0x45, 0x8D, 0x05, 0xFD, 0xD7, 0xDE, 0x3F, 0xCF, 0x53,
    0x9E, 0xF6, 0xFF, 0xFF, 0x04, 0x00, 0x00, 0x00, 0x80, 0x00, 0x00, 0x00,
    0x3A, 0xFE, 0xFF, 0xFF, 0x7F, 0x00, 0x00, 0x00, 0xB1, 0xFF, 0xFF, 0xFF,
    0x71, 0xFF, 0xFF, 0xFF, 0x63, 0xFF, 0xFF, 0xFF, 0xF6, 0xFE, 0xFF, 0xFF,
    0xF5, 0xFB, 0xFF, 0xFF, 0xE0, 0xFB, 0xFF, 0xFF, 0x14, 0xFA, 0xFF, 0xFF,
    0x24, 0xFD, 0xFF, 0xFF, 0x1D, 0xFF, 0xFF, 0xFF, 0xC8, 0xFF, 0xFF, 0xFF,
    0x64, 0xFC, 0xFF, 0xFF, 0x68, 0x00, 0x00, 0x00, 0xC5, 0xFF, 0xFF, 0xFF,
    0x59, 0x00, 0x00, 0x00, 0xF7, 0x00, 0x00, 0x00, 0x0E, 0x00, 0x00, 0x00,
    0x3C, 0xFE, 0xFF, 0xFF, 0x56, 0xFE, 0xFF, 0xFF, 0x53, 0xFE, 0xFF, 0xFF,
    0x40, 0xFE, 0xFF, 0xFF, 0x14, 0x00, 0x00, 0x00, 0x95, 0x00, 0x00, 0x00,
    0x12, 0x00, 0x00, 0x00, 0x29, 0x00, 0x00, 0x00, 0xF1, 0xFF, 0xFF, 0xFF,
    0x56, 0xFE, 0xFF, 0xFF, 0x5A, 0xFF, 0xFF, 0xFF, 0xA0, 0xFF, 0xFF, 0xFF,
    0x54, 0xFE, 0xFF, 0xFF, 0x06, 0x00, 0x00, 0x00, 0x2A, 0xF7, 0xFF, 0xFF,
    0x04, 0x00, 0x00, 0x00, 0x20, 0x00, 0x00, 0x00, 0xE3, 0xBC, 0xC5, 0xAC,
    0xBA, 0xBA, 0x7F, 0x3C, 0xC2, 0xF3, 0x9B, 0xBB, 0xDF, 0xBB, 0xC0, 0xC8,
    0xB0, 0xB2, 0xFE, 0xD2, 0x1E, 0x05, 0xC6, 0xB9, 0xB0, 0xA8, 0xB0, 0xE9,
    0x06, 0xB7, 0xD5, 0xC1, 0x56, 0xF7, 0xFF, 0xFF, 0x04, 0x00, 0x00, 0x00,
    0x20, 0x00, 0x00, 0x00, 0xA9, 0xA8, 0x99, 0xDC, 0xB8, 0x9F, 0x03, 0x20,
    0x0F, 0x92, 0x15, 0xB4, 0xFB, 0xA4, 0x9B, 0xC0, 0xF9, 0xDB, 0xA4, 0x0E,
    0x89, 0xA0, 0xDD, 0x14, 0xD1, 0xD8, 0x89, 0x97, 0xFF, 0x80, 0xC2, 0xE5,
    0x82, 0xF7, 0xFF, 0xFF, 0x04, 0x00, 0x00, 0x00, 0x00, 0x06, 0x00, 0x00,
    0x03, 0xF4, 0x26, 0x0C, 0x05, 0x14, 0x0D, 0x14, 0x56, 0x17, 0x00, 0x2D,
    0x16, 0xC6, 0x1A, 0x16, 0xA3, 0x35, 0x1E, 0x19, 0x31, 0x02, 0x07, 0xDD,
    0xE3, 0x13, 0xFB, 0x13, 0xD6, 0x0D, 0xE8, 0xEB, 0x02, 0xF1, 0x34, 0xE7,
    0x41, 0x0D, 0xEB, 0xF3, 0x2E, 0xD2, 0x50, 0xDA, 0x62, 0x1A, 0xE6, 0xD0,
    0xC3, 0xE3, 0x1B, 0xC8, 0xFE, 0xE4, 0xE5, 0xDE, 0x01, 0x0A, 0x43, 0x18,
    0x42, 0x3F, 0xBD, 0x35, 0x27, 0x7F, 0x48, 0x26, 0x29, 0x66, 0xF3, 0xE1,
    0xDE, 0x1E, 0xB3, 0x7C, 0xD5, 0x29, 0x5B, 0x5E, 0x4D, 0x3F, 0x15, 0x28,
    0x07, 0xF7, 0x51, 0xD2, 0xF1, 0x07, 0x7F, 0x09, 0x2D, 0x68, 0xFE, 0x2E,
    0x10, 0xF5, 0x48, 0x03, 0x73, 0x51, 0x81, 0xF1, 0xDA, 0xAD, 0xF0, 0x07,
    0x12, 0x01, 0x53, 0x08, 0x17, 0xB3, 0x02, 0x40, 0x11, 0xFC, 0x73, 0xFA,
    0x21, 0x27, 0x17, 0xC4, 0x5D, 0x43, 0xBB, 0x5F, 0x23, 0xF9, 0x5B, 0x33,
    0x4D, 0x20, 0xEB, 0xDD, 0xD0, 0x03, 0xCB, 0xF6, 0x27, 0x1C, 0xF3, 0xE0,
    0x37, 0x27, 0x16, 0x3A, 0xF1, 0xDE, 0x28, 0x20, 0x40, 0x0A, 0x1B, 0x09,
    0x07, 0xE5, 0x11, 0x10, 0x1A, 0x1B, 0x2C, 0x56, 0xF3, 0xC2, 0x0B, 0xDC,
    0x0F, 0xC5, 0x28, 0xE4, 0xFC, 0x2D, 0x08, 0x06, 0x27, 0x36, 0x12, 0xF4,
    0xC7, 0xF9, 0x45, 0x48, 0xFF, 0x02, 0xD6, 0xD9, 0xF9, 0xC2, 0xDE, 0xF0,
    0x1C, 0xEA, 0x63, 0xD5, 0x19, 0xDD, 0x82, 0xDD, 0xEE, 0xC2, 0x3E, 0x0D,
    0x0E, 0x1A, 0x36, 0x2F, 0x22, 0xB1, 0x01, 0x3D, 0xD7, 0x0D, 0x52, 0x0D,
    0xEF, 0xDC, 0x30, 0xB7, 0xFD, 0x1F, 0x01, 0xF7, 0xCC, 0x15, 0x62, 0x3A,
    0x5C, 0x22, 0xC4, 0xF5, 0xBB, 0xF0, 0xFD, 0x64, 0xD9, 0x3E, 0xD5, 0x27,
    0x01, 0x37, 0x24, 0x57, 0x35, 0x1A, 0x3C, 0x44, 0x4C, 0xD3, 0x58, 0xB6,
    0x7F, 0x11, 0xE7, 0x10, 0xC2, 0x5C, 0x7E, 0x61, 0xF1, 0x2D, 0x29, 0xCE,
    0xFF, 0xF8, 0xE8, 0x18, 0xE1, 0x1D, 0x03, 0x36, 0xF3, 0x50, 0xCE, 0x04,
    0xF1, 0xFC, 0x2F, 0x4C, 0xF1, 0x17, 0x31, 0xEF, 0x05, 0x05, 0xEF, 0xC5,
    0x2A, 0xE1, 0x3D, 0x36, 0x24, 0x3D, 0xDE, 0xE7, 0x10, 0xC9, 0x30, 0xF0,
    0xE5, 0x3E, 0xD6, 0x28, 0xDB, 0x27, 0x24, 0xEF, 0x31, 0xB9, 0xF7, 0x01,
    0x0C, 0xE5, 0xF4, 0x01, 0xEE, 0x22, 0xA5, 0x21, 0xFB, 0x1E, 0x7A, 0x24,
    0x0D, 0x6E, 0x98, 0x03, 0xFF, 0xDC, 0x40, 0x75, 0xD9, 0xFE, 0x6A, 0x23,
    0x60, 0xC9, 0x0B, 0x4E, 0x02, 0x43, 0x5C, 0x3B, 0x4E, 0x20, 0x7D, 0x0B,
    0x7F, 0x24, 0x37, 0x54, 0xDA, 0x42, 0x0E, 0x07, 0x4D, 0x11, 0xD0, 0x26,
    0xBB, 0x26, 0xF0, 0xF4, 0xDE, 0xE5, 0xDC, 0x25, 0x49, 0x09, 0xD8, 0xDD,
    0xF1, 0x16, 0x40, 0x1C, 0x21, 0x35, 0x04, 0xCA, 0x24, 0x09, 0x11, 0x28,
    0x2E, 0xD9, 0xF3, 0xE7, 0x1E, 0x0E, 0x28, 0x07, 0xC9, 0x4F, 0x14, 0xC6,
    0xF2, 0xDB, 0xED, 0xCE, 0xEC, 0xE9, 0x58, 0xEF, 0x7F, 0x61, 0xE3, 0xF2,
    0xF1, 0x0B, 0xF8, 0x16, 0xDA, 0xF0, 0xFC, 0xE7, 0x47, 0xC1, 0xD9, 0xDC,
    0xBC, 0x1B, 0x08, 0x1B, 0xE3, 0x47, 0x06, 0xED, 0xC4, 0xED, 0xF4, 0xBD,
    0x0F, 0xDF, 0x52, 0xFE, 0x67, 0x53, 0x09, 0x0E, 0xDB, 0x1A, 0x0A, 0x46,
    0xF0, 0x15, 0x44, 0xFF, 0xF5, 0xFF, 0x0C, 0xA8, 0xD8, 0xFB, 0x7F, 0xE7,
    0xBF, 0x1F, 0x39, 0x22, 0xCA, 0xF5, 0xC9, 0xDD, 0x01, 0xD1, 0x47, 0x09,
    0x78, 0x5B, 0xDA, 0xC3, 0x00, 0xFB, 0x22, 0x45, 0xEB, 0xD6, 0x0A, 0xD2,
    0x38, 0x00, 0xD7, 0xC6, 0xED, 0xFE, 0x40, 0xD0, 0xB1, 0x2D, 0xD0, 0xF9,
    0xF5, 0xC1, 0x0D, 0xE0, 0xCE, 0xC0, 0x2A, 0x09, 0x4C, 0x26, 0xE4, 0xD6,
    0xE8, 0xF5, 0x13, 0x2B, 0xC2, 0xF8, 0x28, 0xF7, 0x4F, 0xFC, 0x0B, 0xC3,
    0x19, 0xD0, 0x55, 0xF8, 0xB3, 0x7F, 0xD6, 0xE3, 0xC8, 0xF9, 0xF2, 0xD6,
    0xDB, 0xD7, 0x2D, 0xEA, 0x70, 0x42, 0xFF, 0xF9, 0x08, 0xE6, 0xDB, 0x3F,
    0xC6, 0x1D, 0x4A, 0xE3, 0x0F, 0xE9, 0xD9, 0xD7, 0xEB, 0xF6, 0x61, 0xCB,
    0xB5, 0x20, 0xD5, 0x04, 0xEA, 0xCE, 0xC4, 0xF6, 0xD7, 0x01, 0x2E, 0xF7,
    0x10, 0x51, 0xDD, 0xE0, 0x17, 0x02, 0x1E, 0x20, 0xF1, 0x16, 0x18, 0x21,
    0x4A, 0xEE, 0xE5, 0xB4, 0x00, 0xC5, 0xFE, 0xB8, 0xE6, 0x5A, 0xBF, 0xC7,
    0xD9, 0x00, 0xE1, 0xCA, 0x08, 0xA9, 0x4F, 0xC3, 0x39, 0x2A, 0xFA, 0xB7,
    0x0C, 0xBC, 0x01, 0x4B, 0xA8, 0xC7, 0x0C, 0x21, 0x6B, 0xDD, 0xF8, 0xBE,
    0xB7, 0xE4, 0x61, 0xA6, 0xC9, 0x61, 0xD0, 0xFE, 0x81, 0xA0, 0xB6, 0xAA,
    0xC6, 0x0A, 0x56, 0x35, 0x6D, 0x53, 0x17, 0xD8, 0x0B, 0xBB, 0xC4, 0x3F,
    0xAE, 0xC4, 0x45, 0x03, 0xF3, 0xF5, 0xC5, 0xDD, 0xF9, 0xAF, 0x7A, 0xD5,
    0x99, 0x63, 0xC8, 0x12, 0x8C, 0xA2, 0xE7, 0x05, 0x09, 0x14, 0x1C, 0xD7,
    0x31, 0x0A, 0xF6, 0xD3, 0x17, 0xAF, 0xCD, 0x1D, 0xCD, 0x18, 0x14, 0xDE,
    0xC7, 0x51, 0x32, 0x05, 0x3C, 0x0C, 0x9D, 0xBE, 0xCF, 0x00, 0x25, 0x77,
    0x33, 0x54, 0x16, 0x77, 0xDF, 0xFB, 0x01, 0x69, 0x30, 0xCB, 0x7F, 0x51,
    0x45, 0x0B, 0x11, 0x09, 0x15, 0x4A, 0x18, 0x30, 0xDE, 0x45, 0x50, 0x48,
    0x11, 0x3D, 0xFE, 0xAB, 0xF6, 0x01, 0xDB, 0x20, 0x04, 0x10, 0x31, 0xE9,
    0xE1, 0x30, 0x2B, 0x43, 0xDE, 0xF0, 0x4A, 0x3E, 0x11, 0xD7, 0x02, 0xE5,
    0x61, 0xFD, 0x32, 0xF8, 0xCB, 0x52, 0x3D, 0x1D, 0x12, 0xEC, 0x24, 0xF4,
    0xE9, 0xD6, 0xEE, 0xE9, 0xD2, 0xEB, 0xFF, 0x4D, 0x14, 0x3B, 0x09, 0x22,
    0x27, 0xF6, 0x2D, 0x39, 0x12, 0x18, 0x38, 0xDD, 0xCF, 0x11, 0x42, 0xEB,
    0x2D, 0x09, 0xEC, 0xF8, 0xA5, 0xE4, 0x02, 0xEA, 0xD6, 0x46, 0xBB, 0xCE,
    0xB2, 0xB6, 0xD1, 0xDC, 0x15, 0xE5, 0x65, 0x17, 0x42, 0x0A, 0xD2, 0xF3,
    0x1F, 0x11, 0xE7, 0x5D, 0x10, 0xF0, 0x31, 0xED, 0x42, 0xE8, 0xCA, 0xE2,
    0xF5, 0xF9, 0x44, 0xF4, 0xDD, 0x5A, 0x9C, 0xDF, 0xDB, 0xFF, 0xD2, 0xCD,
    0xE6, 0xC8, 0x4A, 0xD4, 0x7F, 0x40, 0xF4, 0xD0, 0xEB, 0xD3, 0xE1, 0x3B,
    0x13, 0xD4, 0x14, 0xF2, 0x5A, 0xD3, 0xD4, 0xF7, 0xF7, 0xEA, 0x1F, 0xBD,
    0xCD, 0x3D, 0xFD, 0xC1, 0xA7, 0x0E, 0xEC, 0xCE, 0xF0, 0xE4, 0x21, 0x12,
    0x43, 0x43, 0xD3, 0xC1, 0x0B, 0xED, 0xC6, 0x34, 0x22, 0xFC, 0x5D, 0xF3,
    0x16, 0x07, 0xE3, 0xE0, 0xF8, 0xF0, 0xF5, 0x2A, 0x3B, 0xD9, 0x02, 0x34,
    0x30, 0x12, 0x1A, 0xF1, 0xE3, 0x14, 0xFA, 0xF8, 0x20, 0x00, 0xEB, 0xFE,
    0x1F, 0x21, 0x18, 0x03, 0x18, 0xEA, 0xD9, 0xED, 0xF6, 0xFD, 0x08, 0xF7,
    0x13, 0x29, 0x02, 0xF2, 0xFA, 0xF6, 0x21, 0x11, 0x4F, 0x24, 0xFA, 0x11,
    0xDC, 0xF0, 0x0B, 0xA6, 0x00, 0xF9, 0x0F, 0xD5, 0x35, 0xDC, 0x20, 0x22,
    0xF9, 0x34, 0x1D, 0x08, 0x15, 0x16, 0x4C, 0x01, 0x77, 0x66, 0xCD, 0xA8,
    0xD0, 0x29, 0xD6, 0x39, 0xD2, 0x64, 0x75, 0x58, 0x37, 0xF1, 0xF1, 0x23,
    0x07, 0xE8, 0x44, 0x01, 0x51, 0x0A, 0x52, 0xE4, 0x50, 0x7F, 0x06, 0x17,
    0xC6, 0x25, 0x00, 0x24, 0x08, 0x47, 0x9A, 0x04, 0xC8, 0x23, 0xEA, 0x7F,
    0x0C, 0x3C, 0x6B, 0x49, 0xEA, 0xBA, 0x0F, 0x2D, 0xBF, 0xD1, 0x66, 0x0D,
    0x45, 0x28, 0x19, 0x14, 0x6A, 0x23, 0x31, 0xFF, 0xE3, 0x05, 0xFC, 0x36,
    0x0D, 0x62, 0xC5, 0xA8, 0xF0, 0xE1, 0xEF, 0x2D, 0xEC, 0x0F, 0x0E, 0x12,
    0x45, 0x49, 0xE6, 0x2C, 0xCB, 0x1B, 0x24, 0xED, 0x38, 0x10, 0x0D, 0x12,
    0x62, 0x17, 0xDB, 0x21, 0x00, 0x1B, 0x67, 0x17, 0xE0, 0x2D, 0xC7, 0xDD,
    0xBF, 0x01, 0x2A, 0x53, 0xE2, 0xF3, 0x13, 0xE1, 0x58, 0x2D, 0xC6, 0x15,
    0x00, 0xE5, 0x15, 0x08, 0x26, 0x5B, 0x67, 0xD6, 0x4B, 0xF6, 0x49, 0xD8,
    0x2D, 0xEC, 0x1F, 0x05, 0x24, 0xCB, 0x99, 0x00, 0xEC, 0xF1, 0x1D, 0x14,
    0x3B, 0x4C, 0xE9, 0x10, 0xCF, 0xF4, 0xED, 0xE0, 0xE9, 0xE4, 0x07, 0x06,
    0x39, 0xBA, 0x00, 0x2F, 0xD5, 0xD4, 0xDA, 0x29, 0xD0, 0xE7, 0x06, 0xF6,
    0x62, 0x0C, 0x22, 0x16, 0x1C, 0xF4, 0x3C, 0x10, 0x7F, 0x15, 0x12, 0xCF,
    0x1A, 0xCA, 0xEB, 0xCA, 0x0F, 0xF8, 0x10, 0xFD, 0x0B, 0x1D, 0x13, 0xDE,
    0x48, 0x01, 0xFB, 0x0D, 0x11, 0x5A, 0x7E, 0x1E, 0x65, 0x10, 0xCB, 0xD9,
    0xA4, 0xD3, 0xD9, 0x3F, 0xCC, 0x4E, 0x3D, 0x21, 0x04, 0xF0, 0xE0, 0xF9,
    0x0C, 0x47, 0x2F, 0xDB, 0x2A, 0x69, 0x52, 0x4A, 0x0C, 0x68, 0xED, 0x2E,
    0x2A, 0x1C, 0xC8, 0x0B, 0x06, 0x18, 0x00, 0x33, 0xC6, 0x75, 0x01, 0x20,
    0xE6, 0xFC, 0xD3, 0xFA, 0x05, 0xEB, 0x44, 0x0F, 0x48, 0x4D, 0xDC, 0x00,
    0x0B, 0xEF, 0x13, 0x48, 0x0F, 0x24, 0x3F, 0x11, 0x52, 0xF2, 0xF7, 0xC3,
    0xCE, 0xC8, 0x20, 0x28, 0xB9, 0x73, 0x99, 0x15, 0x9E, 0xDD, 0xF3, 0xB4,
    0xF9, 0x16, 0x52, 0x11, 0x56, 0x60, 0xC6, 0xBB, 0xBF, 0xFD, 0xF2, 0x7F,
    0xF3, 0xF6, 0x2F, 0xE2, 0x1F, 0xEA, 0xF0, 0x0F, 0xC4, 0x0F, 0x57, 0xCC,
    0x08, 0x7E, 0xBB, 0x19, 0xB7, 0x1A, 0x17, 0xB3, 0xFF, 0x04, 0x29, 0xFD,
    0x3C, 0x50, 0xF5, 0xE9, 0xF1, 0xE0, 0xED, 0x52, 0xF1, 0xE5, 0x35, 0xCA,
    0xFC, 0xE0, 0x53, 0x0E, 0x18, 0x27, 0xF1, 0xD0, 0xEF, 0xB4, 0x22, 0x1B,
    0xDE, 0x35, 0x0F, 0xF9, 0xDC, 0xFF, 0xC6, 0x57, 0xE4, 0xFA, 0x07, 0x5A,
    0x50, 0xB5, 0x08, 0x12, 0x1C, 0x66, 0xD5, 0x0C, 0x27, 0x59, 0x24, 0x1F,
    0x7F, 0x5D, 0xD6, 0xBF, 0xD8, 0x36, 0xE5, 0x3D, 0xFB, 0x43, 0x4C, 0xEF,
    0x2B, 0xE1, 0x37, 0x2F, 0x4B, 0xDB, 0x20, 0x07, 0x59, 0x4D, 0x3E, 0x34,
    0x14, 0x1C, 0x11, 0x30, 0xE4, 0x7F, 0x4F, 0x71, 0x45, 0x1A, 0x07, 0x04,
    0xE6, 0xE6, 0x07, 0x32, 0xCC, 0xE1, 0x3A, 0x3A, 0x18, 0x75, 0x3B, 0xFA,
    0x42, 0x35, 0x30, 0xE5, 0xCA, 0x02, 0x4F, 0xF0, 0x2B, 0x04, 0x04, 0x03,
    0xF0, 0x5C, 0x79, 0x6A, 0x27, 0x63, 0xD3, 0xA1, 0xEF, 0xEC, 0x13, 0x64,
    0xF1, 0x49, 0x6E, 0x41, 0x09, 0x47, 0xF4, 0x57, 0xF9, 0xD4, 0x5D, 0x04,
    0x31, 0x01, 0x5E, 0x3B, 0x2A, 0x7F, 0x12, 0x4A, 0xF1, 0x1F, 0x2C, 0x28,
    0xEC, 0x31, 0xE4, 0xAF, 0xF1, 0x2B, 0x12, 0x3D, 0x4B, 0xF2, 0xD5, 0xEB,
    0x0F, 0x18, 0xF5, 0xD8, 0x09, 0x3A, 0xEB, 0xD8, 0x34, 0xE0, 0x1E, 0x2C,
    0x31, 0x02, 0xDE, 0xEF, 0xE1, 0x0F, 0x29, 0x09, 0x1E, 0xDF, 0x00, 0x11,
    0x2F, 0xE9, 0x2D, 0x1A, 0x21, 0xFE, 0xE5, 0xE7, 0x23, 0x15, 0xCE, 0x12,
    0xDE, 0xC2, 0xED, 0x09, 0xE0, 0x34, 0x12, 0xF6, 0x20, 0xE4, 0x12, 0xFB,
    0x34, 0x0D, 0xF3, 0xC1, 0xF7, 0xED, 0x1C, 0xD2, 0xBF, 0x41, 0xE1, 0xF6,
    0xBD, 0xD4, 0xDD, 0xDE, 0xD8, 0xCB, 0x46, 0xD0, 0x4C, 0x57, 0xEB, 0x13,
    0xFF, 0xF5, 0x18, 0x7F, 0x02, 0xDF, 0x35, 0x18, 0x35, 0x0F, 0x19, 0xEF,
    0xF6, 0xDB, 0x65, 0xDB, 0xC6, 0x54, 0xDD, 0xCA, 0xCE, 0x00, 0xFC, 0xDB,
    0xD1, 0x1B, 0x66, 0xD8, 0x67, 0x36, 0xDF, 0xDF, 0x02, 0xEA, 0xD8, 0x3B,
    0xEE, 0x16, 0x5E, 0xD7, 0x5C, 0x20, 0x15, 0xCF, 0x0D, 0x03, 0x3F, 0xE6,
    0xDD, 0x4B, 0xDF, 0x07, 0xC9, 0xF8, 0xBF, 0x28, 0x00, 0xF3, 0x2E, 0xCC,
    0x49, 0x67, 0xCA, 0x09, 0xEE, 0xE0, 0xC9, 0x2C, 0x1F, 0x1E, 0x18, 0xF2,
    0x8E, 0xFD, 0xFF, 0xFF, 0x04, 0x00, 0x00, 0x00, 0x40, 0x00, 0x00, 0x00,
    0xC4, 0xFF, 0xFF, 0xFF, 0x5A, 0x02, 0x00, 0x00, 0x72, 0x01, 0x00, 0x00,
    0x4E, 0x01, 0x00, 0x00, 0x4D, 0xFE, 0xFF, 0xFF, 0x77, 0xFF, 0xFF, 0xFF,
    0xC2, 0xFF, 0xFF, 0xFF, 0x9A, 0x01, 0x00, 0x00, 0x29, 0x00, 0x00, 0x00,
    0xE5, 0xFF, 0xFF, 0xFF, 0xAA, 0x01, 0x00, 0x00, 0x0B, 0x00, 0x00, 0x00,
    0x8B, 0xFF, 0xFF, 0xFF, 0x4C, 0x00, 0x00, 0x00, 0x46, 0x00, 0x00, 0x00,
    0xC3, 0xFF, 0xFF, 0xFF, 0xDA, 0xFD, 0xFF, 0xFF, 0x04, 0x00, 0x00, 0x00,
    0x00, 0x01, 0x00, 0x00, 0xF7, 0xA3, 0xE5, 0x05, 0x36, 0x7F, 0x31, 0xD0,
    0x2B, 0xFB, 0xE2, 0xDD, 0x42, 0xCE, 0xF9, 0x07, 0x70, 0x1C, 0x6F, 0x6C,
    0xFC, 0xBF, 0xB1, 0x35, 0x12, 0x0F, 0x7F, 0x12, 0xC4, 0x72, 0x33, 0xEC,
    0x5F, 0x7F, 0x4C, 0x78, 0xC0, 0xE2, 0xC1, 0x1A, 0xA3, 0x13, 0x70, 0x58,
    0x94, 0x0D, 0x4A, 0xD8, 0xDE, 0xC0, 0x0E, 0xCE, 0x56, 0x75, 0x34, 0xDA,
    0x7F, 0xB2, 0xCC, 0xAE, 0x7A, 0xFE, 0x22, 0x55, 0x5F, 0x38, 0x41, 0x1E,
    0x99, 0x8A, 0xB4, 0x6B, 0xBF, 0x51, 0x31, 0x58, 0x83, 0x45, 0x37, 0x81,
    0xE5, 0x6C, 0x1E, 0x33, 0xF8, 0x9D, 0x97, 0x55, 0x81, 0x36, 0x76, 0x11,
    0x9E, 0x73, 0x4F, 0xCB, 0xCD, 0xD5, 0xED, 0xF9, 0x57, 0x33, 0x4C, 0xCD,
    0xF7, 0xB7, 0xF7, 0xC4, 0x55, 0xF8, 0x81, 0x66, 0x81, 0xCD, 0xE0, 0xED,
    0x08, 0x33, 0x36, 0xF1, 0x0D, 0x9B, 0xF0, 0xDE, 0x19, 0xEB, 0xAA, 0x5B,
    0xAC, 0x06, 0xB0, 0xCD, 0x17, 0xE8, 0xDE, 0xDB, 0x4C, 0x9C, 0xE0, 0x81,
    0x4E, 0xBA, 0xE5, 0x21, 0xDA, 0xD1, 0xF8, 0x13, 0xC5, 0x6C, 0xE4, 0xEB,
    0x67, 0xA1, 0xE9, 0xA4, 0xE2, 0xD4, 0x9F, 0x7F, 0xB2, 0xD0, 0xF5, 0xE8,
    0x06, 0xE7, 0x25, 0xDE, 0x35, 0x9A, 0x06, 0xA6, 0x51, 0xDE, 0x81, 0x38,
    0x01, 0xD9, 0xFD, 0xA9, 0x28, 0x7F, 0x59, 0xF0, 0x4F, 0x08, 0xE0, 0x02,
    0xE6, 0xD8, 0xE3, 0x66, 0xB3, 0xD3, 0xD4, 0x81, 0x6C, 0x11, 0x51, 0xAD,
    0x4B, 0xCD, 0xFC, 0xB5, 0x24, 0xED, 0xBC, 0x00, 0xB2, 0xBE, 0xEC, 0xF0,
    0x5B, 0x69, 0xF7, 0xB6, 0x30, 0x81, 0xAD, 0xA6, 0x09, 0xA1, 0x92, 0x11,
    0x81, 0xCA, 0xE6, 0xDE, 0x34, 0x4D, 0x13, 0xF4, 0x25, 0xA6, 0xD9, 0xA2,
    0x28, 0xC4, 0x8B, 0x57, 0x79, 0x4C, 0x65, 0x43, 0xA1, 0x81, 0xCB, 0x50,
    0xE3, 0x21, 0x1E, 0x36, 0x95, 0x7F, 0x59, 0xC0, 0xE6, 0xFE, 0xFF, 0xFF,
    0x04, 0x00, 0x00, 0x00, 0x40, 0x00, 0x00, 0x00, 0x00, 0x01, 0x00, 0x00,
    0xF4, 0xFF, 0xFF, 0xFF, 0x20, 0x00, 0x00, 0x00, 0x07, 0x04, 0x00, 0x00,
    0xED, 0xFF, 0xFF, 0xFF, 0xA0, 0xFF, 0xFF, 0xFF, 0xEA, 0x02, 0x00, 0x00,
    0xC8, 0x02, 0x00, 0x00, 0xC1, 0x02, 0x00, 0x00, 0x9C, 0x02, 0x00, 0x00,
    0x74, 0x03, 0x00, 0x00, 0xE3, 0x02, 0x00, 0x00, 0x4D, 0x02, 0x00, 0x00,
    0x11, 0x02, 0x00, 0x00, 0xC3, 0x02, 0x00, 0x00, 0x01, 0x00, 0x00, 0x00,
    0x32, 0xFF, 0xFF, 0xFF, 0x04, 0x00, 0x00, 0x00, 0x10, 0x00, 0x00, 0x00,
    0x47, 0xD4, 0xC0, 0x21, 0xB8, 0xB8, 0x47, 0x45, 0x4A, 0x41, 0x5D, 0x26,
    0x23, 0x4D, 0x7F, 0xC4, 0x4E, 0xFF, 0xFF, 0xFF, 0x04, 0x00, 0x00, 0x00,
    0x04, 0x00, 0x00, 0x00, 0x61, 0xFE, 0xFF, 0xFF, 0x5E, 0xFF, 0xFF, 0xFF,
    0x04, 0x00, 0x00, 0x00, 0x0C, 0x00, 0x00, 0x00, 0xFF, 0xFF, 0xFF, 0xFF,
    0x12, 0x00, 0x00, 0x00, 0x10, 0x00, 0x00, 0x00, 0x76, 0xFF, 0xFF, 0xFF,
    0x04, 0x00, 0x00, 0x00, 0x0C, 0x00, 0x00, 0x00, 0xFF, 0xFF, 0xFF, 0xFF,
    0x12, 0x00, 0x00, 0x00, 0x20, 0x00, 0x00, 0x00, 0x8E, 0xFF, 0xFF, 0xFF,
    0x04, 0x00, 0x00, 0x00, 0x0C, 0x00, 0x00, 0x00, 0xFF, 0xFF, 0xFF, 0xFF,
    0x25, 0x00, 0x00, 0x00, 0x20, 0x00, 0x00, 0x00, 0xA6, 0xFF, 0xFF, 0xFF,
    0x04, 0x00, 0x00, 0x00, 0x0C, 0x00, 0x00, 0x00, 0xFF, 0xFF, 0xFF, 0xFF,
    0x4B, 0x00, 0x00, 0x00, 0x20, 0x00, 0x00, 0x00, 0xBE, 0xFF, 0xFF, 0xFF,
    0x04, 0x00, 0x00, 0x00, 0x0C, 0x00, 0x00, 0x00, 0xFF, 0xFF, 0xFF, 0xFF,
    0x4B, 0x00, 0x00, 0x00, 0x10, 0x00, 0x00, 0x00, 0xD6, 0xFF, 0xFF, 0xFF,
    0x04, 0x00, 0x00, 0x00, 0x04, 0x00, 0x00, 0x00, 0x01, 0x00, 0x00, 0x00,
    0xE6, 0xFF, 0xFF, 0xFF, 0x04, 0x00, 0x00, 0x00, 0x0C, 0x00, 0x00, 0x00,
    0xFF, 0xFF, 0xFF, 0xFF, 0x96, 0x00, 0x00, 0x00, 0x10, 0x00, 0x00, 0x00,
    0x00, 0x00, 0x06, 0x00, 0x08, 0x00, 0x04, 0x00, 0x06, 0x00, 0x00, 0x00,
    0x04, 0x00, 0x00, 0x00, 0x04, 0x00, 0x00, 0x00, 0xFD, 0xFF, 0xFF, 0xFF,
    0xB8, 0xC2, 0xFF, 0xFF, 0xBC, 0xC2, 0xFF, 0xFF, 0x0F, 0x00, 0x00, 0x00,
    0x4D, 0x4C, 0x49, 0x52, 0x20, 0x43, 0x6F, 0x6E, 0x76, 0x65, 0x72, 0x74,
    0x65, 0x64, 0x2E, 0x00, 0x01, 0x00, 0x00, 0x00, 0x14, 0x00, 0x00, 0x00,
    0x00, 0x00, 0x0E, 0x00, 0x18, 0x00, 0x14, 0x00, 0x10, 0x00, 0x0C, 0x00,
    0x08, 0x00, 0x04, 0x00, 0x0E, 0x00, 0x00, 0x00, 0x14, 0x00, 0x00, 0x00,
    0x1C, 0x00, 0x00, 0x00, 0xC4, 0x06, 0x00, 0x00, 0xC8, 0x06, 0x00, 0x00,
    0xCC, 0x06, 0x00, 0x00, 0x04, 0x00, 0x00, 0x00, 0x6D, 0x61, 0x69, 0x6E,
    0x00, 0x00, 0x00, 0x00, 0x1F, 0x00, 0x00, 0x00, 0x7C, 0x06, 0x00, 0x00,
    0x1C, 0x06, 0x00, 0x00, 0xD8, 0x05, 0x00, 0x00, 0xA4, 0x05, 0x00, 0x00,
    0x7C, 0x05, 0x00, 0x00, 0x40, 0x05, 0x00, 0x00, 0xEC, 0x04, 0x00, 0x00,
    0xB4, 0x04, 0x00, 0x00, 0x84, 0x04, 0x00, 0x00, 0x40, 0x04, 0x00, 0x00,
    0x0C, 0x04, 0x00, 0x00, 0xD8, 0x03, 0x00, 0x00, 0xB0, 0x03, 0x00, 0x00,
    0x80, 0x03, 0x00, 0x00, 0x3C, 0x03, 0x00, 0x00, 0x14, 0x03, 0x00, 0x00,
    0xE4, 0x02, 0x00, 0x00, 0xA0, 0x02, 0x00, 0x00, 0x6C, 0x02, 0x00, 0x00,
    0x38, 0x02, 0x00, 0x00, 0x10, 0x02, 0x00, 0x00, 0xE0, 0x01, 0x00, 0x00,
    0x9C, 0x01, 0x00, 0x00, 0x74, 0x01, 0x00, 0x00, 0x44, 0x01, 0x00, 0x00,
    0x00, 0x01, 0x00, 0x00, 0xD8, 0x00, 0x00, 0x00, 0xA4, 0x00, 0x00, 0x00,
    0x60, 0x00, 0x00, 0x00, 0x28, 0x00, 0x00, 0x00, 0x04, 0x00, 0x00, 0x00,
    0xFA, 0xFA, 0xFF, 0xFF, 0x0C, 0x00, 0x00, 0x00, 0x10, 0x00, 0x00, 0x00,
    0x08, 0x00, 0x00, 0x00, 0x01, 0x00, 0x00, 0x00, 0x39, 0x00, 0x00, 0x00,
    0x01, 0x00, 0x00, 0x00, 0x38, 0x00, 0x00, 0x00, 0x8A, 0xFA, 0xFF, 0xFF,
    0x14, 0x00, 0x00, 0x00, 0x00, 0x00, 0x00, 0x08, 0x10, 0x00, 0x00, 0x00,
    0x14, 0x00, 0x00, 0x00, 0x07, 0x00, 0x00, 0x00, 0xC8, 0xC3, 0xFF, 0xFF,
    0x01, 0x00, 0x00, 0x00, 0x38, 0x00, 0x00, 0x00, 0x03, 0x00, 0x00, 0x00,
    0x37, 0x00, 0x00, 0x00, 0x0A, 0x00, 0x00, 0x00, 0x09, 0x00, 0x00, 0x00,
    0xDA, 0xFB, 0xFF, 0xFF, 0x1C, 0x00, 0x00, 0x00, 0x00, 0x00, 0x00, 0x08,
    0x1C, 0x00, 0x00, 0x00, 0x20, 0x00, 0x00, 0x00, 0x07, 0x00, 0x00, 0x00,
    0x00, 0x00, 0x06, 0x00, 0x08, 0x00, 0x07, 0x00, 0x06, 0x00, 0x00, 0x00,
    0x00, 0x00, 0x00, 0x01, 0x01, 0x00, 0x00, 0x00, 0x37, 0x00, 0x00, 0x00,
    0x03, 0x00, 0x00, 0x00, 0x36, 0x00, 0x00, 0x00, 0x0C, 0x00, 0x00, 0x00,
    0x0B, 0x00, 0x00, 0x00, 0xFE, 0xFA, 0xFF, 0xFF, 0x14, 0x00, 0x00, 0x00,
    0x00, 0x00, 0x00, 0x1B, 0x10, 0x00, 0x00, 0x00, 0x14, 0x00, 0x00, 0x00,
    0x06, 0x00, 0x00, 0x00, 0x3C, 0xC4, 0xFF, 0xFF, 0x01, 0x00, 0x00, 0x00,
    0x36, 0x00, 0x00, 0x00, 0x02, 0x00, 0x00, 0x00, 0x35, 0x00, 0x00, 0x00,
    0x03, 0x00, 0x00, 0x00, 0xBE, 0xFB, 0xFF, 0xFF, 0x0C, 0x00, 0x00, 0x00,
    0x10, 0x00, 0x00, 0x00, 0x04, 0x00, 0x00, 0x00, 0x01, 0x00, 0x00, 0x00,
    0x35, 0x00, 0x00, 0x00, 0x02, 0x00, 0x00, 0x00, 0x34, 0x00, 0x00, 0x00,
    0x08, 0x00, 0x00, 0x00, 0x52, 0xFB, 0xFF, 0xFF, 0x14, 0x00, 0x00, 0x00,
    0x00, 0x00, 0x00, 0x01, 0x1C, 0x00, 0x00, 0x00, 0x20, 0x00, 0x00, 0x00,
    0x01, 0x00, 0x00, 0x00, 0x44, 0xFB, 0xFF, 0xFF, 0x00, 0x00, 0x00, 0x01,
    0x01, 0x00, 0x00, 0x00, 0x01, 0x00, 0x00, 0x00, 0x01, 0x00, 0x00, 0x00,
    0x34, 0x00, 0x00, 0x00, 0x03, 0x00, 0x00, 0x00, 0x33, 0x00, 0x00, 0x00,
    0x0E, 0x00, 0x00, 0x00, 0x0D, 0x00, 0x00, 0x00, 0x36, 0xFB, 0xFF, 0xFF,
    0x10, 0x00, 0x00, 0x00, 0x00, 0x00, 0x00, 0x34, 0x0C, 0x00, 0x00, 0x00,
    0x10, 0x00, 0x00, 0x00, 0xCC, 0xC4, 0xFF, 0xFF, 0x01, 0x00, 0x00, 0x00,
    0x33, 0x00, 0x00, 0x00, 0x02, 0x00, 0x00, 0x00, 0x32, 0x00, 0x00, 0x00,
    0x01, 0x00, 0x00, 0x00, 0x4E, 0xFC, 0xFF, 0xFF, 0x0C, 0x00, 0x00, 0x00,
    0x10, 0x00, 0x00, 0x00, 0x04, 0x00, 0x00, 0x00, 0x01, 0x00, 0x00, 0x00,
    0x32, 0x00, 0x00, 0x00, 0x02, 0x00, 0x00, 0x00, 0x31, 0x00, 0x00, 0x00,
    0x07, 0x00, 0x00, 0x00, 0xE2, 0xFB, 0xFF, 0xFF, 0x14, 0x00, 0x00, 0x00,
    0x00, 0x00, 0x00, 0x05, 0x24, 0x00, 0x00, 0x00, 0x28, 0x00, 0x00, 0x00,
    0x05, 0x00, 0x00, 0x00, 0xEE, 0xFC, 0xFF, 0xFF, 0x01, 0x00, 0x00, 0x00,
    0x02, 0x00, 0x00, 0x00, 0x01, 0x00, 0x00, 0x00, 0x02, 0x00, 0x00, 0x00,
    0x00, 0x00, 0x00, 0x01, 0x01, 0x00, 0x00, 0x00, 0x31, 0x00, 0x00, 0x00,
    0x01, 0x00, 0x00, 0x00, 0x30, 0x00, 0x00, 0x00, 0xC6, 0xFB, 0xFF, 0xFF,
    0x10, 0x00, 0x00, 0x00, 0x00, 0x00, 0x00, 0x34, 0x0C, 0x00, 0x00, 0x00,
    0x10, 0x00, 0x00, 0x00, 0x5C, 0xC5, 0xFF, 0xFF, 0x01, 0x00, 0x00, 0x00,
    0x30, 0x00, 0x00, 0x00, 0x02, 0x00, 0x00, 0x00, 0x2F, 0x00, 0x00, 0x00,
    0x03, 0x00, 0x00, 0x00, 0xDE, 0xFC, 0xFF, 0xFF, 0x0C, 0x00, 0x00, 0x00,
    0x10, 0x00, 0x00, 0x00, 0x04, 0x00, 0x00, 0x00, 0x01, 0x00, 0x00, 0x00,
    0x2F, 0x00, 0x00, 0x00, 0x02, 0x00, 0x00, 0x00, 0x2E, 0x00, 0x00, 0x00,
    0x06, 0x00, 0x00, 0x00, 0x72, 0xFC, 0xFF, 0xFF, 0x14, 0x00, 0x00, 0x00,
    0x00, 0x00, 0x00, 0x0B, 0x10, 0x00, 0x00, 0x00, 0x14, 0x00, 0x00, 0x00,
    0x03, 0x00, 0x00, 0x00, 0xB0, 0xC5, 0xFF, 0xFF, 0x01, 0x00, 0x00, 0x00,
    0x2E, 0x00, 0x00, 0x00, 0x02, 0x00, 0x00, 0x00, 0x2D, 0x00, 0x00, 0x00,
    0x0F, 0x00, 0x00, 0x00, 0xA2, 0xFC, 0xFF, 0xFF, 0x14, 0x00, 0x00, 0x00,
    0x00, 0x00, 0x00, 0x15, 0x10, 0x00, 0x00, 0x00, 0x14, 0x00, 0x00, 0x00,
    0x02, 0x00, 0x00, 0x00, 0xE0, 0xC5, 0xFF, 0xFF, 0x01, 0x00, 0x00, 0x00,
    0x2D, 0x00, 0x00, 0x00, 0x02, 0x00, 0x00, 0x00, 0x2C, 0x00, 0x00, 0x00,
    0x10, 0x00, 0x00, 0x00, 0xD2, 0xFC, 0xFF, 0xFF, 0x14, 0x00, 0x00, 0x00,
    0x00, 0x00, 0x00, 0x01, 0x1C, 0x00, 0x00, 0x00, 0x20, 0x00, 0x00, 0x00,
    0x01, 0x00, 0x00, 0x00, 0xC4, 0xFC, 0xFF, 0xFF, 0x00, 0x00, 0x00, 0x01,
    0x01, 0x00, 0x00, 0x00, 0x01, 0x00, 0x00, 0x00, 0x01, 0x00, 0x00, 0x00,
    0x2C, 0x00, 0x00, 0x00, 0x03, 0x00, 0x00, 0x00, 0x2B, 0x00, 0x00, 0x00,
    0x12, 0x00, 0x00, 0x00, 0x11, 0x00, 0x00, 0x00, 0xB6, 0xFC, 0xFF, 0xFF,
    0x10, 0x00, 0x00, 0x00, 0x00, 0x00, 0x00, 0x34, 0x0C, 0x00, 0x00, 0x00,
    0x10, 0x00, 0x00, 0x00, 0x4C, 0xC6, 0xFF, 0xFF, 0x01, 0x00, 0x00, 0x00,
    0x2B, 0x00, 0x00, 0x00, 0x02, 0x00, 0x00, 0x00, 0x2A, 0x00, 0x00, 0x00,
    0x01, 0x00, 0x00, 0x00, 0xCE, 0xFD, 0xFF, 0xFF, 0x0C, 0x00, 0x00, 0x00,
    0x10, 0x00, 0x00, 0x00, 0x04, 0x00, 0x00, 0x00, 0x01, 0x00, 0x00, 0x00,
    0x2A, 0x00, 0x00, 0x00, 0x02, 0x00, 0x00, 0x00, 0x29, 0x00, 0x00, 0x00,
    0x06, 0x00, 0x00, 0x00, 0x62, 0xFD, 0xFF, 0xFF, 0x14, 0x00, 0x00, 0x00,
    0x00, 0x00, 0x00, 0x05, 0x24, 0x00, 0x00, 0x00, 0x28, 0x00, 0x00, 0x00,
    0x05, 0x00, 0x00, 0x00, 0x6E, 0xFE, 0xFF, 0xFF, 0x01, 0x00, 0x00, 0x00,
    0x02, 0x00, 0x00, 0x00, 0x01, 0x00, 0x00, 0x00, 0x02, 0x00, 0x00, 0x00,
    0x00, 0x00, 0x00, 0x01, 0x01, 0x00, 0x00, 0x00, 0x29, 0x00, 0x00, 0x00,
    0x01, 0x00, 0x00, 0x00, 0x28, 0x00, 0x00, 0x00, 0x46, 0xFD, 0xFF, 0xFF,
    0x10, 0x00, 0x00, 0x00, 0x00, 0x00, 0x00, 0x34, 0x0C, 0x00, 0x00, 0x00,
    0x10, 0x00, 0x00, 0x00, 0xDC, 0xC6, 0xFF, 0xFF, 0x01, 0x00, 0x00, 0x00,
    0x28, 0x00, 0x00, 0x00, 0x02, 0x00, 0x00, 0x00, 0x27, 0x00, 0x00, 0x00,
    0x03, 0x00, 0x00, 0x00, 0x5E, 0xFE, 0xFF, 0xFF, 0x0C, 0x00, 0x00, 0x00,
    0x10, 0x00, 0x00, 0x00, 0x04, 0x00, 0x00, 0x00, 0x01, 0x00, 0x00, 0x00,
    0x27, 0x00, 0x00, 0x00, 0x02, 0x00, 0x00, 0x00, 0x26, 0x00, 0x00, 0x00,
    0x05, 0x00, 0x00, 0x00, 0xF2, 0xFD, 0xFF, 0xFF, 0x14, 0x00, 0x00, 0x00,
    0x00, 0x00, 0x00, 0x0B, 0x10, 0x00, 0x00, 0x00, 0x14, 0x00, 0x00, 0x00,
    0x03, 0x00, 0x00, 0x00, 0x30, 0xC7, 0xFF, 0xFF, 0x01, 0x00, 0x00, 0x00,
    0x26, 0x00, 0x00, 0x00, 0x02, 0x00, 0x00, 0x00, 0x25, 0x00, 0x00, 0x00,
    0x13, 0x00, 0x00, 0x00, 0x22, 0xFE, 0xFF, 0xFF, 0x14, 0x00, 0x00, 0x00,
    0x00, 0x00, 0x00, 0x15, 0x10, 0x00, 0x00, 0x00, 0x14, 0x00, 0x00, 0x00,
    0x02, 0x00, 0x00, 0x00, 0x60, 0xC7, 0xFF, 0xFF, 0x01, 0x00, 0x00, 0x00,
    0x25, 0x00, 0x00, 0x00, 0x02, 0x00, 0x00, 0x00, 0x24, 0x00, 0x00, 0x00,
    0x14, 0x00, 0x00, 0x00, 0x52, 0xFE, 0xFF, 0xFF, 0x14, 0x00, 0x00, 0x00,
    0x00, 0x00, 0x00, 0x01, 0x1C, 0x00, 0x00, 0x00, 0x20, 0x00, 0x00, 0x00,
    0x01, 0x00, 0x00, 0x00, 0x44, 0xFE, 0xFF, 0xFF, 0x00, 0x00, 0x00, 0x01,
    0x01, 0x00, 0x00, 0x00, 0x01, 0x00, 0x00, 0x00, 0x01, 0x00, 0x00, 0x00,
    0x24, 0x00, 0x00, 0x00, 0x03, 0x00, 0x00, 0x00, 0x23, 0x00, 0x00, 0x00,
    0x16, 0x00, 0x00, 0x00, 0x15, 0x00, 0x00, 0x00, 0x36, 0xFE, 0xFF, 0xFF,
    0x10, 0x00, 0x00, 0x00, 0x00, 0x00, 0x00, 0x34, 0x0C, 0x00, 0x00, 0x00,
    0x10, 0x00, 0x00, 0x00, 0xCC, 0xC7, 0xFF, 0xFF, 0x01, 0x00, 0x00, 0x00,
    0x23, 0x00, 0x00, 0x00, 0x02, 0x00, 0x00, 0x00, 0x22, 0x00, 0x00, 0x00,
    0x01, 0x00, 0x00, 0x00, 0x4E, 0xFF, 0xFF, 0xFF, 0x0C, 0x00, 0x00, 0x00,
    0x10, 0x00, 0x00, 0x00, 0x04, 0x00, 0x00, 0x00, 0x01, 0x00, 0x00, 0x00,
    0x22, 0x00, 0x00, 0x00, 0x02, 0x00, 0x00, 0x00, 0x21, 0x00, 0x00, 0x00,
    0x04, 0x00, 0x00, 0x00, 0x00, 0x00, 0x0E, 0x00, 0x1A, 0x00, 0x14, 0x00,
    0x10, 0x00, 0x0C, 0x00, 0x0B, 0x00, 0x04, 0x00, 0x0E, 0x00, 0x00, 0x00,
    0x24, 0x00, 0x00, 0x00, 0x00, 0x00, 0x00, 0x05, 0x34, 0x00, 0x00, 0x00,
    0x38, 0x00, 0x00, 0x00, 0x05, 0x00, 0x00, 0x00, 0x00, 0x00, 0x0E, 0x00,
    0x18, 0x00, 0x17, 0x00, 0x10, 0x00, 0x0C, 0x00, 0x08, 0x00, 0x04, 0x00,
    0x0E, 0x00, 0x00, 0x00, 0x01, 0x00, 0x00, 0x00, 0x02, 0x00, 0x00, 0x00,
    0x01, 0x00, 0x00, 0x00, 0x02, 0x00, 0x00, 0x00, 0x00, 0x00, 0x00, 0x01,
    0x01, 0x00, 0x00, 0x00, 0x21, 0x00, 0x00, 0x00, 0x01, 0x00, 0x00, 0x00,
    0x20, 0x00, 0x00, 0x00, 0xE6, 0xFE, 0xFF, 0xFF, 0x10, 0x00, 0x00, 0x00,
    0x00, 0x00, 0x00, 0x34, 0x0C, 0x00, 0x00, 0x00, 0x10, 0x00, 0x00, 0x00,
    0x7C, 0xC8, 0xFF, 0xFF, 0x01, 0x00, 0x00, 0x00, 0x20, 0x00, 0x00, 0x00,
    0x02, 0x00, 0x00, 0x00, 0x1F, 0x00, 0x00, 0x00, 0x03, 0x00, 0x00, 0x00,
    0x00, 0x00, 0x0A, 0x00, 0x10, 0x00, 0x0C, 0x00, 0x08, 0x00, 0x04, 0x00,
    0x0A, 0x00, 0x00, 0x00, 0x0C, 0x00, 0x00, 0x00, 0x10, 0x00, 0x00, 0x00,
    0x04, 0x00, 0x00, 0x00, 0x01, 0x00, 0x00, 0x00, 0x1F, 0x00, 0x00, 0x00,
    0x02, 0x00, 0x00, 0x00, 0x1E, 0x00, 0x00, 0x00, 0x02, 0x00, 0x00, 0x00,
    0x9E, 0xFF, 0xFF, 0xFF, 0x14, 0x00, 0x00, 0x00, 0x00, 0x00, 0x00, 0x0B,
    0x10, 0x00, 0x00, 0x00, 0x14, 0x00, 0x00, 0x00, 0x03, 0x00, 0x00, 0x00,
    0xDC, 0xC8, 0xFF, 0xFF, 0x01, 0x00, 0x00, 0x00, 0x1E, 0x00, 0x00, 0x00,
    0x02, 0x00, 0x00, 0x00, 0x1D, 0x00, 0x00, 0x00, 0x17, 0x00, 0x00, 0x00,
    0xCE, 0xFF, 0xFF, 0xFF, 0x14, 0x00, 0x00, 0x00, 0x00, 0x00, 0x00, 0x15,
    0x10, 0x00, 0x00, 0x00, 0x14, 0x00, 0x00, 0x00, 0x02, 0x00, 0x00, 0x00,
    0x0C, 0xC9, 0xFF, 0xFF, 0x01, 0x00, 0x00, 0x00, 0x1D, 0x00, 0x00, 0x00,
    0x02, 0x00, 0x00, 0x00, 0x1C, 0x00, 0x00, 0x00, 0x18, 0x00, 0x00, 0x00,
    0x00, 0x00, 0x0E, 0x00, 0x18, 0x00, 0x14, 0x00, 0x10, 0x00, 0x0C, 0x00,
    0x0B, 0x00, 0x04, 0x00, 0x0E, 0x00, 0x00, 0x00, 0x20, 0x00, 0x00, 0x00,
    0x00, 0x00, 0x00, 0x01, 0x28, 0x00, 0x00, 0x00, 0x2C, 0x00, 0x00, 0x00,
    0x01, 0x00, 0x00, 0x00, 0x0C, 0x00, 0x10, 0x00, 0x00, 0x00, 0x0C, 0x00,
    0x08, 0x00, 0x07, 0x00, 0x0C, 0x00, 0x00, 0x00, 0x00, 0x00, 0x00, 0x01,
    0x01, 0x00, 0x00, 0x00, 0x01, 0x00, 0x00, 0x00, 0x01, 0x00, 0x00, 0x00,
    0x1C, 0x00, 0x00, 0x00, 0x03, 0x00, 0x00, 0x00, 0x1B, 0x00, 0x00, 0x00,
    0x1A, 0x00, 0x00, 0x00, 0x19, 0x00, 0x00, 0x00, 0x00, 0x00, 0x0E, 0x00,
    0x14, 0x00, 0x00, 0x00, 0x10, 0x00, 0x0C, 0x00, 0x0B, 0x00, 0x04, 0x00,
    0x0E, 0x00, 0x00, 0x00, 0x10, 0x00, 0x00, 0x00, 0x00, 0x00, 0x00, 0x34,
    0x0C, 0x00, 0x00, 0x00, 0x10, 0x00, 0x00, 0x00, 0xA4, 0xC9, 0xFF, 0xFF,
    0x01, 0x00, 0x00, 0x00, 0x1B, 0x00, 0x00, 0x00, 0x02, 0x00, 0x00, 0x00,
    0x00, 0x00, 0x00, 0x00, 0x01, 0x00, 0x00, 0x00, 0x01, 0x00, 0x00, 0x00,
    0x39, 0x00, 0x00, 0x00, 0x01, 0x00, 0x00, 0x00, 0x00, 0x00, 0x00, 0x00,
    0x3A, 0x00, 0x00, 0x00, 0x68, 0x36, 0x00, 0x00, 0x10, 0x36, 0x00, 0x00,
    0x9C, 0x35, 0x00, 0x00, 0x60, 0x35, 0x00, 0x00, 0x00, 0x35, 0x00, 0x00,
    0xA4, 0x34, 0x00, 0x00, 0x64, 0x34, 0x00, 0x00, 0x00, 0x34, 0x00, 0x00,
    0xA4, 0x33, 0x00, 0x00, 0x3C, 0x33, 0x00, 0x00, 0xC8, 0x32, 0x00, 0x00,
    0x8C, 0x31, 0x00, 0x00, 0x68, 0x30, 0x00, 0x00, 0xB4, 0x2E, 0x00, 0x00,
    0x80, 0x2D, 0x00, 0x00, 0xFC, 0x2C, 0x00, 0x00, 0x78, 0x2C, 0x00, 0x00,
    0x04, 0x2A, 0x00, 0x00, 0x10, 0x28, 0x00, 0x00, 0x8C, 0x27, 0x00, 0x00,
    0x08, 0x27, 0x00, 0x00, 0x94, 0x24, 0x00, 0x00, 0xA0, 0x22, 0x00, 0x00,
    0x1C, 0x22, 0x00, 0x00, 0x98, 0x21, 0x00, 0x00, 0xF4, 0x1F, 0x00, 0x00,
    0xC0, 0x1E, 0x00, 0x00, 0x1C, 0x1E, 0x00, 0x00, 0x08, 0x1D, 0x00, 0x00,
    0xAC, 0x1B, 0x00, 0x00, 0xF0, 0x19, 0x00, 0x00, 0x38, 0x18, 0x00, 0x00,
    0x90, 0x17, 0x00, 0x00, 0xF4, 0x16, 0x00, 0x00, 0x5C, 0x16, 0x00, 0x00,
    0xBC, 0x15, 0x00, 0x00, 0x98, 0x14, 0x00, 0x00, 0x34, 0x13, 0x00, 0x00,
    0x68, 0x11, 0x00, 0x00, 0xA0, 0x0F, 0x00, 0x00, 0xF8, 0x0E, 0x00, 0x00,
    0x5C, 0x0E, 0x00, 0x00, 0xBC, 0x0D, 0x00, 0x00, 0x1C, 0x0D, 0x00, 0x00,
    0xF8, 0x0B, 0x00, 0x00, 0x94, 0x0A, 0x00, 0x00, 0xC8, 0x08, 0x00, 0x00,
    0x00, 0x07, 0x00, 0x00, 0x58, 0x06, 0x00, 0x00, 0xBC, 0x05, 0x00, 0x00,
    0x1C, 0x05, 0x00, 0x00, 0x7C, 0x04, 0x00, 0x00, 0x58, 0x03, 0x00, 0x00,
    0x60, 0x02, 0x00, 0x00, 0xD0, 0x01, 0x00, 0x00, 0x1C, 0x01, 0x00, 0x00,
    0x80, 0x00, 0x00, 0x00, 0x04, 0x00, 0x00, 0x00, 0x96, 0xCA, 0xFF, 0xFF,
    0x00, 0x00, 0x00, 0x01, 0x18, 0x00, 0x00, 0x00, 0x20, 0x00, 0x00, 0x00,
    0x3C, 0x00, 0x00, 0x00, 0x3A, 0x00, 0x00, 0x00, 0x00, 0x00, 0x00, 0x09,
    0x50, 0x00, 0x00, 0x00, 0x02, 0x00, 0x00, 0x00, 0xFF, 0xFF, 0xFF, 0xFF,
    0x01, 0x00, 0x00, 0x00, 0x7C, 0xCA, 0xFF, 0xFF, 0x08, 0x00, 0x00, 0x00,
    0x10, 0x00, 0x00, 0x00, 0x01, 0x00, 0x00, 0x00, 0x80, 0xFF, 0xFF, 0xFF,
    0xFF, 0xFF, 0xFF, 0xFF, 0x01, 0x00, 0x00, 0x00, 0x00, 0x00, 0x80, 0x3B,
    0x1B, 0x00, 0x00, 0x00, 0x53, 0x74, 0x61, 0x74, 0x65, 0x66, 0x75, 0x6C,
    0x50, 0x61, 0x72, 0x74, 0x69, 0x74, 0x69, 0x6F, 0x6E, 0x65, 0x64, 0x43,
    0x61, 0x6C, 0x6C, 0x5F, 0x31, 0x3A, 0x30, 0x00, 0x02, 0x00, 0x00, 0x00,
    0x01, 0x00, 0x00, 0x00, 0x01, 0x00, 0x00, 0x00, 0x0E, 0xCB, 0xFF, 0xFF,
    0x00, 0x00, 0x00, 0x01, 0x18, 0x00, 0x00, 0x00, 0x20, 0x00, 0x00, 0x00,
    0x3C, 0x00, 0x00, 0x00, 0x39, 0x00, 0x00, 0x00, 0x00, 0x00, 0x00, 0x09,
    0x70, 0x00, 0x00, 0x00, 0x02, 0x00, 0x00, 0x00, 0xFF, 0xFF, 0xFF, 0xFF,
    0x01, 0x00, 0x00, 0x00, 0xF4, 0xCA, 0xFF, 0xFF, 0x08, 0x00, 0x00, 0x00,
    0x10, 0x00, 0x00, 0x00, 0x01, 0x00, 0x00, 0x00, 0xE9, 0xFF, 0xFF, 0xFF,
    0xFF, 0xFF, 0xFF, 0xFF, 0x01, 0x00, 0x00, 0x00, 0x3F, 0xF7, 0xC1, 0x3F,
    0x38, 0x00, 0x00, 0x00, 0x73, 0x65, 0x71, 0x75, 0x65, 0x6E, 0x74, 0x69,
    0x61, 0x6C, 0x5F, 0x31, 0x2F, 0x64, 0x65, 0x6E, 0x73, 0x65, 0x5F, 0x31,
    0x5F, 0x32, 0x2F, 0x4D, 0x61, 0x74, 0x4D, 0x75, 0x6C, 0x3B, 0x73, 0x65,
    0x71, 0x75, 0x65, 0x6E, 0x74, 0x69, 0x61, 0x6C, 0x5F, 0x31, 0x2F, 0x64,
    0x65, 0x6E, 0x73, 0x65, 0x5F, 0x31, 0x5F, 0x32, 0x2F, 0x41, 0x64, 0x64,
    0x00, 0x00, 0x00, 0x00, 0x02, 0x00, 0x00, 0x00, 0x01, 0x00, 0x00, 0x00,
    0x01, 0x00, 0x00, 0x00, 0xA6, 0xCB, 0xFF, 0xFF, 0x00, 0x00, 0x00, 0x01,
    0x18, 0x00, 0x00, 0x00, 0x20, 0x00, 0x00, 0x00, 0x3C, 0x00, 0x00, 0x00,
    0x38, 0x00, 0x00, 0x00, 0x00, 0x00, 0x00, 0x09, 0x88, 0x00, 0x00, 0x00,
    0x02, 0x00, 0x00, 0x00, 0xFF, 0xFF, 0xFF, 0xFF, 0x10, 0x00, 0x00, 0x00,
    0x8C, 0xCB, 0xFF, 0xFF, 0x08, 0x00, 0x00, 0x00, 0x10, 0x00, 0x00, 0x00,
    0x01, 0x00, 0x00, 0x00, 0x80, 0xFF, 0xFF, 0xFF, 0xFF, 0xFF, 0xFF, 0xFF,
    0x01, 0x00, 0x00, 0x00, 0xD6, 0x97, 0x88, 0x3E, 0x52, 0x00, 0x00, 0x00,
    0x73, 0x65, 0x71, 0x75, 0x65, 0x6E, 0x74, 0x69, 0x61, 0x6C, 0x5F, 0x31,
    0x2F, 0x64, 0x65, 0x6E, 0x73, 0x65, 0x5F, 0x31, 0x2F, 0x4D, 0x61, 0x74,
    0x4D, 0x75, 0x6C, 0x3B, 0x73, 0x65, 0x71, 0x75, 0x65, 0x6E, 0x74, 0x69,
    0x61, 0x6C, 0x5F, 0x31, 0x2F, 0x64, 0x65, 0x6E, 0x73, 0x65, 0x5F, 0x31,
    0x2F, 0x52, 0x65, 0x6C, 0x75, 0x3B, 0x73, 0x65, 0x71, 0x75, 0x65, 0x6E,
    0x74, 0x69, 0x61, 0x6C, 0x5F, 0x31, 0x2F, 0x64, 0x65, 0x6E, 0x73, 0x65,
    0x5F, 0x31, 0x2F, 0x42, 0x69, 0x61, 0x73, 0x41, 0x64, 0x64, 0x00, 0x00,
    0x02, 0x00, 0x00, 0x00, 0x01, 0x00, 0x00, 0x00, 0x10, 0x00, 0x00, 0x00,
    0x56, 0xCC, 0xFF, 0xFF, 0x00, 0x00, 0x00, 0x01, 0x18, 0x00, 0x00, 0x00,
    0x20, 0x00, 0x00, 0x00, 0x3C, 0x00, 0x00, 0x00, 0x37, 0x00, 0x00, 0x00,
    0x00, 0x00, 0x00, 0x09, 0x64, 0x00, 0x00, 0x00, 0x02, 0x00, 0x00, 0x00,
    0xFF, 0xFF, 0xFF, 0xFF, 0x10, 0x00, 0x00, 0x00, 0x3C, 0xCC, 0xFF, 0xFF,
    0x08, 0x00, 0x00, 0x00, 0x10, 0x00, 0x00, 0x00, 0x01, 0x00, 0x00, 0x00,
    0x80, 0xFF, 0xFF, 0xFF, 0xFF, 0xFF, 0xFF, 0xFF, 0x01, 0x00, 0x00, 0x00,
    0xA9, 0x06, 0xAA, 0x3D, 0x2C, 0x00, 0x00, 0x00, 0x73, 0x65, 0x71, 0x75,
    0x65, 0x6E, 0x74, 0x69, 0x61, 0x6C, 0x5F, 0x31, 0x2F, 0x67, 0x6C, 0x6F,
    0x62, 0x61, 0x6C, 0x5F, 0x61, 0x76, 0x65, 0x72, 0x61, 0x67, 0x65, 0x5F,
    0x70, 0x6F, 0x6F, 0x6C, 0x69, 0x6E, 0x67, 0x31, 0x64, 0x5F, 0x31, 0x2F,
    0x4D, 0x65, 0x61, 0x6E, 0x00, 0x00, 0x00, 0x00, 0x02, 0x00, 0x00, 0x00,
    0x01, 0x00, 0x00, 0x00, 0x10, 0x00, 0x00, 0x00, 0xE2, 0xCC, 0xFF, 0xFF,
    0x00, 0x00, 0x00, 0x01, 0x18, 0x00, 0x00, 0x00, 0x24, 0x00, 0x00, 0x00,
    0x44, 0x00, 0x00, 0x00, 0x36, 0x00, 0x00, 0x00, 0x00, 0x00, 0x00, 0x09,
    0xC8, 0x00, 0x00, 0x00, 0x03, 0x00, 0x00, 0x00, 0xFF, 0xFF, 0xFF, 0xFF,
    0x12, 0x00, 0x00, 0x00, 0x10, 0x00, 0x00, 0x00, 0xCC, 0xCC, 0xFF, 0xFF,
    0x08, 0x00, 0x00, 0x00, 0x14, 0x00, 0x00, 0x00, 0x01, 0x00, 0x00, 0x00,
    0x80, 0xFF, 0xFF, 0xFF, 0xFF, 0xFF, 0xFF, 0xFF, 0x00, 0x00, 0x00, 0x00,
    0x01, 0x00, 0x00, 0x00, 0x26, 0xDF, 0x24, 0x3E, 0x88, 0x00, 0x00, 0x00,
    0x73, 0x65, 0x71, 0x75, 0x65, 0x6E, 0x74, 0x69, 0x61, 0x6C, 0x5F, 0x31,
    0x2F, 0x63, 0x6F, 0x6E, 0x76, 0x31, 0x64, 0x5F, 0x33, 0x5F, 0x31, 0x2F,
    0x52, 0x65, 0x6C, 0x75, 0x3B, 0x73, 0x65, 0x71, 0x75, 0x65, 0x6E, 0x74,
    0x69, 0x61, 0x6C, 0x5F, 0x31, 0x2F, 0x63, 0x6F, 0x6E, 0x76, 0x31, 0x64,
    0x5F, 0x33, 0x5F, 0x31, 0x2F, 0x42, 0x69, 0x61, 0x73, 0x41, 0x64, 0x64,
    0x3B, 0x73, 0x65, 0x71, 0x75, 0x65, 0x6E, 0x74, 0x69, 0x61, 0x6C, 0x5F,
    0x31, 0x2F, 0x63, 0x6F, 0x6E, 0x76, 0x31, 0x64, 0x5F, 0x33, 0x5F, 0x31,
    0x2F, 0x63, 0x6F, 0x6E, 0x76, 0x6F, 0x6C, 0x75, 0x74, 0x69, 0x6F, 0x6E,
    0x2F, 0x53, 0x71, 0x75, 0x65, 0x65, 0x7A, 0x65, 0x3B, 0x73, 0x65, 0x71,
    0x75, 0x65, 0x6E, 0x74, 0x69, 0x61, 0x6C, 0x5F, 0x31, 0x2F, 0x63, 0x6F,
    0x6E, 0x76, 0x31, 0x64, 0x5F, 0x33, 0x5F, 0x31, 0x2F, 0x53, 0x71, 0x75,
    0x65, 0x65, 0x7A, 0x65, 0x00, 0x00, 0x00, 0x00, 0x03, 0x00, 0x00, 0x00,
    0x01, 0x00, 0x00, 0x00, 0x12, 0x00, 0x00, 0x00, 0x10, 0x00, 0x00, 0x00,
    0xD6, 0xCD, 0xFF, 0xFF, 0x00, 0x00, 0x00, 0x01, 0x18, 0x00, 0x00, 0x00,
    0x28, 0x00, 0x00, 0x00, 0x48, 0x00, 0x00, 0x00, 0x35, 0x00, 0x00, 0x00,
    0x00, 0x00, 0x00, 0x09, 0xF0, 0x00, 0x00, 0x00, 0x04, 0x00, 0x00, 0x00,
    0xFF, 0xFF, 0xFF, 0xFF, 0x01, 0x00, 0x00, 0x00, 0x12, 0x00, 0x00, 0x00,
    0x10, 0x00, 0x00, 0x00, 0xC4, 0xCD, 0xFF, 0xFF, 0x08, 0x00, 0x00, 0x00,
    0x14, 0x00, 0x00, 0x00, 0x01, 0x00, 0x00, 0x00, 0x80, 0xFF, 0xFF, 0xFF,
    0xFF, 0xFF, 0xFF, 0xFF, 0x00, 0x00, 0x00, 0x00, 0x01, 0x00, 0x00, 0x00,
    0x26, 0xDF, 0x24, 0x3E, 0xAD, 0x00, 0x00, 0x00, 0x73, 0x65, 0x71, 0x75,
    0x65, 0x6E, 0x74, 0x69, 0x61, 0x6C, 0x5F, 0x31, 0x2F, 0x63, 0x6F, 0x6E,
    0x76, 0x31, 0x64, 0x5F, 0x33, 0x5F, 0x31, 0x2F, 0x52, 0x65, 0x6C, 0x75,
    0x3B, 0x73, 0x65, 0x71, 0x75, 0x65, 0x6E, 0x74, 0x69, 0x61, 0x6C, 0x5F,
    0x31, 0x2F, 0x63, 0x6F, 0x6E, 0x76, 0x31, 0x64, 0x5F, 0x33, 0x5F, 0x31,
    0x2F, 0x42, 0x69, 0x61, 0x73, 0x41, 0x64, 0x64, 0x3B, 0x73, 0x65, 0x71,
    0x75, 0x65, 0x6E, 0x74, 0x69, 0x61, 0x6C, 0x5F, 0x31, 0x2F, 0x63, 0x6F,
    0x6E, 0x76, 0x31, 0x64, 0x5F, 0x33, 0x5F, 0x31, 0x2F, 0x63, 0x6F, 0x6E,
    0x76, 0x6F, 0x6C, 0x75, 0x74, 0x69, 0x6F, 0x6E, 0x2F, 0x53, 0x71, 0x75,
    0x65, 0x65, 0x7A, 0x65, 0x3B, 0x73, 0x65, 0x71, 0x75, 0x65, 0x6E, 0x74,
    0x69, 0x61, 0x6C, 0x5F, 0x31, 0x2F, 0x63, 0x6F, 0x6E, 0x76, 0x31, 0x64,
    0x5F, 0x33, 0x5F, 0x31, 0x2F, 0x53, 0x71, 0x75, 0x65, 0x65, 0x7A, 0x65,
    0x3B, 0x73, 0x65, 0x71, 0x75, 0x65, 0x6E, 0x74, 0x69, 0x61, 0x6C, 0x5F,
    0x31, 0x2F, 0x63, 0x6F, 0x6E, 0x76, 0x31, 0x64, 0x5F, 0x33, 0x5F, 0x31,
    0x2F, 0x63, 0x6F, 0x6E, 0x76, 0x6F, 0x6C, 0x75, 0x74, 0x69, 0x6F, 0x6E,
    0x31, 0x00, 0x00, 0x00, 0x04, 0x00, 0x00, 0x00, 0x01, 0x00, 0x00, 0x00,
    0x01, 0x00, 0x00, 0x00, 0x12, 0x00, 0x00, 0x00, 0x10, 0x00, 0x00, 0x00,
    0xF6, 0xCE, 0xFF, 0xFF, 0x00, 0x00, 0x00, 0x01, 0x18, 0x00, 0x00, 0x00,
    0x28, 0x00, 0x00, 0x00, 0x44, 0x00, 0x00, 0x00, 0x34, 0x00, 0x00, 0x00,
    0x00, 0x00, 0x00, 0x09, 0x6C, 0x00, 0x00, 0x00, 0x04, 0x00, 0x00, 0x00,
    0xFF, 0xFF, 0xFF, 0xFF, 0x01, 0x00, 0x00, 0x00, 0x12, 0x00, 0x00, 0x00,
    0x20, 0x00, 0x00, 0x00, 0xE4, 0xCE, 0xFF, 0xFF, 0x08, 0x00, 0x00, 0x00,
    0x10, 0x00, 0x00, 0x00, 0x01, 0x00, 0x00, 0x00, 0x91, 0xFF, 0xFF, 0xFF,
    0xFF, 0xFF, 0xFF, 0xFF, 0x01, 0x00, 0x00, 0x00, 0x64, 0x7E, 0x82, 0x3D,
    0x2E, 0x00, 0x00, 0x00, 0x73, 0x65, 0x71, 0x75, 0x65, 0x6E, 0x74, 0x69,
    0x61, 0x6C, 0x5F, 0x31, 0x2F, 0x63, 0x6F, 0x6E, 0x76, 0x31, 0x64, 0x5F,
    0x33, 0x5F, 0x31, 0x2F, 0x63, 0x6F, 0x6E, 0x76, 0x6F, 0x6C, 0x75, 0x74,
    0x69, 0x6F, 0x6E, 0x2F, 0x45, 0x78, 0x70, 0x61, 0x6E, 0x64, 0x44, 0x69,
    0x6D, 0x73, 0x00, 0x00, 0x04, 0x00, 0x00, 0x00, 0x01, 0x00, 0x00, 0x00,
    0x01, 0x00, 0x00, 0x00, 0x12, 0x00, 0x00, 0x00, 0x20, 0x00, 0x00, 0x00,
    0x92, 0xCF, 0xFF, 0xFF, 0x00, 0x00, 0x00, 0x01, 0x18, 0x00, 0x00, 0x00,
    0x24, 0x00, 0x00, 0x00, 0x44, 0x00, 0x00, 0x00, 0x33, 0x00, 0x00, 0x00,
    0x00, 0x00, 0x00, 0x09, 0x70, 0x00, 0x00, 0x00, 0x03, 0x00, 0x00, 0x00,
    0xFF, 0xFF, 0xFF, 0xFF, 0x12, 0x00, 0x00, 0x00, 0x20, 0x00, 0x00, 0x00,
    0x7C, 0xCF, 0xFF, 0xFF, 0x08, 0x00, 0x00, 0x00, 0x14, 0x00, 0x00, 0x00,
    0x01, 0x00, 0x00, 0x00, 0x91, 0xFF, 0xFF, 0xFF, 0xFF, 0xFF, 0xFF, 0xFF,
    0x00, 0x00, 0x00, 0x00, 0x01, 0x00, 0x00, 0x00, 0x64, 0x7E, 0x82, 0x3D,
    0x31, 0x00, 0x00, 0x00, 0x73, 0x65, 0x71, 0x75, 0x65, 0x6E, 0x74, 0x69,
    0x61, 0x6C, 0x5F, 0x31, 0x2F, 0x6D, 0x61, 0x78, 0x5F, 0x70, 0x6F, 0x6F,
    0x6C, 0x69, 0x6E, 0x67, 0x31, 0x64, 0x5F, 0x32, 0x5F, 0x31, 0x2F, 0x4D,
    0x61, 0x78, 0x50, 0x6F, 0x6F, 0x6C, 0x31, 0x64, 0x2F, 0x53, 0x71, 0x75,
    0x65, 0x65, 0x7A, 0x65, 0x31, 0x00, 0x00, 0x00, 0x03, 0x00, 0x00, 0x00,
    0x01, 0x00, 0x00, 0x00, 0x12, 0x00, 0x00, 0x00, 0x20, 0x00, 0x00, 0x00,
    0x2E, 0xD0, 0xFF, 0xFF, 0x00, 0x00, 0x00, 0x01, 0x18, 0x00, 0x00, 0x00,
    0x28, 0x00, 0x00, 0x00, 0x44, 0x00, 0x00, 0x00, 0x32, 0x00, 0x00, 0x00,
    0x00, 0x00, 0x00, 0x09, 0x68, 0x00, 0x00, 0x00, 0x04, 0x00, 0x00, 0x00,
    0xFF, 0xFF, 0xFF, 0xFF, 0x01, 0x00, 0x00, 0x00, 0x12, 0x00, 0x00, 0x00,
    0x20, 0x00, 0x00, 0x00, 0x1C, 0xD0, 0xFF, 0xFF, 0x08, 0x00, 0x00, 0x00,
    0x10, 0x00, 0x00, 0x00, 0x01, 0x00, 0x00, 0x00, 0x91, 0xFF, 0xFF, 0xFF,
    0xFF, 0xFF, 0xFF, 0xFF, 0x01, 0x00, 0x00, 0x00, 0x64, 0x7E, 0x82, 0x3D,
    0x28, 0x00, 0x00, 0x00, 0x73, 0x65, 0x71, 0x75, 0x65, 0x6E, 0x74, 0x69,
    0x61, 0x6C, 0x5F, 0x31, 0x2F, 0x6D, 0x61, 0x78, 0x5F, 0x70, 0x6F, 0x6F,
    0x6C, 0x69, 0x6E, 0x67, 0x31, 0x64, 0x5F, 0x32, 0x5F, 0x31, 0x2F, 0x4D,
    0x61, 0x78, 0x50, 0x6F, 0x6F, 0x6C, 0x31, 0x64, 0x00, 0x00, 0x00, 0x00,
    0x04, 0x00, 0x00, 0x00, 0x01, 0x00, 0x00, 0x00, 0x01, 0x00, 0x00, 0x00,
    0x12, 0x00, 0x00, 0x00, 0x20, 0x00, 0x00, 0x00, 0xC6, 0xD0, 0xFF, 0xFF,
    0x00, 0x00, 0x00, 0x01, 0x18, 0x00, 0x00, 0x00, 0x28, 0x00, 0x00, 0x00,
    0x48, 0x00, 0x00, 0x00, 0x31, 0x00, 0x00, 0x00, 0x00, 0x00, 0x00, 0x09,
    0x74, 0x00, 0x00, 0x00, 0x04, 0x00, 0x00, 0x00, 0xFF, 0xFF, 0xFF, 0xFF,
    0x01, 0x00, 0x00, 0x00, 0x25, 0x00, 0x00, 0x00, 0x20, 0x00, 0x00, 0x00,
    0xB4, 0xD0, 0xFF, 0xFF, 0x08, 0x00, 0x00, 0x00, 0x14, 0x00, 0x00, 0x00,
    0x01, 0x00, 0x00, 0x00, 0x91, 0xFF, 0xFF, 0xFF, 0xFF, 0xFF, 0xFF, 0xFF,
    0x00, 0x00, 0x00, 0x00, 0x01, 0x00, 0x00, 0x00, 0x64, 0x7E, 0x82, 0x3D,
    0x33, 0x00, 0x00, 0x00, 0x73, 0x65, 0x71, 0x75, 0x65, 0x6E, 0x74, 0x69,
    0x61, 0x6C, 0x5F, 0x31, 0x2F, 0x6D, 0x61, 0x78, 0x5F, 0x70, 0x6F, 0x6F,
    0x6C, 0x69, 0x6E, 0x67, 0x31, 0x64, 0x5F, 0x32, 0x5F, 0x31, 0x2F, 0x4D,
    0x61, 0x78, 0x50, 0x6F, 0x6F, 0x6C, 0x31, 0x64, 0x2F, 0x45, 0x78, 0x70,
    0x61, 0x6E, 0x64, 0x44, 0x69, 0x6D, 0x73, 0x00, 0x04, 0x00, 0x00, 0x00,
    0x01, 0x00, 0x00, 0x00, 0x01, 0x00, 0x00, 0x00, 0x25, 0x00, 0x00, 0x00,
    0x20, 0x00, 0x00, 0x00, 0x6A, 0xD1, 0xFF, 0xFF, 0x00, 0x00, 0x00, 0x01,
    0x18, 0x00, 0x00, 0x00, 0x24, 0x00, 0x00, 0x00, 0x44, 0x00, 0x00, 0x00,
    0x30, 0x00, 0x00, 0x00, 0x00, 0x00, 0x00, 0x09, 0x98, 0x01, 0x00, 0x00,
    0x03, 0x00, 0x00, 0x00, 0xFF, 0xFF, 0xFF, 0xFF, 0x25, 0x00, 0x00, 0x00,
    0x20, 0x00, 0x00, 0x00, 0x54, 0xD1, 0xFF, 0xFF, 0x08, 0x00, 0x00, 0x00,
    0x14, 0x00, 0x00, 0x00, 0x01, 0x00, 0x00, 0x00, 0x91, 0xFF, 0xFF, 0xFF,
    0xFF, 0xFF, 0xFF, 0xFF, 0x00, 0x00, 0x00, 0x00, 0x01, 0x00, 0x00, 0x00,
    0x64, 0x7E, 0x82, 0x3D, 0x59, 0x01, 0x00, 0x00, 0x73, 0x65, 0x71, 0x75,
    0x65, 0x6E, 0x74, 0x69, 0x61, 0x6C, 0x5F, 0x31, 0x2F, 0x62, 0x61, 0x74,
    0x63, 0x68, 0x5F, 0x6E, 0x6F, 0x72, 0x6D, 0x61, 0x6C, 0x69, 0x7A, 0x61,
    0x74, 0x69, 0x6F, 0x6E, 0x5F, 0x32, 0x5F, 0x31, 0x2F, 0x62, 0x61, 0x74,
    0x63, 0x68, 0x6E, 0x6F, 0x72, 0x6D, 0x2F, 0x61, 0x64, 0x64, 0x5F, 0x31,
    0x3B, 0x73, 0x65, 0x71, 0x75, 0x65, 0x6E, 0x74, 0x69, 0x61, 0x6C, 0x5F,
