// Modelo TFLite generado por ml/train_model.py
// NO EDITAR
// Tamano: 18280 bytes | Input: (150, 4) en g
#pragma once

#include <cstdint>

static constexpr uint32_t FALL_MODEL_SIZE = 18280;

alignas(16) static const uint8_t fall_model_data[18280] = {
    0x1C, 0x00, 0x00, 0x00, 0x54, 0x46, 0x4C, 0x33, 0x14, 0x00, 0x20, 0x00,
    0x1C, 0x00, 0x18, 0x00, 0x14, 0x00, 0x10, 0x00, 0x0C, 0x00, 0x00, 0x00,
    0x08, 0x00, 0x04, 0x00, 0x14, 0x00, 0x00, 0x00, 0x1C, 0x00, 0x00, 0x00,
    0x8C, 0x00, 0x00, 0x00, 0xE4, 0x00, 0x00, 0x00, 0x4C, 0x18, 0x00, 0x00,
    0x5C, 0x18, 0x00, 0x00, 0x60, 0x46, 0x00, 0x00, 0x03, 0x00, 0x00, 0x00,
    0x01, 0x00, 0x00, 0x00, 0x04, 0x00, 0x00, 0x00, 0x96, 0xE3, 0xFF, 0xFF,
    0x0C, 0x00, 0x00, 0x00, 0x1C, 0x00, 0x00, 0x00, 0x3C, 0x00, 0x00, 0x00,
    0x0F, 0x00, 0x00, 0x00, 0x73, 0x65, 0x72, 0x76, 0x69, 0x6E, 0x67, 0x5F,
    0x64, 0x65, 0x66, 0x61, 0x75, 0x6C, 0x74, 0x00, 0x01, 0x00, 0x00, 0x00,
    0x04, 0x00, 0x00, 0x00, 0x90, 0xFF, 0xFF, 0xFF, 0x2C, 0x00, 0x00, 0x00,
    0x04, 0x00, 0x00, 0x00, 0x08, 0x00, 0x00, 0x00, 0x6F, 0x75, 0x74, 0x70,
    0x75, 0x74, 0x5F, 0x30, 0x00, 0x00, 0x00, 0x00, 0x01, 0x00, 0x00, 0x00,
    0x04, 0x00, 0x00, 0x00, 0x3A, 0xE8, 0xFF, 0xFF, 0x04, 0x00, 0x00, 0x00,
    0x0C, 0x00, 0x00, 0x00, 0x6B, 0x65, 0x72, 0x61, 0x73, 0x5F, 0x74, 0x65,
    0x6E, 0x73, 0x6F, 0x72, 0x00, 0x00, 0x00, 0x00, 0x02, 0x00, 0x00, 0x00,
    0x34, 0x00, 0x00, 0x00, 0x04, 0x00, 0x00, 0x00, 0xDC, 0xFF, 0xFF, 0xFF,
    0x2F, 0x00, 0x00, 0x00, 0x04, 0x00, 0x00, 0x00, 0x13, 0x00, 0x00, 0x00,
    0x43, 0x4F, 0x4E, 0x56, 0x45, 0x52, 0x53, 0x49, 0x4F, 0x4E, 0x5F, 0x4D,
    0x45, 0x54, 0x41, 0x44, 0x41, 0x54, 0x41, 0x00, 0x08, 0x00, 0x0C, 0x00,
    0x08, 0x00, 0x04, 0x00, 0x08, 0x00, 0x00, 0x00, 0x2E, 0x00, 0x00, 0x00,
    0x04, 0x00, 0x00, 0x00, 0x13, 0x00, 0x00, 0x00, 0x6D, 0x69, 0x6E, 0x5F,
    0x72, 0x75, 0x6E, 0x74, 0x69, 0x6D, 0x65, 0x5F, 0x76, 0x65, 0x72, 0x73,
    0x69, 0x6F, 0x6E, 0x00, 0x30, 0x00, 0x00, 0x00, 0x64, 0x17, 0x00, 0x00,
    0x5C, 0x17, 0x00, 0x00, 0x48, 0x17, 0x00, 0x00, 0x24, 0x17, 0x00, 0x00,
    0x10, 0x17, 0x00, 0x00, 0xF4, 0x16, 0x00, 0x00, 0xD8, 0x16, 0x00, 0x00,
    0xBC, 0x16, 0x00, 0x00, 0xA0, 0x16, 0x00, 0x00, 0x8C, 0x16, 0x00, 0x00,
    0x6C, 0x16, 0x00, 0x00, 0x1C, 0x16, 0x00, 0x00, 0x0C, 0x15, 0x00, 0x00,
    0xBC, 0x14, 0x00, 0x00, 0xAC, 0x0E, 0x00, 0x00, 0x7C, 0x0E, 0x00, 0x00,
    0x4C, 0x0E, 0x00, 0x00, 0xBC, 0x0D, 0x00, 0x00, 0xAC, 0x03, 0x00, 0x00,
    0x8C, 0x03, 0x00, 0x00, 0x6C, 0x03, 0x00, 0x00, 0x1C, 0x03, 0x00, 0x00,
    0x4C, 0x01, 0x00, 0x00, 0x44, 0x01, 0x00, 0x00, 0x3C, 0x01, 0x00, 0x00,
    0x34, 0x01, 0x00, 0x00, 0x2C, 0x01, 0x00, 0x00, 0x24, 0x01, 0x00, 0x00,
    0x1C, 0x01, 0x00, 0x00, 0x14, 0x01, 0x00, 0x00, 0x0C, 0x01, 0x00, 0x00,
    0x04, 0x01, 0x00, 0x00, 0xFC, 0x00, 0x00, 0x00, 0xF4, 0x00, 0x00, 0x00,
    0xEC, 0x00, 0x00, 0x00, 0xE4, 0x00, 0x00, 0x00, 0xDC, 0x00, 0x00, 0x00,
    0xD4, 0x00, 0x00, 0x00, 0xCC, 0x00, 0x00, 0x00, 0xC4, 0x00, 0x00, 0x00,
    0xBC, 0x00, 0x00, 0x00, 0xB4, 0x00, 0x00, 0x00, 0xAC, 0x00, 0x00, 0x00,
    0xA4, 0x00, 0x00, 0x00, 0x9C, 0x00, 0x00, 0x00, 0x94, 0x00, 0x00, 0x00,
    0x74, 0x00, 0x00, 0x00, 0x04, 0x00, 0x00, 0x00, 0x76, 0xE9, 0xFF, 0xFF,
    0x04, 0x00, 0x00, 0x00, 0x60, 0x00, 0x00, 0x00, 0x0C, 0x00, 0x00, 0x00,
    0x08, 0x00, 0x0E, 0x00, 0x08, 0x00, 0x04, 0x00, 0x08, 0x00, 0x00, 0x00,
    0x10, 0x00, 0x00, 0x00, 0x28, 0x00, 0x00, 0x00, 0x00, 0x00, 0x06, 0x00,
    0x08, 0x00, 0x04, 0x00, 0x06, 0x00, 0x00, 0x00, 0x04, 0x00, 0x00, 0x00,
    0x01, 0x00, 0x00, 0x00, 0xEB, 0x03, 0x00, 0x00, 0x0C, 0x00, 0x18, 0x00,
    0x14, 0x00, 0x10, 0x00, 0x0C, 0x00, 0x04, 0x00, 0x0C, 0x00, 0x00, 0x00,
    0xCF, 0x91, 0xAC, 0x53, 0x49, 0xFE, 0xC9, 0x06, 0x02, 0x00, 0x00, 0x00,
    0x02, 0x00, 0x00, 0x00, 0x04, 0x00, 0x00, 0x00, 0x06, 0x00, 0x00, 0x00,
    0x32, 0x2E, 0x32, 0x31, 0x2E, 0x30, 0x00, 0x00, 0xE2, 0xE9, 0xFF, 0xFF,
    0x04, 0x00, 0x00, 0x00, 0x10, 0x00, 0x00, 0x00, 0x31, 0x2E, 0x31, 0x34,
    0x2E, 0x30, 0x00, 0x00, 0x00, 0x00, 0x00, 0x00, 0x00, 0x00, 0x00, 0x00,
    0x8C, 0xBC, 0xFF, 0xFF, 0x90, 0xBC, 0xFF, 0xFF, 0x94, 0xBC, 0xFF, 0xFF,
    0x98, 0xBC, 0xFF, 0xFF, 0x9C, 0xBC, 0xFF, 0xFF, 0xA0, 0xBC, 0xFF, 0xFF,
    0xA4, 0xBC, 0xFF, 0xFF, 0xA8, 0xBC, 0xFF, 0xFF, 0xAC, 0xBC, 0xFF, 0xFF,
    0xB0, 0xBC, 0xFF, 0xFF, 0xB4, 0xBC, 0xFF, 0xFF, 0xB8, 0xBC, 0xFF, 0xFF,
    0xBC, 0xBC, 0xFF, 0xFF, 0xC0, 0xBC, 0xFF, 0xFF, 0xC4, 0xBC, 0xFF, 0xFF,
    0xC8, 0xBC, 0xFF, 0xFF, 0xCC, 0xBC, 0xFF, 0xFF, 0xD0, 0xBC, 0xFF, 0xFF,
    0xD4, 0xBC, 0xFF, 0xFF, 0xD8, 0xBC, 0xFF, 0xFF, 0xDC, 0xBC, 0xFF, 0xFF,
    0xE0, 0xBC, 0xFF, 0xFF, 0xE4, 0xBC, 0xFF, 0xFF, 0x5A, 0xEA, 0xFF, 0xFF,
    0x04, 0x00, 0x00, 0x00, 0xC0, 0x01, 0x00, 0x00, 0x4A, 0xF0, 0x35, 0xEB,
    0x58, 0xF2, 0x92, 0xDB, 0xCB, 0x6A, 0x3B, 0x02, 0xE9, 0x81, 0x16, 0x0D,
    0x2E, 0xB5, 0x2A, 0x65, 0xD8, 0xD6, 0xDC, 0x10, 0xE1, 0x47, 0xCB, 0x9C,
    0xF5, 0xB7, 0x07, 0x7F, 0xE6, 0x8A, 0xB3, 0x57, 0xAA, 0xFA, 0x1F, 0xF0,
    0xF5, 0xB5, 0xD7, 0xCE, 0x39, 0x0D, 0x01, 0x36, 0x1A, 0x13, 0x0E, 0x42,
    0x2B, 0x3E, 0x5E, 0x2B, 0xC2, 0x36, 0x66, 0xAF, 0x2A, 0x27, 0xCD, 0x1D,
    0xBC, 0xBC, 0x0D, 0x09, 0x2B, 0xB5, 0x24, 0x49, 0xF2, 0xF0, 0x4C, 0x15,
    0xFA, 0x35, 0xB4, 0xC4, 0x17, 0xB9, 0x81, 0xF5, 0xAD, 0x16, 0x96, 0x11,
    0x51, 0x58, 0x1F, 0x81, 0xC4, 0x56, 0xDD, 0x06, 0x09, 0x10, 0xAF, 0x11,
    0xB6, 0x17, 0xD4, 0x5A, 0x22, 0x8D, 0x1E, 0x8A, 0xB8, 0x2D, 0x60, 0xA6,
    0xFA, 0x01, 0x54, 0x01, 0x81, 0xA1, 0xA6, 0xD9, 0x91, 0x32, 0x24, 0x04,
    0x08, 0x15, 0x18, 0x37, 0xA8, 0xBC, 0xCF, 0x1A, 0x06, 0xFE, 0x49, 0x16,
    0xCC, 0x05, 0x11, 0xCA, 0xB5, 0x45, 0x23, 0x1B, 0xD9, 0x13, 0xC9, 0xA1,
    0x7F, 0x32, 0x58, 0x3B, 0x2F, 0xA4, 0x10, 0xD8, 0x1D, 0xDC, 0x0E, 0xBD,
    0xF7, 0xC4, 0x78, 0x4F, 0x56, 0x37, 0x31, 0xD0, 0xCC, 0xDE, 0x52, 0x81,
    0xB5, 0x1A, 0x49, 0xF1, 0xC6, 0x22, 0x71, 0x3B, 0x9A, 0xB6, 0xE8, 0xF0,
    0xCF, 0xE2, 0x9D, 0xFE, 0xEA, 0xD7, 0xED, 0xE6, 0xE3, 0xBF, 0x0A, 0xE8,
    0x1F, 0x23, 0x5F, 0xEF, 0xEE, 0xBC, 0xCF, 0x18, 0x39, 0xD5, 0xCF, 0x43,
    0x8F, 0xC3, 0x31, 0xCE, 0x2D, 0x81, 0x58, 0xD5, 0xB9, 0x41, 0xE9, 0xF1,
    0x19, 0xAB, 0x18, 0xDF, 0x3F, 0xC8, 0x14, 0xF6, 0x49, 0xEC, 0xD1, 0xB5,
    0x0A, 0x65, 0xFC, 0xF0, 0xB3, 0x4B, 0x05, 0x15, 0xB6, 0xB3, 0x09, 0x31,
    0xF3, 0x81, 0xF3, 0x90, 0xE9, 0xA3, 0xEE, 0x14, 0x0C, 0x38, 0x7F, 0x41,
    0xAF, 0x35, 0x55, 0x11, 0x1F, 0x32, 0x49, 0xB6, 0x33, 0x5D, 0xE5, 0xF9,
    0xC0, 0xF7, 0xF6, 0x3A, 0xE4, 0xF8, 0x17, 0xAF, 0xF9, 0xBD, 0xD5, 0x3E,
    0xD6, 0x41, 0x3F, 0xA0, 0x19, 0x2C, 0x19, 0x88, 0x50, 0xE4, 0xA2, 0x57,
    0xD0, 0xE0, 0x4F, 0xA2, 0xCC, 0x81, 0x33, 0xCE, 0x20, 0x3D, 0xCB, 0x81,
    0x70, 0xAC, 0x48, 0xA6, 0x30, 0x10, 0x18, 0xE3, 0xF4, 0xA1, 0x17, 0x36,
    0x32, 0x2F, 0xFF, 0xF6, 0x27, 0x1A, 0x0F, 0x60, 0xFB, 0x49, 0xFA, 0x66,
    0xEE, 0xEF, 0xD7, 0xB1, 0x81, 0x03, 0xE3, 0xA0, 0x19, 0x99, 0x81, 0x51,
    0xB8, 0x5E, 0x46, 0xD1, 0x63, 0xC4, 0xED, 0x35, 0x2A, 0x17, 0x47, 0x9A,
    0xA8, 0xE8, 0xA4, 0x0D, 0xC3, 0x67, 0x13, 0x27, 0x42, 0xE3, 0x97, 0x3E,
    0xC2, 0x3E, 0x22, 0x91, 0xD5, 0xE5, 0x4A, 0x9A, 0xF9, 0x7F, 0x25, 0x83,
    0xDA, 0x07, 0x0F, 0xA2, 0xAE, 0xFA, 0xE4, 0xC7, 0x0C, 0x43, 0x61, 0x07,
    0x5F, 0xA4, 0x23, 0x3C, 0x26, 0xE5, 0x33, 0xBD, 0xC7, 0x2D, 0xA2, 0xBB,
    0xF2, 0xD6, 0x17, 0xC4, 0x51, 0xF6, 0xCD, 0x2C, 0x1D, 0x12, 0x06, 0x16,
    0x17, 0x1F, 0x03, 0x18, 0xCE, 0x81, 0x2D, 0x1D, 0x84, 0xAD, 0xED, 0xD9,
    0x9A, 0x6E, 0xA9, 0x1F, 0x0D, 0xF7, 0xD4, 0x53, 0x2A, 0xDB, 0xF2, 0x12,
    0x22, 0x22, 0x33, 0x34, 0x22, 0x43, 0x37, 0x7F, 0x47, 0x28, 0x36, 0x09,
    0x26, 0xEC, 0xFF, 0xFF, 0x04, 0x00, 0x00, 0x00, 0x40, 0x00, 0x00, 0x00,
    0xD1, 0x01, 0x00, 0x00, 0x35, 0xFD, 0xFF, 0xFF, 0x01, 0x02, 0x00, 0x00,
    0x59, 0x05, 0x00, 0x00, 0x19, 0x01, 0x00, 0x00, 0xDE, 0x02, 0x00, 0x00,
    0xB1, 0xFF, 0xFF, 0xFF, 0xD8, 0xFF, 0xFF, 0xFF, 0xC2, 0xFF, 0xFF, 0xFF,
    0x50, 0x00, 0x00, 0x00, 0xEF, 0xFE, 0xFF, 0xFF, 0x4D, 0xFF, 0xFF, 0xFF,
    0x79, 0xF6, 0xFF, 0xFF, 0xB7, 0x03, 0x00, 0x00, 0x25, 0x02, 0x00, 0x00,
    0xFF, 0xFE, 0xFF, 0xFF, 0x72, 0xEC, 0xFF, 0xFF, 0x04, 0x00, 0x00, 0x00,
    0x10, 0x00, 0x00, 0x00, 0xA2, 0x8A, 0xAA, 0x02, 0xA0, 0x9A, 0xBE, 0x9D,
    0xB4, 0x9B, 0x7F, 0x9E, 0x9D, 0x42, 0x9D, 0x90, 0x8E, 0xEC, 0xFF, 0xFF,
    0x04, 0x00, 0x00, 0x00, 0x10, 0x00, 0x00, 0x00, 0x16, 0x9B, 0x0A, 0x4F,
    0x2C, 0xF3, 0x6B, 0x05, 0x46, 0x10, 0x78, 0x1D, 0xFF, 0x7F, 0x08, 0x80,
    0xAA, 0xEC, 0xFF, 0xFF, 0x04, 0x00, 0x00, 0x00, 0x00, 0x0A, 0x00, 0x00,
    0x7C, 0x04, 0x06, 0xF7, 0x1F, 0x43, 0x10, 0xF5, 0x05, 0x3E, 0xD7, 0x40,
    0xD0, 0xFD, 0x0F, 0xEA, 0xE2, 0xAD, 0x08, 0xF1, 0x14, 0x50, 0xF6, 0xF5,
    0xBC, 0x03, 0xE6, 0x28, 0x3D, 0x08, 0xEF, 0x99, 0xDE, 0xCF, 0xEC, 0x30,
    0xAF, 0xB8, 0xEC, 0x4A, 0xB8, 0xFA, 0x81, 0xEF, 0x05, 0x0D, 0xAB, 0xD1,
    0x1D, 0x48, 0xE1, 0xC1, 0xF7, 0xF8, 0xEB, 0x55, 0xD5, 0x05, 0xF3, 0xDC,
    0x1C, 0x63, 0x1E, 0xA3, 0xB2, 0xBE, 0xFA, 0x05, 0xBE, 0xE1, 0xE3, 0xED,
    0x15, 0x0C, 0xC7, 0xB9, 0x14, 0x2B, 0x47, 0x0B, 0x21, 0x39, 0x61, 0x31,
    0xF0, 0xED, 0xD0, 0xE1, 0x15, 0x13, 0x26, 0x15, 0xFA, 0xE2, 0x0A, 0xC4,
    0x00, 0xDC, 0x07, 0xDA, 0xF8, 0xDD, 0x20, 0xDE, 0xC8, 0x1D, 0x01, 0xE2,
    0xC9, 0xC3, 0x08, 0xBA, 0x18, 0xF8, 0x81, 0x0F, 0xF8, 0x03, 0x20, 0x0C,
    0xE7, 0x3B, 0xD9, 0xFD, 0xCB, 0xCA, 0x16, 0xE9, 0x0E, 0xE0, 0x44, 0xE1,
    0x27, 0xCA, 0x17, 0xD1, 0x59, 0x28, 0xD3, 0x13, 0xF7, 0xDE, 0xF8, 0x11,
    0x19, 0xE2, 0xD5, 0x23, 0xD7, 0xBF, 0xC4, 0xED, 0xFB, 0x03, 0xA2, 0xF8,
    0x19, 0x88, 0xE0, 0x0D, 0x46, 0x0D, 0x2A, 0x81, 0x29, 0xD9, 0xD3, 0x24,
    0x42, 0xEC, 0xC4, 0x37, 0x14, 0xF4, 0x03, 0xE6, 0x07, 0x2D, 0xEF, 0x21,
    0xB7, 0xC5, 0x32, 0x0F, 0xF8, 0xD9, 0x92, 0x30, 0x01, 0x17, 0xFF, 0x04,
    0x16, 0x39, 0x95, 0x3A, 0xEB, 0xED, 0xDC, 0x23, 0x3A, 0x02, 0xDF, 0x0F,
    0x3A, 0x13, 0xED, 0xD0, 0x18, 0x1E, 0x24, 0xF8, 0x07, 0xBF, 0x12, 0xFB,
    0x16, 0x89, 0xF4, 0xEE, 0x0C, 0xFC, 0x43, 0x0F, 0x35, 0x40, 0xB7, 0x16,
    0x33, 0x1A, 0x13, 0xCD, 0xFB, 0x0E, 0xB9, 0xD7, 0x39, 0x61, 0xE1, 0xF7,
    0x03, 0x16, 0x0D, 0x0D, 0xFC, 0xDD, 0xF2, 0x2A, 0xBE, 0xF5, 0x36, 0x28,
    0x2B, 0x27, 0xC6, 0x00, 0x04, 0x06, 0x81, 0x14, 0x35, 0xDD, 0xFE, 0xE1,
    0xE5, 0x2C, 0x00, 0x4D, 0x49, 0xFD, 0x0B, 0x03, 0xB7, 0xFF, 0x3A, 0x2E,
    0xEB, 0xCA, 0x06, 0xFA, 0xFE, 0xF8, 0x27, 0x0D, 0x03, 0xB4, 0x30, 0x12,
    0x3E, 0xF3, 0xF0, 0x2E, 0x19, 0xF4, 0xE0, 0x02, 0x34, 0x3F, 0x99, 0x49,
    0x03, 0xED, 0xCA, 0xE5, 0xEC, 0x0C, 0x29, 0xEE, 0x18, 0xFB, 0x04, 0x2C,
    0xF5, 0x1C, 0x01, 0xEC, 0xD5, 0xD1, 0x0C, 0xC9, 0x03, 0xCD, 0x25, 0x23,
    0xF4, 0x29, 0x81, 0x44, 0xAC, 0xEB, 0xF0, 0x29, 0x17, 0xEF, 0x18, 0xF2,
    0x06, 0x36, 0xF3, 0xD7, 0xD9, 0xEE, 0xDC, 0xE4, 0xCB, 0xDE, 0xF2, 0x1E,
    0xB5, 0xD1, 0x1E, 0x9A, 0xEC, 0x1A, 0x50, 0xFE, 0xF7, 0xCC, 0xFF, 0xEE,
    0xD8, 0x2F, 0xFD, 0xC1, 0xD4, 0x56, 0x04, 0x01, 0xE0, 0x24, 0xF1, 0x95,
    0xB4, 0xF9, 0xD4, 0x12, 0xDD, 0x09, 0xF1, 0x09, 0x3C, 0x04, 0xEB, 0x00,
    0x20, 0xEA, 0x2C, 0x15, 0x9C, 0xB5, 0xBD, 0x0F, 0xE8, 0x2D, 0x3D, 0xFE,
    0xEA, 0xB1, 0xE8, 0xF3, 0xF1, 0xC1, 0xF3, 0xA3, 0x06, 0xEB, 0x10, 0x81,
    0x1D, 0x0F, 0xC2, 0x1C, 0xF7, 0x0E, 0x18, 0xC7, 0xF8, 0xEA, 0x01, 0x3B,
    0xF8, 0x51, 0xC6, 0xBE, 0x94, 0x2B, 0xF8, 0xD8, 0xB2, 0x37, 0xF2, 0xE8,
    0xED, 0xF4, 0x26, 0x09, 0x24, 0xF2, 0x12, 0x53, 0xD2, 0xF5, 0xFE, 0x48,
    0x02, 0x05, 0xCF, 0x3F, 0xE0, 0xDA, 0x42, 0x3F, 0x0D, 0x8F, 0x47, 0xEB,
    0x1F, 0x18, 0x1D, 0x32, 0x54, 0x35, 0x2F, 0xEE, 0x40, 0xCB, 0xF4, 0xFF,
    0x07, 0xC8, 0xB3, 0x25, 0x38, 0xEC, 0xA4, 0xB0, 0x02, 0x16, 0x16, 0xF3,
    0x22, 0x32, 0x65, 0x39, 0x1C, 0x08, 0xE7, 0x05, 0xEF, 0x23, 0x3C, 0x09,
    0x1E, 0x47, 0xCE, 0xFB, 0xFF, 0xED, 0x36, 0x04, 0x1A, 0xAD, 0xE5, 0xD8,
    0x38, 0xDF, 0xFC, 0x06, 0xF1, 0xBD, 0x30, 0xCB, 0x63, 0x02, 0xE4, 0xF5,
    0xC6, 0x1E, 0x1C, 0x1B, 0x28, 0x16, 0x83, 0x1F, 0xFD, 0xDB, 0xE4, 0xCB,
    0x13, 0x27, 0x26, 0xE6, 0x1D, 0xF8, 0xC1, 0xA8, 0xE2, 0x1C, 0x81, 0x1B,
    0x44, 0x55, 0x0C, 0x35, 0x1E, 0x02, 0xB8, 0xC0, 0x0D, 0xBD, 0x31, 0xCE,
    0x15, 0x0C, 0x15, 0xC4, 0x14, 0x37, 0x0F, 0xF7, 0xD8, 0xCC, 0x0A, 0x8C,
    0x22, 0x08, 0x3F, 0xCC, 0x4B, 0xE4, 0xAC, 0x43, 0xF8, 0xCF, 0xFB, 0xCC,
    0x46, 0xC4, 0xD9, 0xE1, 0x93, 0x06, 0x9F, 0x1E, 0x21, 0x23, 0x28, 0x15,
    0xC6, 0x21, 0x12, 0xC6, 0xCE, 0xEB, 0xFB, 0xE9, 0xEB, 0xE0, 0x12, 0x48,
    0xB7, 0xBA, 0x1D, 0x71, 0x81, 0xA4, 0x3B, 0x17, 0x16, 0x28, 0x01, 0xFA,
    0xE0, 0x00, 0xB4, 0xFE, 0x17, 0x59, 0x4A, 0x1D, 0x3D, 0xD3, 0x12, 0x23,
    0xA6, 0xAF, 0x4A, 0xC4, 0xFE, 0x1A, 0x2C, 0xE2, 0x3F, 0xB1, 0x20, 0x1F,
    0x8C, 0xC3, 0x06, 0x09, 0x7F, 0x48, 0xEA, 0x1E, 0x1E, 0x5C, 0xF8, 0x4E,
    0x15, 0xE1, 0x1C, 0x4B, 0xEF, 0x36, 0xCA, 0x55, 0xF5, 0x0E, 0x1E, 0xA5,
    0xAF, 0x0D, 0x37, 0x11, 0x3F, 0x75, 0xF0, 0xFB, 0xDF, 0x5B, 0xD4, 0x63,
    0x27, 0xBA, 0xF8, 0xE0, 0xB9, 0xF7, 0x2A, 0xFF, 0x42, 0xBB, 0xC0, 0xFA,
    0x17, 0x28, 0xDD, 0xFD, 0xEE, 0x4B, 0x0D, 0xEE, 0x31, 0xCE, 0xDE, 0x02,
    0x90, 0xD5, 0x1B, 0xC3, 0xD6, 0x7F, 0xAB, 0xD9, 0x91, 0x12, 0x0A, 0x7C,
    0xB9, 0x23, 0xED, 0xC9, 0xD4, 0xE9, 0x96, 0xDB, 0x2D, 0x4C, 0xD5, 0xDE,
    0xDD, 0x15, 0x17, 0x8E, 0x59, 0x27, 0x22, 0x39, 0xAD, 0xD6, 0x9A, 0x21,
    0x22, 0x19, 0x24, 0x0E, 0xF0, 0xCC, 0xFE, 0xAC, 0xE0, 0xBF, 0xF2, 0x16,
    0xDA, 0xB4, 0x21, 0xF5, 0xCF, 0xBA, 0xD4, 0x16, 0xDD, 0xF2, 0x57, 0xE9,
    0x33, 0x9A, 0x95, 0xBA, 0xEA, 0x16, 0x3C, 0xBC, 0xF4, 0xB6, 0x22, 0xB0,
    0xDC, 0xED, 0xE0, 0x37, 0xBC, 0xE5, 0x81, 0xA6, 0x2F, 0x08, 0xC1, 0xDF,
    0xD2, 0xCD, 0x1D, 0xF7, 0x5B, 0x02, 0xF8, 0x32, 0x1A, 0xBF, 0xDE, 0xCD,
    0x34, 0xD8, 0xCA, 0x23, 0x0D, 0x25, 0xD1, 0x1E, 0x98, 0xDE, 0xCA, 0x58,
    0xE7, 0x14, 0xD9, 0x40, 0xCA, 0x44, 0x34, 0xDB, 0x92, 0x87, 0x0C, 0xAA,
    0x47, 0xD8, 0x76, 0xB5, 0x2B, 0x02, 0x10, 0x0F, 0x0E, 0xC0, 0x81, 0xC8,
    0x1E, 0xF3, 0x4A, 0xC7, 0x14, 0xD5, 0x09, 0x15, 0xBC, 0xD3, 0x1C, 0xDF,
    0xCC, 0x0E, 0xDC, 0x05, 0x1B, 0x97, 0xF2, 0x0A, 0x37, 0xD8, 0x0A, 0x5F,
    0x1F, 0x08, 0xFB, 0xBF, 0x28, 0x0C, 0x26, 0xFD, 0xC2, 0x19, 0xEB, 0xFE,
    0x17, 0xDE, 0x0C, 0xDF, 0x8A, 0xDE, 0x06, 0xFB, 0x81, 0x12, 0xD2, 0x1B,
    0x04, 0xB8, 0xF0, 0xEB, 0x1F, 0x10, 0xC6, 0xEC, 0x86, 0xCE, 0xEA, 0xD7,
    0x1F, 0xF5, 0x4A, 0x1A, 0xC6, 0xFB, 0x07, 0xD0, 0xD5, 0xDC, 0x26, 0xF2,
    0x9C, 0x00, 0xE3, 0x12, 0x0D, 0xF0, 0xC1, 0xB0, 0x02, 0xFE, 0xA7, 0xCB,
    0x00, 0x2A, 0x02, 0xDA, 0xE8, 0xD8, 0x19, 0xC2, 0xE6, 0x12, 0xFD, 0xE6,
    0x05, 0x05, 0xFB, 0xF0, 0x02, 0xD4, 0x06, 0x81, 0xE1, 0x28, 0xD2, 0x2F,
    0xFD, 0x12, 0x57, 0x07, 0xED, 0xF3, 0x15, 0x3A, 0xF3, 0xF3, 0xD0, 0xF8,
    0xC8, 0xEF, 0x24, 0xED, 0x10, 0x18, 0x0E, 0x35, 0xF3, 0xCA, 0xDD, 0xCE,
    0xC4, 0xFA, 0x23, 0xF6, 0xF0, 0xCB, 0x27, 0x05, 0x30, 0x27, 0xEF, 0xB0,
    0x0F, 0x81, 0x17, 0xD9, 0xB2, 0x10, 0x94, 0xDE, 0x0A, 0x1A, 0x40, 0xDE,
    0x18, 0x00, 0xEC, 0x12, 0xD1, 0xB9, 0x41, 0xEB, 0x36, 0xE5, 0xEC, 0x16,
    0x17, 0x03, 0xBF, 0x1B, 0xEE, 0xB6, 0xB9, 0xD1, 0x21, 0x86, 0xC9, 0x31,
    0x24, 0xC0, 0x50, 0xA0, 0x10, 0xF8, 0xEC, 0xF1, 0xD5, 0xCD, 0x0A, 0x0E,
    0x02, 0xD0, 0xFF, 0xF9, 0x15, 0xC8, 0x04, 0x87, 0x06, 0xDB, 0x19, 0x0E,
    0x01, 0x21, 0xC9, 0xFA, 0xE6, 0xFC, 0x2F, 0xA2, 0xFA, 0x45, 0x09, 0xF8,
    0x71, 0xB7, 0x90, 0xF3, 0x4A, 0x21, 0xD8, 0x32, 0x3A, 0xA8, 0x25, 0xA7,
    0x0A, 0xAB, 0x2B, 0xD5, 0xE4, 0x1C, 0xE8, 0xD4, 0xF3, 0xAE, 0xA6, 0xFF,
    0xF2, 0xBF, 0xF7, 0xD6, 0x1D, 0xD7, 0xA3, 0x56, 0x0F, 0x05, 0xDA, 0xDC,
    0xF5, 0xF2, 0x12, 0x15, 0xDA, 0xEE, 0xC6, 0x81, 0xB0, 0xA6, 0x32, 0xF3,
    0x0F, 0xDF, 0xC5, 0x24, 0xE5, 0xFB, 0x05, 0x12, 0x1A, 0x91, 0x35, 0x8F,
    0x3B, 0xCD, 0xA9, 0x19, 0x30, 0xBB, 0x2B, 0x19, 0x4A, 0xCE, 0x15, 0xC9,
    0xEF, 0x07, 0xE6, 0xCF, 0xD3, 0x0A, 0xF6, 0xCB, 0x25, 0x3B, 0xF2, 0xDD,
    0x35, 0xE8, 0x64, 0xE7, 0x0D, 0xF1, 0x1D, 0xDF, 0x2E, 0x04, 0x42, 0x36,
    0xEB, 0xE4, 0x13, 0x11, 0xEE, 0xE8, 0x0A, 0xD5, 0xE3, 0xEC, 0x02, 0x1F,
    0x30, 0x14, 0xD5, 0xF0, 0x0A, 0xEA, 0x0B, 0xC4, 0xF1, 0xF6, 0x81, 0x19,
    0xD7, 0xF8, 0x01, 0xE3, 0xD5, 0x1C, 0x12, 0x46, 0xD4, 0x13, 0xCB, 0xF3,
    0x13, 0xE2, 0x34, 0xFC, 0x0E, 0xD0, 0x11, 0x05, 0xF7, 0xE7, 0xE0, 0x2A,
    0x00, 0xDF, 0x1F, 0xC8, 0x4B, 0xF8, 0xEA, 0x42, 0x22, 0x34, 0x0F, 0x06,
    0xEC, 0x01, 0x03, 0xC4, 0xD4, 0xE4, 0xD2, 0x24, 0xE8, 0xC5, 0x1E, 0x05,
    0x0C, 0x46, 0x5C, 0x0B, 0xE0, 0xE8, 0xF7, 0x1A, 0x0E, 0xC3, 0x06, 0x2B,
    0x07, 0x1E, 0xBB, 0x18, 0xCB, 0xF3, 0xCF, 0xC1, 0xE1, 0x16, 0xE0, 0x81,
    0x15, 0x00, 0xD8, 0xD3, 0x01, 0x0F, 0xF6, 0xD4, 0x30, 0xF5, 0x0A, 0x0E,
    0xC2, 0xEF, 0x1B, 0x15, 0xED, 0x38, 0x44, 0x24, 0xE2, 0x05, 0x02, 0xEE,
    0xDD, 0x07, 0x15, 0x24, 0xEB, 0xFE, 0xA5, 0xDE, 0xFB, 0xDC, 0xCC, 0x0B,
    0xB8, 0x0E, 0xDB, 0xFA, 0x01, 0xE4, 0x36, 0xEE, 0xCA, 0x12, 0xCE, 0x36,
    0x2C, 0xC0, 0xE6, 0xBB, 0x12, 0x3E, 0x34, 0x0D, 0xB7, 0x10, 0x0E, 0x48,
    0x09, 0x07, 0x24, 0xA2, 0xDF, 0x01, 0x07, 0xB6, 0x26, 0xFA, 0xFB, 0x03,
    0xF4, 0x13, 0x20, 0x07, 0xBB, 0xED, 0x29, 0xA9, 0xEA, 0xC7, 0x52, 0xE8,
    0xD7, 0x4D, 0x12, 0xFA, 0x1C, 0x3F, 0x14, 0x09, 0xCA, 0xF7, 0xF6, 0x26,
    0x43, 0x17, 0xFD, 0xBE, 0x07, 0x23, 0x95, 0xBB, 0x02, 0x1D, 0xEB, 0x24,
    0xF4, 0x2E, 0x07, 0xF1, 0xED, 0xCD, 0x7F, 0xF0, 0x19, 0x00, 0xFA, 0xC7,
    0xDD, 0xCA, 0xE6, 0xDF, 0xAA, 0xE3, 0xE9, 0x33, 0xF1, 0x0B, 0xC8, 0xFF,
    0x1C, 0xBB, 0xEF, 0x17, 0xED, 0xCB, 0xE9, 0xE9, 0xA5, 0xFE, 0x05, 0xED,
    0x14, 0xE7, 0xC0, 0xF5, 0x18, 0x47, 0x14, 0x04, 0xDA, 0xDE, 0xFE, 0x03,
    0xCE, 0xDF, 0xCD, 0xA6, 0x12, 0x50, 0x19, 0x34, 0xFF, 0x04, 0x02, 0xC5,
    0xB6, 0x05, 0xE3, 0x01, 0xC7, 0x37, 0x4F, 0xEA, 0xC7, 0x15, 0x83, 0x61,
    0x02, 0xE3, 0x58, 0x4F, 0xCB, 0xF6, 0x4D, 0xFD, 0x34, 0xF8, 0xD5, 0xF6,
    0xA8, 0xDB, 0xD3, 0x2F, 0x02, 0xEE, 0x9D, 0x7F, 0xD5, 0x24, 0x33, 0xDD,
    0xED, 0x19, 0xAE, 0xE7, 0x0F, 0xFB, 0x23, 0xFE, 0x21, 0x2F, 0x81, 0x2D,
    0xA2, 0xCB, 0x46, 0xD2, 0xF8, 0x9B, 0xF8, 0x29, 0xB1, 0x09, 0xDD, 0xE2,
    0x0A, 0x4D, 0xE4, 0x15, 0xF0, 0xEC, 0x4F, 0x1D, 0x58, 0x39, 0xF1, 0x26,
    0xF3, 0x3A, 0x33, 0x29, 0x0F, 0xA8, 0x00, 0x0C, 0x95, 0x74, 0x35, 0xA0,
    0xB3, 0xC6, 0xBD, 0x7D, 0x5A, 0xCB, 0xCB, 0xCF, 0x22, 0xD2, 0x8D, 0x03,
    0x35, 0x08, 0x00, 0xE6, 0xBE, 0x8E, 0x39, 0xFB, 0x48, 0xF8, 0xD5, 0x0D,
    0xFE, 0x36, 0x41, 0x5A, 0xE4, 0x2B, 0x4E, 0x2A, 0x04, 0x1E, 0xD0, 0xC0,
    0xC5, 0xC3, 0x0A, 0xCD, 0xF5, 0xD0, 0xC7, 0xE1, 0x36, 0xD8, 0xE1, 0x2E,
    0xAE, 0x21, 0xDE, 0x38, 0x23, 0xC1, 0x9F, 0xFC, 0xC8, 0xEB, 0xD8, 0xD3,
    0x07, 0x29, 0x63, 0x25, 0x52, 0xC7, 0x04, 0x3E, 0xF7, 0xF9, 0x86, 0xBD,
    0xFF, 0x0A, 0x06, 0xD1, 0xB6, 0xE8, 0x35, 0xE9, 0x1B, 0xCE, 0x30, 0xE0,
    0x33, 0xBF, 0xCD, 0xA8, 0xFC, 0xF4, 0xEB, 0xC1, 0xCD, 0xBD, 0x21, 0xED,
    0xD5, 0x40, 0x81, 0x13, 0x21, 0x14, 0xBD, 0xFE, 0xAA, 0x20, 0x01, 0x25,
    0x01, 0x0A, 0xE6, 0x2F, 0x39, 0xC1, 0xDE, 0x9B, 0xCB, 0xE7, 0xEA, 0x2D,
    0xBC, 0x81, 0x41, 0xF0, 0xF7, 0xF3, 0x53, 0x1C, 0xFD, 0x0D, 0xAA, 0x04,
    0xCE, 0xCF, 0xFB, 0x18, 0x02, 0xF3, 0xAB, 0x17, 0xF1, 0x47, 0xBC, 0xBC,
    0xE8, 0xEF, 0xE8, 0xAC, 0xFC, 0x07, 0xBD, 0x10, 0x37, 0x1F, 0xD6, 0x26,
    0x31, 0xCC, 0x03, 0xF7, 0xB7, 0x06, 0x0E, 0x1F, 0xC2, 0xF5, 0xD5, 0xF8,
    0x01, 0x34, 0xDB, 0xBE, 0xC5, 0xE2, 0xBC, 0xF4, 0xEE, 0x0B, 0xDC, 0xE0,
    0xC2, 0x0E, 0xD9, 0xEF, 0xF1, 0x07, 0x91, 0x04, 0xC2, 0xD0, 0x3E, 0x34,
    0xB6, 0xC8, 0x81, 0x44, 0x23, 0xD7, 0xFA, 0x22, 0x04, 0x08, 0xD4, 0x2B,
    0xCD, 0xE1, 0xE1, 0x23, 0xFB, 0xEA, 0x9C, 0x08, 0xFC, 0x4B, 0x09, 0xCA,
    0xFF, 0xDF, 0x60, 0xA4, 0xDA, 0xC5, 0x28, 0xE4, 0x2D, 0x0C, 0x50, 0xE9,
    0x12, 0xDA, 0x40, 0x19, 0xEA, 0xEE, 0x21, 0x1C, 0xF4, 0xAB, 0x2D, 0xF6,
    0xE2, 0xD0, 0x14, 0x0B, 0x1F, 0x0B, 0xFA, 0x0D, 0x2C, 0xFD, 0x11, 0x32,
    0xB4, 0xF6, 0xBB, 0x9A, 0x15, 0x4A, 0x17, 0x6B, 0xBA, 0xF6, 0xD0, 0x96,
    0xF7, 0x97, 0x42, 0xAA, 0x4D, 0x9A, 0x07, 0xE1, 0x5C, 0xF5, 0x02, 0xFF,
    0x30, 0xE8, 0x1A, 0xE1, 0x60, 0x26, 0xF6, 0x2C, 0x1A, 0xB6, 0xD5, 0xFF,
    0xEC, 0xC7, 0xB7, 0x03, 0xBF, 0x0B, 0x03, 0x35, 0xBE, 0xD0, 0xF6, 0x3C,
    0xDA, 0xAF, 0xE6, 0xD1, 0xEC, 0xA8, 0x35, 0x34, 0x00, 0xD4, 0x2A, 0x07,
    0xBC, 0x24, 0xAF, 0x2C, 0x27, 0xF9, 0x0C, 0x87, 0xD0, 0xDD, 0xE0, 0xFD,
    0xCE, 0x0D, 0xD5, 0x22, 0xDA, 0x2C, 0xDD, 0xDF, 0xDF, 0x53, 0x3A, 0xD0,
    0x81, 0xE6, 0x39, 0x33, 0xC5, 0xC5, 0xA9, 0xC0, 0xE4, 0x1D, 0xF2, 0xE5,
    0xF4, 0x34, 0x2E, 0xDA, 0xE0, 0xC9, 0x04, 0xBE, 0xF3, 0xF0, 0xEF, 0xFD,
    0xD5, 0x06, 0xF2, 0x36, 0xD3, 0xAA, 0xEC, 0xC0, 0x31, 0x0D, 0xCC, 0x40,
    0xDC, 0xE7, 0x05, 0x2C, 0x45, 0x00, 0xC8, 0x4F, 0xFD, 0xE8, 0x13, 0x16,
    0x05, 0xD7, 0x0E, 0x21, 0x18, 0x2D, 0xA4, 0x30, 0x7D, 0x1D, 0x42, 0x2E,
    0x0C, 0x00, 0x29, 0x81, 0xB5, 0xC3, 0x0C, 0x0B, 0x02, 0xE2, 0xE0, 0x00,
    0x19, 0x33, 0x04, 0xF7, 0xEF, 0xF0, 0xE7, 0x97, 0xDD, 0xC8, 0xCF, 0x17,
    0xB1, 0xFA, 0xA2, 0xCB, 0x9E, 0xD2, 0x04, 0xDD, 0xE8, 0x1C, 0x00, 0x06,
    0x0C, 0x0D, 0x17, 0xB2, 0x03, 0x0F, 0x0B, 0x0C, 0x26, 0x21, 0x18, 0xFC,
    0xF4, 0x01, 0xEA, 0x0C, 0x0E, 0x23, 0xE1, 0xDB, 0xF6, 0xDC, 0xF2, 0xF4,
    0xEA, 0xE1, 0x2F, 0xF9, 0xDD, 0x90, 0xAC, 0x34, 0xE7, 0xFB, 0xBB, 0xC0,
    0xF6, 0xEA, 0x21, 0xE6, 0xE2, 0xE4, 0x0A, 0x2F, 0x21, 0x14, 0xDE, 0xF3,
    0x00, 0x1B, 0x00, 0x81, 0x2E, 0x04, 0x29, 0x01, 0xFC, 0xFB, 0xD4, 0xEF,
    0x00, 0x13, 0xFB, 0xC3, 0xEA, 0x14, 0x56, 0xB8, 0x2B, 0xE9, 0xD5, 0xF0,
    0xA1, 0xE8, 0xD7, 0xF4, 0x1A, 0x45, 0xBC, 0xF8, 0x33, 0xFE, 0xE3, 0xF5,
    0x02, 0xD3, 0x0A, 0xE8, 0xE2, 0x08, 0xE9, 0xFC, 0xC4, 0x42, 0x2F, 0x2D,
    0x16, 0x15, 0xBD, 0xCB, 0xE3, 0x1C, 0xDD, 0x2B, 0x2D, 0x5F, 0xB3, 0x3C,
    0xF7, 0xFF, 0xA6, 0x3C, 0x1F, 0x24, 0xE9, 0x0C, 0x20, 0xD5, 0xE7, 0xE7,
    0x10, 0xE8, 0x7F, 0xC2, 0xFE, 0xBA, 0xE3, 0x89, 0xE1, 0x15, 0x23, 0x1B,
    0xFD, 0xF6, 0xC6, 0x0B, 0x42, 0x2B, 0x28, 0xED, 0x07, 0xE3, 0xB4, 0xF3,
    0xEC, 0xEF, 0xDF, 0xF7, 0xF5, 0xF3, 0xC5, 0x0F, 0x0F, 0xC7, 0xA6, 0x31,
    0xD1, 0x4A, 0x12, 0xA7, 0xFC, 0xE9, 0x21, 0xCE, 0xF3, 0xE0, 0x02, 0x01,
    0x81, 0xC2, 0xE7, 0xD9, 0xCD, 0x4F, 0xC0, 0xCB, 0x01, 0xEE, 0x28, 0xBC,
    0x11, 0xDC, 0x20, 0x28, 0xB4, 0xCF, 0xDF, 0xE0, 0xFF, 0x05, 0xB3, 0xE8,
    0xF6, 0x10, 0x07, 0x00, 0xF7, 0x0A, 0x29, 0xF8, 0xBB, 0xD8, 0xCE, 0xA5,
    0x1C, 0x2B, 0x02, 0x20, 0xC7, 0x2C, 0x14, 0xF5, 0xE0, 0xE2, 0x1A, 0xF9,
    0xB9, 0xF9, 0x60, 0xBA, 0xD3, 0xD4, 0xE7, 0x23, 0xDD, 0xFE, 0xED, 0xC9,
    0xE7, 0xFD, 0xCD, 0x0C, 0x88, 0x20, 0xE4, 0xE9, 0xFE, 0x11, 0xD4, 0xF0,
    0xD7, 0x1F, 0x2E, 0x07, 0xB6, 0xD8, 0x81, 0xDC, 0xB5, 0x22, 0x17, 0xCA,
    0x31, 0x2E, 0xDD, 0x44, 0x0D, 0x01, 0x10, 0x4F, 0xBB, 0xFE, 0xF9, 0xD3,
    0x00, 0xD5, 0xB1, 0xF3, 0xDD, 0xE2, 0x39, 0x20, 0x5B, 0x15, 0x13, 0x10,
    0xDB, 0xBF, 0x52, 0xFD, 0x09, 0x39, 0xCC, 0xD4, 0xB8, 0x16, 0xE8, 0xF6,
    0x19, 0x39, 0xF0, 0x0D, 0xEB, 0xE3, 0xC1, 0x28, 0x9D, 0x22, 0x8C, 0xF1,
    0x0A, 0x15, 0x13, 0x49, 0x34, 0x0C, 0x85, 0x23, 0x10, 0xE5, 0x00, 0x09,
    0xE5, 0x0B, 0x08, 0xAA, 0x1C, 0xA0, 0xCC, 0xF6, 0xDD, 0xCA, 0x84, 0x04,
    0xD0, 0x18, 0x8A, 0x0B, 0xBE, 0xC2, 0xFF, 0x14, 0x08, 0x3F, 0xF8, 0xDB,
    0x32, 0xDA, 0xEA, 0xBF, 0x95, 0xB3, 0x1A, 0x0C, 0x10, 0x1A, 0x7F, 0x0E,
    0xD4, 0xB4, 0xC3, 0xFD, 0x18, 0xEF, 0x0B, 0xCB, 0x33, 0x46, 0x10, 0xD8,
    0x2B, 0xF8, 0xE3, 0xAA, 0xB8, 0xFF, 0x0B, 0xA5, 0xFC, 0xD4, 0x05, 0xD6,
    0xBC, 0x18, 0xDB, 0x28, 0xE7, 0xF1, 0x54, 0xE7, 0xE6, 0xE1, 0xBE, 0x05,
    0x08, 0x39, 0xEC, 0x00, 0xE4, 0x09, 0x31, 0xEF, 0xDF, 0xB4, 0x1E, 0x06,
    0x29, 0x17, 0x2F, 0x21, 0x30, 0xF0, 0x2C, 0xDA, 0xEE, 0xD1, 0x21, 0x0B,
    0x1A, 0xF2, 0xC5, 0xF6, 0x08, 0x27, 0x64, 0x27, 0x37, 0xC9, 0xE7, 0x1F,
    0xF8, 0xE7, 0xE0, 0xB4, 0x2A, 0xD3, 0xE7, 0xDE, 0x38, 0x81, 0x3D, 0x24,
    0xE9, 0xD1, 0x07, 0x2B, 0x1B, 0xFD, 0xFF, 0x22, 0xF5, 0x2D, 0x08, 0x1C,
    0x17, 0x94, 0x28, 0xD2, 0xF1, 0x2D, 0x27, 0xAE, 0x2E, 0x14, 0x05, 0xC0,
    0x1E, 0xA8, 0xD5, 0x2A, 0xF8, 0x14, 0x20, 0xD6, 0x38, 0x11, 0xAB, 0xDD,
    0x33, 0x2E, 0xB9, 0x1A, 0x06, 0xAD, 0xDD, 0xCF, 0xE3, 0x23, 0xCB, 0xFF,
    0x8F, 0x81, 0x38, 0xD9, 0xE4, 0x10, 0x33, 0xBA, 0xE6, 0x42, 0x03, 0x10,
    0xF2, 0x3B, 0x08, 0xB0, 0xAC, 0xA0, 0x06, 0x02, 0xDC, 0x04, 0x1A, 0x32,
    0xC1, 0xDD, 0xDA, 0xF9, 0xFF, 0x1B, 0x48, 0x0B, 0xE3, 0xF3, 0xFE, 0xAA,
    0xCA, 0xD7, 0xCF, 0xDC, 0xE2, 0xD6, 0xDB, 0x87, 0xD1, 0xB6, 0xAF, 0xC4,
    0x0E, 0xD6, 0xFF, 0xE6, 0x10, 0xD2, 0xE2, 0x8E, 0xCB, 0x0D, 0x2A, 0xFB,
    0x0E, 0x4D, 0x3C, 0x14, 0x60, 0x18, 0xF5, 0xDB, 0x25, 0xEB, 0xCC, 0xB5,
    0x53, 0x9F, 0xAE, 0xAA, 0x37, 0x19, 0x19, 0xA6, 0x15, 0x11, 0x18, 0xAA,
    0x23, 0x21, 0x29, 0xE7, 0x9D, 0x48, 0xE6, 0x0A, 0xD8, 0xD8, 0xC2, 0xF2,
    0x1D, 0x40, 0xD5, 0xA1, 0xFE, 0x3C, 0x06, 0x3A, 0x22, 0x16, 0xAF, 0xE9,
    0x3C, 0xE1, 0xDB, 0xF9, 0xE7, 0xD6, 0x07, 0xE9, 0xF0, 0x00, 0xF4, 0xF2,
    0x26, 0xD3, 0xDC, 0x24, 0x20, 0x34, 0xF2, 0x31, 0x21, 0xF1, 0x14, 0xCE,
    0xE7, 0xCD, 0xB4, 0x42, 0xEB, 0xA5, 0xCF, 0xE6, 0xF6, 0x0B, 0x35, 0xEB,
    0xDF, 0x34, 0x81, 0x1C, 0xE6, 0x03, 0xF8, 0xD5, 0xE1, 0xFB, 0x2C, 0xC2,
    0x1F, 0x1E, 0x05, 0x21, 0xB6, 0xF6, 0xFF, 0xFF, 0x04, 0x00, 0x00, 0x00,
    0x80, 0x00, 0x00, 0x00, 0x91, 0xFE, 0xFF, 0xFF, 0xA4, 0xFF, 0xFF, 0xFF,
    0x18, 0x00, 0x00, 0x00, 0xD5, 0xFF, 0xFF, 0xFF, 0x7F, 0xFF, 0xFF, 0xFF,
    0x1A, 0x00, 0x00, 0x00, 0xD8, 0x00, 0x00, 0x00, 0xF6, 0xFE, 0xFF, 0xFF,
    0x10, 0x00, 0x00, 0x00, 0xAF, 0xFF, 0xFF, 0xFF, 0x1D, 0xFF, 0xFF, 0xFF,
    0x0A, 0x00, 0x00, 0x00, 0x4F, 0x00, 0x00, 0x00, 0xEE, 0x00, 0x00, 0x00,
    0xA0, 0xFF, 0xFF, 0xFF, 0x9A, 0xFE, 0xFF, 0xFF, 0xA1, 0x00, 0x00, 0x00,
    0x25, 0xFE, 0xFF, 0xFF, 0xEF, 0xFD, 0xFF, 0xFF, 0xE6, 0xFF, 0xFF, 0xFF,
    0x36, 0xFF, 0xFF, 0xFF, 0xEE, 0xFF, 0xFF, 0xFF, 0xE7, 0xFF, 0xFF, 0xFF,
    0x08, 0xFF, 0xFF, 0xFF, 0xDD, 0x00, 0x00, 0x00, 0x7F, 0xFF, 0xFF, 0xFF,
    0xC8, 0xFF, 0xFF, 0xFF, 0x31, 0x00, 0x00, 0x00, 0x66, 0x00, 0x00, 0x00,
    0x38, 0xFF, 0xFF, 0xFF, 0xA8, 0xFF, 0xFF, 0xFF, 0xCD, 0xFF, 0xFF, 0xFF,
    0x42, 0xF7, 0xFF, 0xFF, 0x04, 0x00, 0x00, 0x00, 0x20, 0x00, 0x00, 0x00,
    0xD0, 0xEA, 0x99, 0x99, 0xFE, 0xAD, 0x9D, 0xF3, 0xA2, 0xE3, 0x01, 0xF2,
    0xDC, 0xC8, 0xA7, 0x7F, 0xAE, 0xCC, 0xB8, 0xD4, 0x33, 0xE5, 0xDE, 0xCE,
    0xBB, 0xB8, 0xD0, 0xB7, 0xE3, 0xA2, 0xD8, 0xCA, 0x6E, 0xF7, 0xFF, 0xFF,
    0x04, 0x00, 0x00, 0x00, 0x20, 0x00, 0x00, 0x00, 0x1E, 0x2B, 0xEB, 0x26,
    0x74, 0xF4, 0xEE, 0x4C, 0xFD, 0x19, 0x53, 0x84, 0x28, 0xCE, 0x1F, 0x68,
    0xD8, 0x3D, 0x37, 0xEF, 0xF1, 0xED, 0xED, 0x11, 0xAB, 0xE2, 0xC5, 0xFF,
    0x80, 0x1A, 0xFA, 0xDB, 0x9A, 0xF7, 0xFF, 0xFF, 0x04, 0x00, 0x00, 0x00,
    0x00, 0x06, 0x00, 0x00, 0x96, 0xD4, 0x22, 0xD5, 0xCA, 0x02, 0x00, 0x18,
    0xF6, 0x17, 0xFE, 0x48, 0xF8, 0xC3, 0xD1, 0x4A, 0xCE, 0x5F, 0x2F, 0xE4,
    0x27, 0x7F, 0x9C, 0x32, 0xE6, 0x25, 0x47, 0xBA, 0x2D, 0xBD, 0xB2, 0x87,
    0xA3, 0xF5, 0xD4, 0x46, 0x34, 0x39, 0xD9, 0x67, 0x06, 0x8F, 0xC9, 0x39,
    0xD4, 0xB3, 0x3F, 0x08, 0xF4, 0x78, 0x10, 0xB7, 0x2A, 0x0A, 0xF0, 0x41,
    0x32, 0x4E, 0x29, 0x21, 0xF5, 0xDF, 0xEA, 0x13, 0x91, 0xBF, 0xB8, 0xDF,
    0xC7, 0xC2, 0xB6, 0x2C, 0xB8, 0xC9, 0xB4, 0x3E, 0xDC, 0xD8, 0x23, 0x50,
    0xAB, 0x32, 0x34, 0x9B, 0x70, 0x32, 0xA1, 0x1E, 0xED, 0xCA, 0xD9, 0xA8,
    0x20, 0x2F, 0xD9, 0xD7, 0xDA, 0xCE, 0xEA, 0xD4, 0x00, 0xF3, 0x93, 0xEC,
    0xB3, 0x2F, 0xB8, 0x38, 0xE9, 0xF8, 0x98, 0x33, 0xC8, 0xD7, 0x03, 0x0C,
    0x4C, 0xC1, 0xA6, 0x26, 0x47, 0x06, 0xE9, 0x08, 0xFB, 0xBB, 0xE8, 0xCD,
    0xE3, 0xAB, 0xE5, 0xE0, 0x30, 0xE1, 0x2B, 0x3C, 0xB7, 0x05, 0xA7, 0x25,
    0x14, 0xF2, 0xB9, 0x2F, 0x04, 0xE6, 0xFE, 0x3E, 0x1F, 0xB5, 0x06, 0x09,
    0x17, 0xC9, 0x16, 0xF7, 0xDF, 0x19, 0xF9, 0xFC, 0xF5, 0xEA, 0x0E, 0xE6,
    0x30, 0x93, 0xEA, 0x26, 0xD7, 0xC3, 0xB4, 0xE7, 0x07, 0x23, 0xF9, 0x2B,
    0xBB, 0xF2, 0xFA, 0x19, 0x7F, 0xC7, 0xBA, 0x08, 0xFE, 0xE3, 0x3C, 0xFB,
    0x40, 0x04, 0x00, 0x0E, 0xAB, 0x91, 0xDB, 0xC3, 0x04, 0x29, 0xD5, 0x09,
    0xDA, 0x24, 0xE1, 0xFA, 0x29, 0x0A, 0xF3, 0x26, 0xDE, 0x4A, 0xCB, 0x1C,
    0xFD, 0xED, 0xDC, 0xD1, 0x3A, 0xF6, 0x3F, 0x11, 0x29, 0xE2, 0x21, 0xED,
    0xCB, 0xE0, 0xEB, 0xF9, 0xE3, 0xF3, 0xBA, 0x42, 0x28, 0xDD, 0xDD, 0xC7,
    0xD4, 0xEB, 0xD1, 0x3B, 0xB6, 0x03, 0xB2, 0xD3, 0x7F, 0xDB, 0x00, 0x3C,
    0xE1, 0xDF, 0x1A, 0x21, 0xFE, 0xE7, 0x24, 0x1C, 0x03, 0xCF, 0x23, 0xB8,
    0x36, 0xDB, 0xEB, 0xEE, 0xF1, 0xE1, 0xF6, 0x2A, 0xAD, 0x2D, 0x96, 0xDB,
    0xFB, 0xDA, 0x2F, 0x14, 0x07, 0xC2, 0xEB, 0xD4, 0xEF, 0xF3, 0x3F, 0x05,
    0xD5, 0xD6, 0xE8, 0xD5, 0x9F, 0xC4, 0xE6, 0x1D, 0xCA, 0x12, 0xCB, 0x57,
    0xBC, 0x18, 0xC6, 0x26, 0xFD, 0xC7, 0x0B, 0x47, 0xB3, 0x40, 0x20, 0x00,
    0x4A, 0xE3, 0xD5, 0xD7, 0xE2, 0xF8, 0xFB, 0xE4, 0xFC, 0xBF, 0xEA, 0x9D,
    0xC5, 0xBA, 0xCE, 0x23, 0xE7, 0x1E, 0xDB, 0x7B, 0xAC, 0xF3, 0xE3, 0x2F,
    0xF4, 0x19, 0xDF, 0x44, 0xDB, 0x3A, 0x51, 0xCD, 0x44, 0x21, 0xA3, 0x4D,
    0x1C, 0xF4, 0x34, 0xDF, 0x24, 0xE6, 0xDC, 0xF9, 0xE4, 0xE1, 0xDF, 0x26,
    0x12, 0xD5, 0xEA, 0x45, 0xC4, 0x04, 0xC7, 0x5A, 0xB4, 0xE3, 0x04, 0x52,
    0x81, 0x2F, 0x45, 0x06, 0x4D, 0xCB, 0xAA, 0xE5, 0xF2, 0xE2, 0xDB, 0xDF,
    0x04, 0xC8, 0x12, 0xF3, 0x8B, 0xFB, 0xEA, 0x1F, 0xD4, 0xCA, 0xF9, 0x48,
    0x11, 0x93, 0x29, 0x31, 0x01, 0xBC, 0x1F, 0x1D, 0xFB, 0x2B, 0xF3, 0xA5,
    0x3B, 0x4F, 0xCB, 0xE2, 0xAB, 0x0F, 0x10, 0xBD, 0x2A, 0xD8, 0xDA, 0x8F,
    0xE1, 0xE1, 0xFB, 0x23, 0xB3, 0x3F, 0x1F, 0x4C, 0xCA, 0xA6, 0xE2, 0x7F,
    0x01, 0x37, 0x3C, 0x22, 0xC1, 0x45, 0xF8, 0xB7, 0x4A, 0x2F, 0xFC, 0xF0,
    0xFB, 0x30, 0x12, 0xBD, 0x12, 0x08, 0x93, 0xDA, 0xCA, 0x0B, 0x0B, 0xF7,
    0xF9, 0x1A, 0xC4, 0x1F, 0xEF, 0xBB, 0xB1, 0x2F, 0xD0, 0x0D, 0x01, 0x60,
    0xBD, 0x22, 0x10, 0xA1, 0x53, 0x08, 0xA5, 0xCC, 0xB3, 0xE1, 0xF4, 0xBB,
    0x1F, 0x25, 0xF4, 0xDE, 0xB5, 0xBD, 0x08, 0x14, 0xC5, 0xEC, 0x05, 0x1B,
    0xE9, 0xCD, 0x0B, 0x36, 0xDB, 0xB5, 0x0A, 0x50, 0xD3, 0x2A, 0x4E, 0xBA,
    0x39, 0x63, 0x99, 0x13, 0xF1, 0xD8, 0x13, 0xE0, 0x26, 0x19, 0xDB, 0xF4,
    0xC2, 0xE9, 0xF7, 0xE8, 0xF5, 0x0C, 0xB9, 0x24, 0xC6, 0xDE, 0xD5, 0x42,
    0x0F, 0xF2, 0x15, 0x5A, 0xC0, 0x2E, 0x13, 0xAE, 0x2D, 0x4B, 0xCD, 0x24,
    0xC1, 0xFD, 0x0E, 0xA4, 0x48, 0x14, 0xBB, 0x9A, 0xE5, 0xCF, 0xAE, 0x2F,
    0xD8, 0xEE, 0xF5, 0x53, 0xF6, 0xB9, 0xCA, 0x7F, 0xB4, 0x11, 0x34, 0x3A,
    0xF5, 0x3B, 0x1F, 0xB4, 0x4E, 0x18, 0xDD, 0x09, 0xB8, 0xE0, 0xE6, 0xDD,
    0x2E, 0x06, 0xE8, 0xCC, 0x39, 0xE9, 0xC8, 0xE6, 0xAC, 0x41, 0x2E, 0xA2,
    0x40, 0xBC, 0xAE, 0x32, 0xE1, 0xED, 0x9E, 0x8A, 0xF2, 0xDB, 0x30, 0xAB,
    0xAE, 0xDF, 0x6A, 0x5C, 0x31, 0x57, 0xDF, 0xF0, 0x3F, 0xF6, 0x0A, 0x3F,
    0x46, 0xA4, 0x3C, 0x20, 0x9C, 0x4B, 0xE2, 0xDF, 0xE3, 0xA6, 0xB1, 0xD2,
    0xC5, 0x0F, 0xB5, 0xBD, 0xDF, 0xB1, 0x0C, 0x0B, 0xAB, 0xAA, 0x57, 0x09,
    0x03, 0x64, 0x34, 0x50, 0x4F, 0x3A, 0xD2, 0xD8, 0xFD, 0xB6, 0x45, 0xC5,
    0xAA, 0x3F, 0xE7, 0xF4, 0x42, 0xC7, 0x81, 0xC0, 0xB1, 0x28, 0x05, 0x92,
    0x17, 0x00, 0xE3, 0x11, 0x8C, 0x8F, 0x7F, 0xF2, 0x02, 0x53, 0x3E, 0x2D,
    0x47, 0x22, 0x40, 0x2A, 0xC8, 0xB0, 0xAC, 0xD9, 0x07, 0x0B, 0xFA, 0x1A,
    0x98, 0x3E, 0xB7, 0xD4, 0x28, 0xD2, 0xE0, 0xBB, 0xCD, 0x49, 0xBC, 0xE3,
    0x2E, 0x02, 0xDA, 0xD4, 0x3A, 0xD4, 0x3B, 0x51, 0x1D, 0x14, 0xDD, 0xE5,
    0x1E, 0xAF, 0xF1, 0x09, 0x4B, 0xF9, 0x03, 0x0E, 0xF0, 0x0A, 0xA8, 0xE4,
    0xED, 0x27, 0xCE, 0x31, 0x16, 0xD9, 0xEA, 0x29, 0x56, 0x0A, 0x01, 0x11,
    0xE6, 0xED, 0x42, 0xE7, 0xAE, 0x00, 0xFA, 0xD6, 0x20, 0xB3, 0xFD, 0xBF,
    0xF3, 0xE3, 0xD1, 0xE4, 0xCA, 0xFE, 0x05, 0x12, 0x08, 0x1B, 0xA0, 0xFE,
    0xBA, 0xFC, 0xD1, 0xFD, 0xEF, 0x81, 0xCD, 0x99, 0x0C, 0xEE, 0xF5, 0x38,
    0x15, 0xBC, 0xE9, 0xDF, 0xC1, 0x33, 0xFF, 0xE4, 0xC9, 0x09, 0xE8, 0x30,
    0xF8, 0xCB, 0xDE, 0x26, 0xFD, 0x22, 0xF5, 0xE2, 0x2E, 0x50, 0xA2, 0xF4,
    0xE3, 0x24, 0xCD, 0xE6, 0x99, 0x1C, 0xD4, 0xEF, 0x27, 0xF2, 0xA2, 0x9E,
    0xE0, 0xF9, 0xF0, 0x1D, 0xE0, 0x16, 0x46, 0x02, 0x0D, 0xA8, 0xBE, 0x60,
    0x2C, 0x2D, 0x46, 0x4F, 0xB8, 0x28, 0xC5, 0xA7, 0x5B, 0xF0, 0x88, 0xDD,
    0xB6, 0x54, 0xCA, 0xC3, 0x30, 0xCF, 0xC2, 0xEF, 0xCC, 0x30, 0xD0, 0x3B,
    0x24, 0x1C, 0xEA, 0xEF, 0xA2, 0xDD, 0xCC, 0x29, 0xE0, 0x36, 0xF5, 0x49,
    0xE4, 0x4C, 0xEF, 0xFD, 0xB3, 0x40, 0xD1, 0xF3, 0x81, 0xD4, 0x01, 0xC7,
    0x0C, 0x21, 0xBE, 0xCC, 0x28, 0x07, 0x0A, 0x07, 0xD9, 0x45, 0x22, 0xB7,
    0x10, 0xCA, 0xBD, 0x17, 0xD4, 0xDF, 0xB3, 0x81, 0xDB, 0xCC, 0xD4, 0xF2,
    0xC5, 0xEC, 0x3D, 0x24, 0x2E, 0x47, 0x1D, 0x03, 0x4E, 0x01, 0x0E, 0x1F,
    0x22, 0xCF, 0x07, 0xE5, 0xBA, 0x11, 0x13, 0xFC, 0xFB, 0xDB, 0x8B, 0x03,
    0xF8, 0x1E, 0x16, 0xCA, 0x15, 0xE5, 0xF8, 0x0F, 0xBF, 0xB3, 0x34, 0x2A,
    0xE9, 0x20, 0x20, 0xF9, 0x19, 0x0C, 0x27, 0x09, 0x18, 0xA7, 0xE7, 0xE2,
    0xDA, 0x17, 0x3C, 0x0F, 0x12, 0xB8, 0xFF, 0xD5, 0xC2, 0x14, 0xC6, 0xE0,
    0x10, 0xF0, 0x25, 0x01, 0xC3, 0xC2, 0x43, 0x3E, 0x11, 0x0F, 0xF5, 0x00,
    0x2D, 0x0E, 0xE6, 0x06, 0xF9, 0xA6, 0xBD, 0xDF, 0x81, 0xE5, 0xD0, 0xA9,
    0x41, 0x02, 0x16, 0xC7, 0x87, 0x58, 0xD4, 0xFF, 0xEA, 0x07, 0x22, 0xC8,
    0xC2, 0xB1, 0x31, 0x24, 0x58, 0x67, 0xEE, 0xD4, 0x37, 0x20, 0x19, 0x14,
    0x71, 0xC9, 0x46, 0x09, 0xD5, 0xE8, 0x0C, 0xD6, 0x44, 0x9A, 0x98, 0x16,
    0x81, 0xF2, 0x0E, 0xF5, 0x15, 0x0C, 0x3E, 0xE8, 0x9F, 0xC1, 0x34, 0x70,
    0xCD, 0x6A, 0x01, 0xBA, 0x0E, 0xE4, 0x75, 0x60, 0x4F, 0x8A, 0x04, 0x37,
    0xE3, 0xD8, 0x2B, 0x00, 0xD6, 0x97, 0xBD, 0xCC, 0xE3, 0xD6, 0x07, 0x97,
    0xF6, 0x24, 0x22, 0x42, 0x15, 0xF0, 0x4F, 0x0A, 0x47, 0x2B, 0x2B, 0x19,
    0x38, 0x31, 0x55, 0x2F, 0x86, 0xB3, 0xD1, 0x03, 0xDF, 0x06, 0xF4, 0x3B,
    0xE4, 0xE5, 0xE1, 0xF8, 0xEB, 0xE8, 0x1E, 0x42, 0x03, 0x22, 0xFC, 0xFA,
    0x35, 0x50, 0xD6, 0xDD, 0x07, 0xE1, 0x1E, 0xC3, 0x3A, 0xC5, 0x04, 0xB5,
    0xB6, 0xC8, 0xB4, 0x3F, 0x09, 0xE5, 0x1E, 0x5E, 0xB8, 0x0D, 0x92, 0x02,
    0xE2, 0xF3, 0xFD, 0x35, 0xA8, 0x37, 0x49, 0xAA, 0x7F, 0x42, 0x84, 0x50,
    0xD1, 0x2D, 0x61, 0x0F, 0x2A, 0xE2, 0xD2, 0xCA, 0xD8, 0xA8, 0xE0, 0x2C,
    0x10, 0x11, 0xB0, 0x57, 0x00, 0x1D, 0x2F, 0x23, 0x8E, 0xBA, 0xF1, 0x5B,
    0xA2, 0x4E, 0x12, 0xBB, 0x1C, 0x98, 0x93, 0x17, 0x3B, 0xFA, 0x11, 0xC9,
    0x0A, 0xA3, 0x2D, 0xE4, 0xF3, 0xC5, 0xC8, 0x0C, 0xC1, 0xB8, 0xDA, 0xD7,
    0xAF, 0xD8, 0xC1, 0x43, 0x16, 0x05, 0xEE, 0x96, 0x32, 0xED, 0x0A, 0x06,
    0x05, 0xB8, 0xB6, 0xE1, 0x00, 0x08, 0x3D, 0xF2, 0x23, 0xFB, 0xF3, 0xD6,
    0x0B, 0x28, 0xEF, 0x11, 0x45, 0xFF, 0xFC, 0xEB, 0xF1, 0xCC, 0xD0, 0x1D,
    0x18, 0x21, 0xE5, 0x9B, 0xA8, 0xAF, 0xE8, 0x2B, 0x28, 0xE4, 0x2E, 0xF2,
    0xD2, 0x37, 0x43, 0xFE, 0xB0, 0xF5, 0x36, 0x0F, 0xB6, 0x06, 0x3F, 0xDC,
    0xFE, 0x0B, 0xC5, 0x0D, 0xB8, 0xF6, 0xD6, 0x5F, 0x0C, 0x00, 0xAF, 0xB9,
    0xC7, 0xD4, 0xBB, 0xE1, 0x35, 0x81, 0x06, 0xF1, 0x01, 0xFA, 0x04, 0x3F,
    0x9C, 0x18, 0xA7, 0xB9, 0xC5, 0x00, 0xD9, 0x0E, 0xCC, 0xDE, 0xAE, 0x15,
    0xCC, 0xCF, 0x12, 0x0C, 0x2F, 0x0B, 0x09, 0x36, 0x04, 0x21, 0x11, 0xBE,
    0x65, 0x4E, 0xAD, 0x23, 0xE3, 0x4F, 0x13, 0xEC, 0x19, 0xF0, 0xC0, 0x8F,
    0xD9, 0x0A, 0xCF, 0x13, 0xE0, 0x43, 0xE1, 0x5F, 0xD2, 0xA8, 0xA2, 0x2A,
    0xD2, 0xE4, 0xF8, 0x44, 0xC9, 0x74, 0xF9, 0xA9, 0x37, 0x56, 0x81, 0x34,
    0xC5, 0x3F, 0xCB, 0xE0, 0x54, 0x10, 0xF0, 0xAE, 0xF5, 0xBF, 0x08, 0x2A,
    0x16, 0x1C, 0xF6, 0x0C, 0xF7, 0x00, 0x08, 0x70, 0xC7, 0x21, 0x23, 0x5E,
    0xED, 0x28, 0x16, 0xBF, 0x6E, 0x11, 0x8A, 0xE0, 0xE5, 0x24, 0xFE, 0xCB,
    0x27, 0xC7, 0xBB, 0x95, 0xA5, 0x19, 0xEF, 0x40, 0xE3, 0x40, 0xD0, 0x51,
    0xA8, 0xBD, 0x19, 0x7F, 0xF7, 0x0F, 0x3D, 0x47, 0xEE, 0x1D, 0xCD, 0xFE,
    0x37, 0x22, 0x92, 0x21, 0xEF, 0x1D, 0xD0, 0xA5, 0x58, 0xBD, 0xA8, 0xFB,
    0xFA, 0xE3, 0xD2, 0xF6, 0xA6, 0xDD, 0xFC, 0x11, 0x07, 0xB9, 0xEA, 0x4A,
    0xF9, 0x07, 0x58, 0x30, 0xED, 0x23, 0x45, 0xF2, 0x5F, 0x24, 0xC2, 0xE0,
    0xB3, 0x2B, 0x3B, 0xB1, 0x32, 0xFE, 0xE4, 0xC3, 0x06, 0xDA, 0xCF, 0x0D,
    0x2F, 0x18, 0x04, 0x38, 0xFA, 0xC0, 0xB3, 0xF5, 0xC4, 0x1D, 0x38, 0x51,
    0xC1, 0x45, 0xF9, 0xB1, 0x47, 0x35, 0xBA, 0xF3, 0xAB, 0xD9, 0x09, 0xC2,
    0xF2, 0x01, 0xD4, 0xF4, 0x9D, 0x81, 0x8C, 0xDB, 0xDF, 0xBB, 0xF9, 0xA3,
    0xE7, 0x1A, 0x9F, 0x37, 0xC8, 0xA1, 0xF6, 0x06, 0xF5, 0xD7, 0x0A, 0xC5,
    0xDD, 0xB5, 0x16, 0xAE, 0xC7, 0xEF, 0x50, 0x0E, 0xDB, 0x06, 0x5A, 0xB4,
    0xD6, 0xD4, 0xEA, 0x38, 0xED, 0xC5, 0x99, 0xBB, 0x07, 0xC7, 0x30, 0x19,
    0xAA, 0x43, 0xF5, 0x2C, 0xB1, 0xEB, 0xBD, 0x20, 0x0C, 0xB8, 0xC9, 0x1D,
    0x4E, 0x0B, 0x5C, 0xCF, 0x06, 0x1B, 0xEE, 0x18, 0xF5, 0x91, 0x8D, 0xFE,
    0x47, 0xE9, 0xD2, 0x0D, 0x9F, 0x27, 0xF9, 0x4C, 0xD0, 0xD3, 0x83, 0x53,
    0x18, 0xF0, 0xAC, 0x10, 0x07, 0xA0, 0xC2, 0x2B, 0x4E, 0xB6, 0x14, 0x24,
    0x2C, 0x0D, 0x26, 0xE5, 0xA6, 0xFD, 0xFF, 0xFF, 0x04, 0x00, 0x00, 0x00,
    0x40, 0x00, 0x00, 0x00, 0x52, 0x00, 0x00, 0x00, 0x7E, 0x00, 0x00, 0x00,
    0xC2, 0xFF, 0xFF, 0xFF, 0x5B, 0x00, 0x00, 0x00, 0x13, 0x00, 0x00, 0x00,
    0x13, 0x00, 0x00, 0x00, 0x4B, 0xFE, 0xFF, 0xFF, 0x04, 0x00, 0x00, 0x00,
    0xAA, 0xFF, 0xFF, 0xFF, 0xAE, 0xFE, 0xFF, 0xFF, 0x70, 0xFE, 0xFF, 0xFF,
    0xCC, 0xFF, 0xFF, 0xFF, 0x37, 0x00, 0x00, 0x00, 0xBD, 0xFF, 0xFF, 0xFF,
    0xA8, 0xFF, 0xFF, 0xFF, 0x22, 0x00, 0x00, 0x00, 0xF2, 0xFD, 0xFF, 0xFF,
    0x04, 0x00, 0x00, 0x00, 0x00, 0x01, 0x00, 0x00, 0x5C, 0x63, 0xF8, 0x7F,
    0x5F, 0x4F, 0xA1, 0x76, 0x48, 0x94, 0xA7, 0x23, 0x09, 0x61, 0x23, 0xB0,
    0x4C, 0xFB, 0x5D, 0x1F, 0xF7, 0x7F, 0xCC, 0x10, 0x39, 0xC1, 0x1F, 0x43,
    0x63, 0x7E, 0x3F, 0xDE, 0xB9, 0xEA, 0x0E, 0x58, 0xD0, 0x3A, 0x85, 0x7F,
    0xAF, 0x93, 0xC5, 0xAD, 0x7A, 0x47, 0xF7, 0x78, 0xF1, 0x50, 0x30, 0xDD,
    0xF4, 0xE9, 0x84, 0x7F, 0xEF, 0x97, 0xAF, 0xA2, 0x04, 0x36, 0xD2, 0x6D,
    0x5F, 0xDE, 0x4D, 0x34, 0x77, 0x20, 0xE3, 0x63, 0x7C, 0xCE, 0xD5, 0x7F,
    0x42, 0x2A, 0x6A, 0xAC, 0x39, 0xC0, 0x90, 0xC9, 0x07, 0xBF, 0x9B, 0x01,
    0xDD, 0x81, 0xF2, 0xEF, 0x0D, 0xC6, 0xA6, 0xC6, 0x81, 0xDE, 0xC9, 0xAC,
    0x9C, 0xCC, 0xE7, 0x07, 0xDF, 0x7B, 0x3C, 0xD7, 0x0D, 0xBB, 0xBE, 0xD8,
    0x8E, 0xF3, 0xD9, 0xD2, 0xEF, 0xD8, 0xDD, 0xF1, 0xF1, 0x81, 0x77, 0xD0,
    0xEF, 0xC2, 0xBA, 0xF5, 0xD8, 0xFA, 0xD6, 0xC5, 0x9A, 0x81, 0x2D, 0xE3,
    0x2A, 0x7E, 0x30, 0xA8, 0xE5, 0xA4, 0xB3, 0xF6, 0x00, 0xF5, 0xF5, 0xC0,
    0xCD, 0xE7, 0x7F, 0xFF, 0xF8, 0xC9, 0xDF, 0xF5, 0xFA, 0xF3, 0xF7, 0xD8,
    0x88, 0xE9, 0xE1, 0xC6, 0x91, 0xC3, 0x5C, 0xF2, 0xF1, 0x7F, 0xF3, 0xE1,
    0xE7, 0xC5, 0xB3, 0xEB, 0x63, 0x57, 0x39, 0xF3, 0x7F, 0x47, 0xA4, 0xEA,
    0x3B, 0x91, 0xAC, 0x3C, 0x49, 0x51, 0x76, 0xF4, 0x6C, 0x21, 0x32, 0x0E,
    0x00, 0x5A, 0xC9, 0x28, 0xE6, 0xDE, 0xE7, 0x7F, 0x55, 0x5E, 0x5A, 0x2D,
    0xBD, 0xEF, 0xDA, 0xD3, 0xC3, 0x83, 0x51, 0xF0, 0xE3, 0x56, 0x0C, 0x81,
    0xEF, 0xC9, 0x97, 0xE8, 0x39, 0xC1, 0xE8, 0x34, 0x45, 0x55, 0xFD, 0xFA,
    0xFF, 0x00, 0x00, 0x63, 0xD5, 0x4F, 0x7F, 0x21, 0x7F, 0x32, 0x03, 0x6C,
    0x6C, 0x29, 0xEF, 0x28, 0x2B, 0xEB, 0xF4, 0x76, 0x13, 0x2E, 0x09, 0x29,
    0xFE, 0xFE, 0xFF, 0xFF, 0x04, 0x00, 0x00, 0x00, 0x40, 0x00, 0x00, 0x00,
    0x87, 0x05, 0x00, 0x00, 0xE9, 0xFC, 0xFF, 0xFF, 0x08, 0x04, 0x00, 0x00,
    0xE6, 0x03, 0x00, 0x00, 0x46, 0x01, 0x00, 0x00, 0x48, 0xF8, 0xFF, 0xFF,
    0xBE, 0x10, 0x00, 0x00, 0x97, 0x0C, 0x00, 0x00, 0x5E, 0x10, 0x00, 0x00,
    0xDA, 0x03, 0x00, 0x00, 0xCB, 0x0F, 0x00, 0x00, 0x91, 0x09, 0x00, 0x00,
    0xC4, 0x00, 0x00, 0x00, 0x71, 0x13, 0x00, 0x00, 0xFD, 0xFD, 0xFF, 0xFF,
    0xBF, 0xFF, 0xFF, 0xFF, 0x4A, 0xFF, 0xFF, 0xFF, 0x04, 0x00, 0x00, 0x00,
    0x10, 0x00, 0x00, 0x00, 0x97, 0xC4, 0xB3, 0xAE, 0xC1, 0x20, 0x7F, 0x68,
    0x3E, 0x67, 0x46, 0x92, 0x92, 0x78, 0x86, 0xB6, 0x66, 0xFF, 0xFF, 0xFF,
    0x04, 0x00, 0x00, 0x00, 0x04, 0x00, 0x00, 0x00, 0x5E, 0x02, 0x00, 0x00,
    0x76, 0xFF, 0xFF, 0xFF, 0x04, 0x00, 0x00, 0x00, 0x0C, 0x00, 0x00, 0x00,
    0xFF, 0xFF, 0xFF, 0xFF, 0x25, 0x00, 0x00, 0x00, 0x10, 0x00, 0x00, 0x00,
    0x8E, 0xFF, 0xFF, 0xFF, 0x04, 0x00, 0x00, 0x00, 0x0C, 0x00, 0x00, 0x00,
    0xFF, 0xFF, 0xFF, 0xFF, 0x25, 0x00, 0x00, 0x00, 0x20, 0x00, 0x00, 0x00,
    0xA6, 0xFF, 0xFF, 0xFF, 0x04, 0x00, 0x00, 0x00, 0x0C, 0x00, 0x00, 0x00,
    0xFF, 0xFF, 0xFF, 0xFF, 0x4B, 0x00, 0x00, 0x00, 0x20, 0x00, 0x00, 0x00,
    0xBE, 0xFF, 0xFF, 0xFF, 0x04, 0x00, 0x00, 0x00, 0x0C, 0x00, 0x00, 0x00,
    0xFF, 0xFF, 0xFF, 0xFF, 0x4B, 0x00, 0x00, 0x00, 0x10, 0x00, 0x00, 0x00,
    0xD6, 0xFF, 0xFF, 0xFF, 0x04, 0x00, 0x00, 0x00, 0x04, 0x00, 0x00, 0x00,
    0x01, 0x00, 0x00, 0x00, 0xE6, 0xFF, 0xFF, 0xFF, 0x04, 0x00, 0x00, 0x00,
    0x0C, 0x00, 0x00, 0x00, 0xFF, 0xFF, 0xFF, 0xFF, 0x96, 0x00, 0x00, 0x00,
    0x10, 0x00, 0x00, 0x00, 0x00, 0x00, 0x06, 0x00, 0x08, 0x00, 0x04, 0x00,
    0x06, 0x00, 0x00, 0x00, 0x04, 0x00, 0x00, 0x00, 0x04, 0x00, 0x00, 0x00,
    0xFD, 0xFF, 0xFF, 0xFF, 0xA4, 0xD2, 0xFF, 0xFF, 0xA8, 0xD2, 0xFF, 0xFF,
    0x0F, 0x00, 0x00, 0x00, 0x4D, 0x4C, 0x49, 0x52, 0x20, 0x43, 0x6F, 0x6E,
    0x76, 0x65, 0x72, 0x74, 0x65, 0x64, 0x2E, 0x00, 0x01, 0x00, 0x00, 0x00,
    0x14, 0x00, 0x00, 0x00, 0x00, 0x00, 0x0E, 0x00, 0x18, 0x00, 0x14, 0x00,
    0x10, 0x00, 0x0C, 0x00, 0x08, 0x00, 0x04, 0x00, 0x0E, 0x00, 0x00, 0x00,
    0x14, 0x00, 0x00, 0x00, 0x1C, 0x00, 0x00, 0x00, 0x24, 0x05, 0x00, 0x00,
    0x28, 0x05, 0x00, 0x00, 0x2C, 0x05, 0x00, 0x00, 0x04, 0x00, 0x00, 0x00,
    0x6D, 0x61, 0x69, 0x6E, 0x00, 0x00, 0x00, 0x00, 0x17, 0x00, 0x00, 0x00,
    0xDC, 0x04, 0x00, 0x00, 0x7C, 0x04, 0x00, 0x00, 0x38, 0x04, 0x00, 0x00,
    0x04, 0x04, 0x00, 0x00, 0xDC, 0x03, 0x00, 0x00, 0xA0, 0x03, 0x00, 0x00,
    0x4C, 0x03, 0x00, 0x00, 0x14, 0x03, 0x00, 0x00, 0xE4, 0x02, 0x00, 0x00,
    0xA0, 0x02, 0x00, 0x00, 0x6C, 0x02, 0x00, 0x00, 0x38, 0x02, 0x00, 0x00,
    0x10, 0x02, 0x00, 0x00, 0xE0, 0x01, 0x00, 0x00, 0x9C, 0x01, 0x00, 0x00,
    0x74, 0x01, 0x00, 0x00, 0x44, 0x01, 0x00, 0x00, 0x00, 0x01, 0x00, 0x00,
    0xD8, 0x00, 0x00, 0x00, 0xA4, 0x00, 0x00, 0x00, 0x60, 0x00, 0x00, 0x00,
    0x28, 0x00, 0x00, 0x00, 0x04, 0x00, 0x00, 0x00, 0x7A, 0xFC, 0xFF, 0xFF,
    0x0C, 0x00, 0x00, 0x00, 0x10, 0x00, 0x00, 0x00, 0x08, 0x00, 0x00, 0x00,
    0x01, 0x00, 0x00, 0x00, 0x2C, 0x00, 0x00, 0x00, 0x01, 0x00, 0x00, 0x00,
    0x2B, 0x00, 0x00, 0x00, 0x0A, 0xFC, 0xFF, 0xFF, 0x14, 0x00, 0x00, 0x00,
    0x00, 0x00, 0x00, 0x08, 0x10, 0x00, 0x00, 0x00, 0x14, 0x00, 0x00, 0x00,
    0x07, 0x00, 0x00, 0x00, 0x94, 0xD3, 0xFF, 0xFF, 0x01, 0x00, 0x00, 0x00,
    0x2B, 0x00, 0x00, 0x00, 0x03, 0x00, 0x00, 0x00, 0x2A, 0x00, 0x00, 0x00,
    0x09, 0x00, 0x00, 0x00, 0x08, 0x00, 0x00, 0x00, 0x5A, 0xFD, 0xFF, 0xFF,
    0x1C, 0x00, 0x00, 0x00, 0x00, 0x00, 0x00, 0x08, 0x1C, 0x00, 0x00, 0x00,
    0x20, 0x00, 0x00, 0x00, 0x07, 0x00, 0x00, 0x00, 0x00, 0x00, 0x06, 0x00,
    0x08, 0x00, 0x07, 0x00, 0x06, 0x00, 0x00, 0x00, 0x00, 0x00, 0x00, 0x01,
    0x01, 0x00, 0x00, 0x00, 0x2A, 0x00, 0x00, 0x00, 0x03, 0x00, 0x00, 0x00,
    0x29, 0x00, 0x00, 0x00, 0x0B, 0x00, 0x00, 0x00, 0x0A, 0x00, 0x00, 0x00,
    0x7E, 0xFC, 0xFF, 0xFF, 0x14, 0x00, 0x00, 0x00, 0x00, 0x00, 0x00, 0x1B,
    0x10, 0x00, 0x00, 0x00, 0x14, 0x00, 0x00, 0x00, 0x06, 0x00, 0x00, 0x00,
    0x08, 0xD4, 0xFF, 0xFF, 0x01, 0x00, 0x00, 0x00, 0x29, 0x00, 0x00, 0x00,
    0x02, 0x00, 0x00, 0x00, 0x28, 0x00, 0x00, 0x00, 0x03, 0x00, 0x00, 0x00,
    0x3E, 0xFD, 0xFF, 0xFF, 0x0C, 0x00, 0x00, 0x00, 0x10, 0x00, 0x00, 0x00,
    0x04, 0x00, 0x00, 0x00, 0x01, 0x00, 0x00, 0x00, 0x28, 0x00, 0x00, 0x00,
    0x02, 0x00, 0x00, 0x00, 0x27, 0x00, 0x00, 0x00, 0x07, 0x00, 0x00, 0x00,
    0xD2, 0xFC, 0xFF, 0xFF, 0x14, 0x00, 0x00, 0x00, 0x00, 0x00, 0x00, 0x01,
    0x1C, 0x00, 0x00, 0x00, 0x20, 0x00, 0x00, 0x00, 0x01, 0x00, 0x00, 0x00,
    0xC4, 0xFC, 0xFF, 0xFF, 0x00, 0x00, 0x00, 0x01, 0x01, 0x00, 0x00, 0x00,
    0x01, 0x00, 0x00, 0x00, 0x01, 0x00, 0x00, 0x00, 0x27, 0x00, 0x00, 0x00,
    0x03, 0x00, 0x00, 0x00, 0x26, 0x00, 0x00, 0x00, 0x0D, 0x00, 0x00, 0x00,
    0x0C, 0x00, 0x00, 0x00, 0xB6, 0xFC, 0xFF, 0xFF, 0x10, 0x00, 0x00, 0x00,
    0x00, 0x00, 0x00, 0x34, 0x0C, 0x00, 0x00, 0x00, 0x10, 0x00, 0x00, 0x00,
    0x98, 0xD4, 0xFF, 0xFF, 0x01, 0x00, 0x00, 0x00, 0x26, 0x00, 0x00, 0x00,
    0x02, 0x00, 0x00, 0x00, 0x25, 0x00, 0x00, 0x00, 0x01, 0x00, 0x00, 0x00,
    0xCE, 0xFD, 0xFF, 0xFF, 0x0C, 0x00, 0x00, 0x00, 0x10, 0x00, 0x00, 0x00,
    0x04, 0x00, 0x00, 0x00, 0x01, 0x00, 0x00, 0x00, 0x25, 0x00, 0x00, 0x00,
    0x02, 0x00, 0x00, 0x00, 0x24, 0x00, 0x00, 0x00, 0x06, 0x00, 0x00, 0x00,
    0x62, 0xFD, 0xFF, 0xFF, 0x14, 0x00, 0x00, 0x00, 0x00, 0x00, 0x00, 0x05,
    0x24, 0x00, 0x00, 0x00, 0x28, 0x00, 0x00, 0x00, 0x05, 0x00, 0x00, 0x00,
    0x6E, 0xFE, 0xFF, 0xFF, 0x01, 0x00, 0x00, 0x00, 0x02, 0x00, 0x00, 0x00,
    0x01, 0x00, 0x00, 0x00, 0x02, 0x00, 0x00, 0x00, 0x00, 0x00, 0x00, 0x01,
    0x01, 0x00, 0x00, 0x00, 0x24, 0x00, 0x00, 0x00, 0x01, 0x00, 0x00, 0x00,
    0x23, 0x00, 0x00, 0x00, 0x46, 0xFD, 0xFF, 0xFF, 0x10, 0x00, 0x00, 0x00,
    0x00, 0x00, 0x00, 0x34, 0x0C, 0x00, 0x00, 0x00, 0x10, 0x00, 0x00, 0x00,
    0x28, 0xD5, 0xFF, 0xFF, 0x01, 0x00, 0x00, 0x00, 0x23, 0x00, 0x00, 0x00,
    0x02, 0x00, 0x00, 0x00, 0x22, 0x00, 0x00, 0x00, 0x03, 0x00, 0x00, 0x00,
    0x5E, 0xFE, 0xFF, 0xFF, 0x0C, 0x00, 0x00, 0x00, 0x10, 0x00, 0x00, 0x00,
    0x04, 0x00, 0x00, 0x00, 0x01, 0x00, 0x00, 0x00, 0x22, 0x00, 0x00, 0x00,
    0x02, 0x00, 0x00, 0x00, 0x21, 0x00, 0x00, 0x00, 0x05, 0x00, 0x00, 0x00,
    0xF2, 0xFD, 0xFF, 0xFF, 0x14, 0x00, 0x00, 0x00, 0x00, 0x00, 0x00, 0x0B,
    0x10, 0x00, 0x00, 0x00, 0x14, 0x00, 0x00, 0x00, 0x03, 0x00, 0x00, 0x00,
    0x7C, 0xD5, 0xFF, 0xFF, 0x01, 0x00, 0x00, 0x00, 0x21, 0x00, 0x00, 0x00,
    0x02, 0x00, 0x00, 0x00, 0x20, 0x00, 0x00, 0x00, 0x0E, 0x00, 0x00, 0x00,
    0x22, 0xFE, 0xFF, 0xFF, 0x14, 0x00, 0x00, 0x00, 0x00, 0x00, 0x00, 0x15,
    0x10, 0x00, 0x00, 0x00, 0x14, 0x00, 0x00, 0x00, 0x02, 0x00, 0x00, 0x00,
    0xAC, 0xD5, 0xFF, 0xFF, 0x01, 0x00, 0x00, 0x00, 0x20, 0x00, 0x00, 0x00,
    0x02, 0x00, 0x00, 0x00, 0x1F, 0x00, 0x00, 0x00, 0x0F, 0x00, 0x00, 0x00,
    0x52, 0xFE, 0xFF, 0xFF, 0x14, 0x00, 0x00, 0x00, 0x00, 0x00, 0x00, 0x01,
    0x1C, 0x00, 0x00, 0x00, 0x20, 0x00, 0x00, 0x00, 0x01, 0x00, 0x00, 0x00,
    0x44, 0xFE, 0xFF, 0xFF, 0x00, 0x00, 0x00, 0x01, 0x01, 0x00, 0x00, 0x00,
    0x01, 0x00, 0x00, 0x00, 0x01, 0x00, 0x00, 0x00, 0x1F, 0x00, 0x00, 0x00,
    0x03, 0x00, 0x00, 0x00, 0x1E, 0x00, 0x00, 0x00, 0x11, 0x00, 0x00, 0x00,
    0x10, 0x00, 0x00, 0x00, 0x36, 0xFE, 0xFF, 0xFF, 0x10, 0x00, 0x00, 0x00,
    0x00, 0x00, 0x00, 0x34, 0x0C, 0x00, 0x00, 0x00, 0x10, 0x00, 0x00, 0x00,
    0x18, 0xD6, 0xFF, 0xFF, 0x01, 0x00, 0x00, 0x00, 0x1E, 0x00, 0x00, 0x00,
    0x02, 0x00, 0x00, 0x00, 0x1D, 0x00, 0x00, 0x00, 0x01, 0x00, 0x00, 0x00,
    0x4E, 0xFF, 0xFF, 0xFF, 0x0C, 0x00, 0x00, 0x00, 0x10, 0x00, 0x00, 0x00,
    0x04, 0x00, 0x00, 0x00, 0x01, 0x00, 0x00, 0x00, 0x1D, 0x00, 0x00, 0x00,
    0x02, 0x00, 0x00, 0x00, 0x1C, 0x00, 0x00, 0x00, 0x04, 0x00, 0x00, 0x00,
    0x00, 0x00, 0x0E, 0x00, 0x1A, 0x00, 0x14, 0x00, 0x10, 0x00, 0x0C, 0x00,
    0x0B, 0x00, 0x04, 0x00, 0x0E, 0x00, 0x00, 0x00, 0x24, 0x00, 0x00, 0x00,
    0x00, 0x00, 0x00, 0x05, 0x34, 0x00, 0x00, 0x00, 0x38, 0x00, 0x00, 0x00,
    0x05, 0x00, 0x00, 0x00, 0x00, 0x00, 0x0E, 0x00, 0x18, 0x00, 0x17, 0x00,
    0x10, 0x00, 0x0C, 0x00, 0x08, 0x00, 0x04, 0x00, 0x0E, 0x00, 0x00, 0x00,
    0x01, 0x00, 0x00, 0x00, 0x02, 0x00, 0x00, 0x00, 0x01, 0x00, 0x00, 0x00,
    0x02, 0x00, 0x00, 0x00, 0x00, 0x00, 0x00, 0x01, 0x01, 0x00, 0x00, 0x00,
    0x1C, 0x00, 0x00, 0x00, 0x01, 0x00, 0x00, 0x00, 0x1B, 0x00, 0x00, 0x00,
    0xE6, 0xFE, 0xFF, 0xFF, 0x10, 0x00, 0x00, 0x00, 0x00, 0x00, 0x00, 0x34,
    0x0C, 0x00, 0x00, 0x00, 0x10, 0x00, 0x00, 0x00, 0xC8, 0xD6, 0xFF, 0xFF,
    0x01, 0x00, 0x00, 0x00, 0x1B, 0x00, 0x00, 0x00, 0x02, 0x00, 0x00, 0x00,
    0x1A, 0x00, 0x00, 0x00, 0x03, 0x00, 0x00, 0x00, 0x00, 0x00, 0x0A, 0x00,
    0x10, 0x00, 0x0C, 0x00, 0x08, 0x00, 0x04, 0x00, 0x0A, 0x00, 0x00, 0x00,
    0x0C, 0x00, 0x00, 0x00, 0x10, 0x00, 0x00, 0x00, 0x04, 0x00, 0x00, 0x00,
    0x01, 0x00, 0x00, 0x00, 0x1A, 0x00, 0x00, 0x00, 0x02, 0x00, 0x00, 0x00,
    0x19, 0x00, 0x00, 0x00, 0x02, 0x00, 0x00, 0x00, 0x9E, 0xFF, 0xFF, 0xFF,
    0x14, 0x00, 0x00, 0x00, 0x00, 0x00, 0x00, 0x0B, 0x10, 0x00, 0x00, 0x00,
    0x14, 0x00, 0x00, 0x00, 0x03, 0x00, 0x00, 0x00, 0x28, 0xD7, 0xFF, 0xFF,
    0x01, 0x00, 0x00, 0x00, 0x19, 0x00, 0x00, 0x00, 0x02, 0x00, 0x00, 0x00,
    0x18, 0x00, 0x00, 0x00, 0x12, 0x00, 0x00, 0x00, 0xCE, 0xFF, 0xFF, 0xFF,
    0x14, 0x00, 0x00, 0x00, 0x00, 0x00, 0x00, 0x15, 0x10, 0x00, 0x00, 0x00,
    0x14, 0x00, 0x00, 0x00, 0x02, 0x00, 0x00, 0x00, 0x58, 0xD7, 0xFF, 0xFF,
    0x01, 0x00, 0x00, 0x00, 0x18, 0x00, 0x00, 0x00, 0x02, 0x00, 0x00, 0x00,
    0x17, 0x00, 0x00, 0x00, 0x13, 0x00, 0x00, 0x00, 0x00, 0x00, 0x0E, 0x00,
    0x18, 0x00, 0x14, 0x00, 0x10, 0x00, 0x0C, 0x00, 0x0B, 0x00, 0x04, 0x00,
    0x0E, 0x00, 0x00, 0x00, 0x20, 0x00, 0x00, 0x00, 0x00, 0x00, 0x00, 0x01,
    0x28, 0x00, 0x00, 0x00, 0x2C, 0x00, 0x00, 0x00, 0x01, 0x00, 0x00, 0x00,
    0x0C, 0x00, 0x10, 0x00, 0x00, 0x00, 0x0C, 0x00, 0x08, 0x00, 0x07, 0x00,
    0x0C, 0x00, 0x00, 0x00, 0x00, 0x00, 0x00, 0x01, 0x01, 0x00, 0x00, 0x00,
    0x01, 0x00, 0x00, 0x00, 0x01, 0x00, 0x00, 0x00, 0x17, 0x00, 0x00, 0x00,
    0x03, 0x00, 0x00, 0x00, 0x16, 0x00, 0x00, 0x00, 0x15, 0x00, 0x00, 0x00,
    0x14, 0x00, 0x00, 0x00, 0x00, 0x00, 0x0E, 0x00, 0x14, 0x00, 0x00, 0x00,
    0x10, 0x00, 0x0C, 0x00, 0x0B, 0x00, 0x04, 0x00, 0x0E, 0x00, 0x00, 0x00,
    0x10, 0x00, 0x00, 0x00, 0x00, 0x00, 0x00, 0x34, 0x0C, 0x00, 0x00, 0x00,
    0x10, 0x00, 0x00, 0x00, 0xF0, 0xD7, 0xFF, 0xFF, 0x01, 0x00, 0x00, 0x00,
    0x16, 0x00, 0x00, 0x00, 0x02, 0x00, 0x00, 0x00, 0x00, 0x00, 0x00, 0x00,
    0x01, 0x00, 0x00, 0x00, 0x01, 0x00, 0x00, 0x00, 0x2C, 0x00, 0x00, 0x00,
    0x01, 0x00, 0x00, 0x00, 0x00, 0x00, 0x00, 0x00, 0x2D, 0x00, 0x00, 0x00,
    0x1C, 0x28, 0x00, 0x00, 0xC4, 0x27, 0x00, 0x00, 0x50, 0x27, 0x00, 0x00,
    0x14, 0x27, 0x00, 0x00, 0xB4, 0x26, 0x00, 0x00, 0x58, 0x26, 0x00, 0x00,
    0xF4, 0x25, 0x00, 0x00, 0x98, 0x25, 0x00, 0x00, 0x2C, 0x25, 0x00, 0x00,
    0xB8, 0x24, 0x00, 0x00, 0x7C, 0x23, 0x00, 0x00, 0x58, 0x22, 0x00, 0x00,
    0xA4, 0x20, 0x00, 0x00, 0x70, 0x1F, 0x00, 0x00, 0xEC, 0x1E, 0x00, 0x00,
    0x68, 0x1E, 0x00, 0x00, 0xF4, 0x1B, 0x00, 0x00, 0x00, 0x1A, 0x00, 0x00,
    0x7C, 0x19, 0x00, 0x00, 0xF8, 0x18, 0x00, 0x00, 0x54, 0x17, 0x00, 0x00,
    0x20, 0x16, 0x00, 0x00, 0x7C, 0x15, 0x00, 0x00, 0x68, 0x14, 0x00, 0x00,
    0x0C, 0x13, 0x00, 0x00, 0x50, 0x11, 0x00, 0x00, 0x98, 0x0F, 0x00, 0x00,
    0xF0, 0x0E, 0x00, 0x00, 0x54, 0x0E, 0x00, 0x00, 0xBC, 0x0D, 0x00, 0x00,
    0x1C, 0x0D, 0x00, 0x00, 0xF8, 0x0B, 0x00, 0x00, 0x94, 0x0A, 0x00, 0x00,
    0xC8, 0x08, 0x00, 0x00, 0x00, 0x07, 0x00, 0x00, 0x58, 0x06, 0x00, 0x00,
    0xBC, 0x05, 0x00, 0x00, 0x1C, 0x05, 0x00, 0x00, 0x7C, 0x04, 0x00, 0x00,
    0x58, 0x03, 0x00, 0x00, 0x60, 0x02, 0x00, 0x00, 0xD0, 0x01, 0x00, 0x00,
    0x1C, 0x01, 0x00, 0x00, 0x80, 0x00, 0x00, 0x00, 0x04, 0x00, 0x00, 0x00,
    0xAE, 0xD8, 0xFF, 0xFF, 0x00, 0x00, 0x00, 0x01, 0x18, 0x00, 0x00, 0x00,
    0x20, 0x00, 0x00, 0x00, 0x3C, 0x00, 0x00, 0x00, 0x2D, 0x00, 0x00, 0x00,
    0x00, 0x00, 0x00, 0x09, 0x50, 0x00, 0x00, 0x00, 0x02, 0x00, 0x00, 0x00,
    0xFF, 0xFF, 0xFF, 0xFF, 0x01, 0x00, 0x00, 0x00, 0x94, 0xD8, 0xFF, 0xFF,
    0x08, 0x00, 0x00, 0x00, 0x10, 0x00, 0x00, 0x00, 0x01, 0x00, 0x00, 0x00,
    0x80, 0xFF, 0xFF, 0xFF, 0xFF, 0xFF, 0xFF, 0xFF, 0x01, 0x00, 0x00, 0x00,
    0x00, 0x00, 0x80, 0x3B, 0x1B, 0x00, 0x00, 0x00, 0x53, 0x74, 0x61, 0x74,
    0x65, 0x66, 0x75, 0x6C, 0x50, 0x61, 0x72, 0x74, 0x69, 0x74, 0x69, 0x6F,
    0x6E, 0x65, 0x64, 0x43, 0x61, 0x6C, 0x6C, 0x5F, 0x31, 0x3A, 0x30, 0x00,
    0x02, 0x00, 0x00, 0x00, 0x01, 0x00, 0x00, 0x00, 0x01, 0x00, 0x00, 0x00,
    0x26, 0xD9, 0xFF, 0xFF, 0x00, 0x00, 0x00, 0x01, 0x18, 0x00, 0x00, 0x00,
    0x20, 0x00, 0x00, 0x00, 0x3C, 0x00, 0x00, 0x00, 0x2C, 0x00, 0x00, 0x00,
    0x00, 0x00, 0x00, 0x09, 0x70, 0x00, 0x00, 0x00, 0x02, 0x00, 0x00, 0x00,
    0xFF, 0xFF, 0xFF, 0xFF, 0x01, 0x00, 0x00, 0x00, 0x0C, 0xD9, 0xFF, 0xFF,
    0x08, 0x00, 0x00, 0x00, 0x10, 0x00, 0x00, 0x00, 0x01, 0x00, 0x00, 0x00,
    0x5B, 0x00, 0x00, 0x00, 0x00, 0x00, 0x00, 0x00, 0x01, 0x00, 0x00, 0x00,
    0xB2, 0x31, 0x3E, 0x3E, 0x38, 0x00, 0x00, 0x00, 0x73, 0x65, 0x71, 0x75,
    0x65, 0x6E, 0x74, 0x69, 0x61, 0x6C, 0x5F, 0x31, 0x2F, 0x64, 0x65, 0x6E,
    0x73, 0x65, 0x5F, 0x31, 0x5F, 0x32, 0x2F, 0x4D, 0x61, 0x74, 0x4D, 0x75,
    0x6C, 0x3B, 0x73, 0x65, 0x71, 0x75, 0x65, 0x6E, 0x74, 0x69, 0x61, 0x6C,
    0x5F, 0x31, 0x2F, 0x64, 0x65, 0x6E, 0x73, 0x65, 0x5F, 0x31, 0x5F, 0x32,
    0x2F, 0x41, 0x64, 0x64, 0x00, 0x00, 0x00, 0x00, 0x02, 0x00, 0x00, 0x00,
    0x01, 0x00, 0x00, 0x00, 0x01, 0x00, 0x00, 0x00, 0xBE, 0xD9, 0xFF, 0xFF,
    0x00, 0x00, 0x00, 0x01, 0x18, 0x00, 0x00, 0x00, 0x20, 0x00, 0x00, 0x00,
    0x3C, 0x00, 0x00, 0x00, 0x2B, 0x00, 0x00, 0x00, 0x00, 0x00, 0x00, 0x09,
    0x88, 0x00, 0x00, 0x00, 0x02, 0x00, 0x00, 0x00, 0xFF, 0xFF, 0xFF, 0xFF,
    0x10, 0x00, 0x00, 0x00, 0xA4, 0xD9, 0xFF, 0xFF, 0x08, 0x00, 0x00, 0x00,
    0x10, 0x00, 0x00, 0x00, 0x01, 0x00, 0x00, 0x00, 0x80, 0xFF, 0xFF, 0xFF,
    0xFF, 0xFF, 0xFF, 0xFF, 0x01, 0x00, 0x00, 0x00, 0xBD, 0x26, 0x4B, 0x3D,
    0x52, 0x00, 0x00, 0x00, 0x73, 0x65, 0x71, 0x75, 0x65, 0x6E, 0x74, 0x69,
    0x61, 0x6C, 0x5F, 0x31, 0x2F, 0x64, 0x65, 0x6E, 0x73, 0x65, 0x5F, 0x31,
    0x2F, 0x4D, 0x61, 0x74, 0x4D, 0x75, 0x6C, 0x3B, 0x73, 0x65, 0x71, 0x75,
    0x65, 0x6E, 0x74, 0x69, 0x61, 0x6C, 0x5F, 0x31, 0x2F, 0x64, 0x65, 0x6E,
    0x73, 0x65, 0x5F, 0x31, 0x2F, 0x52, 0x65, 0x6C, 0x75, 0x3B, 0x73, 0x65,
    0x71, 0x75, 0x65, 0x6E, 0x74, 0x69, 0x61, 0x6C, 0x5F, 0x31, 0x2F, 0x64,
    0x65, 0x6E, 0x73, 0x65, 0x5F, 0x31, 0x2F, 0x42, 0x69, 0x61, 0x73, 0x41,
    0x64, 0x64, 0x00, 0x00, 0x02, 0x00, 0x00, 0x00, 0x01, 0x00, 0x00, 0x00,
    0x10, 0x00, 0x00, 0x00, 0x6E, 0xDA, 0xFF, 0xFF, 0x00, 0x00, 0x00, 0x01,
    0x18, 0x00, 0x00, 0x00, 0x20, 0x00, 0x00, 0x00, 0x3C, 0x00, 0x00, 0x00,
    0x2A, 0x00, 0x00, 0x00, 0x00, 0x00, 0x00, 0x09, 0x64, 0x00, 0x00, 0x00,
    0x02, 0x00, 0x00, 0x00, 0xFF, 0xFF, 0xFF, 0xFF, 0x10, 0x00, 0x00, 0x00,
    0x54, 0xDA, 0xFF, 0xFF, 0x08, 0x00, 0x00, 0x00, 0x10, 0x00, 0x00, 0x00,
    0x01, 0x00, 0x00, 0x00, 0x80, 0xFF, 0xFF, 0xFF, 0xFF, 0xFF, 0xFF, 0xFF,
    0x01, 0x00, 0x00, 0x00, 0xEA, 0x33, 0xAA, 0x3C, 0x2C, 0x00, 0x00, 0x00,
    0x73, 0x65, 0x71, 0x75, 0x65, 0x6E, 0x74, 0x69, 0x61, 0x6C, 0x5F, 0x31,
    0x2F, 0x67, 0x6C, 0x6F, 0x62, 0x61, 0x6C, 0x5F, 0x61, 0x76, 0x65, 0x72,
    0x61, 0x67, 0x65, 0x5F, 0x70, 0x6F, 0x6F, 0x6C, 0x69, 0x6E, 0x67, 0x31,
    0x64, 0x5F, 0x31, 0x2F, 0x4D, 0x65, 0x61, 0x6E, 0x00, 0x00, 0x00, 0x00,
    0x02, 0x00, 0x00, 0x00, 0x01, 0x00, 0x00, 0x00, 0x10, 0x00, 0x00, 0x00,
    0xFA, 0xDA, 0xFF, 0xFF, 0x00, 0x00, 0x00, 0x01, 0x18, 0x00, 0x00, 0x00,
    0x24, 0x00, 0x00, 0x00, 0x44, 0x00, 0x00, 0x00, 0x29, 0x00, 0x00, 0x00,
    0x00, 0x00, 0x00, 0x09, 0xC8, 0x00, 0x00, 0x00, 0x03, 0x00, 0x00, 0x00,
    0xFF, 0xFF, 0xFF, 0xFF, 0x25, 0x00, 0x00, 0x00, 0x10, 0x00, 0x00, 0x00,
    0xE4, 0xDA, 0xFF, 0xFF, 0x08, 0x00, 0x00, 0x00, 0x14, 0x00, 0x00, 0x00,
    0x01, 0x00, 0x00, 0x00, 0x80, 0xFF, 0xFF, 0xFF, 0xFF, 0xFF, 0xFF, 0xFF,
    0x00, 0x00, 0x00, 0x00, 0x01, 0x00, 0x00, 0x00, 0x99, 0x21, 0x23, 0x3E,
    0x88, 0x00, 0x00, 0x00, 0x73, 0x65, 0x71, 0x75, 0x65, 0x6E, 0x74, 0x69,
    0x61, 0x6C, 0x5F, 0x31, 0x2F, 0x63, 0x6F, 0x6E, 0x76, 0x31, 0x64, 0x5F,
    0x32, 0x5F, 0x31, 0x2F, 0x52, 0x65, 0x6C, 0x75, 0x3B, 0x73, 0x65, 0x71,
    0x75, 0x65, 0x6E, 0x74, 0x69, 0x61, 0x6C, 0x5F, 0x31, 0x2F, 0x63, 0x6F,
    0x6E, 0x76, 0x31, 0x64, 0x5F, 0x32, 0x5F, 0x31, 0x2F, 0x42, 0x69, 0x61,
    0x73, 0x41, 0x64, 0x64, 0x3B, 0x73, 0x65, 0x71, 0x75, 0x65, 0x6E, 0x74,
    0x69, 0x61, 0x6C, 0x5F, 0x31, 0x2F, 0x63, 0x6F, 0x6E, 0x76, 0x31, 0x64,
    0x5F, 0x32, 0x5F, 0x31, 0x2F, 0x63, 0x6F, 0x6E, 0x76, 0x6F, 0x6C, 0x75,
    0x74, 0x69, 0x6F, 0x6E, 0x2F, 0x53, 0x71, 0x75, 0x65, 0x65, 0x7A, 0x65,
    0x3B, 0x73, 0x65, 0x71, 0x75, 0x65, 0x6E, 0x74, 0x69, 0x61, 0x6C, 0x5F,
    0x31, 0x2F, 0x63, 0x6F, 0x6E, 0x76, 0x31, 0x64, 0x5F, 0x32, 0x5F, 0x31,
    0x2F, 0x53, 0x71, 0x75, 0x65, 0x65, 0x7A, 0x65, 0x00, 0x00, 0x00, 0x00,
    0x03, 0x00, 0x00, 0x00, 0x01, 0x00, 0x00, 0x00, 0x25, 0x00, 0x00, 0x00,
    0x10, 0x00, 0x00, 0x00, 0xEE, 0xDB, 0xFF, 0xFF, 0x00, 0x00, 0x00, 0x01,
    0x18, 0x00, 0x00, 0x00, 0x28, 0x00, 0x00, 0x00, 0x48, 0x00, 0x00, 0x00,
    0x28, 0x00, 0x00, 0x00, 0x00, 0x00, 0x00, 0x09, 0xF0, 0x00, 0x00, 0x00,
    0x04, 0x00, 0x00, 0x00, 0xFF, 0xFF, 0xFF, 0xFF, 0x01, 0x00, 0x00, 0x00,
    0x25, 0x00, 0x00, 0x00, 0x10, 0x00, 0x00, 0x00, 0xDC, 0xDB, 0xFF, 0xFF,
    0x08, 0x00, 0x00, 0x00, 0x14, 0x00, 0x00, 0x00, 0x01, 0x00, 0x00, 0x00,
    0x80, 0xFF, 0xFF, 0xFF, 0xFF, 0xFF, 0xFF, 0xFF, 0x00, 0x00, 0x00, 0x00,
    0x01, 0x00, 0x00, 0x00, 0x99, 0x21, 0x23, 0x3E, 0xAD, 0x00, 0x00, 0x00,
    0x73, 0x65, 0x71, 0x75, 0x65, 0x6E, 0x74, 0x69, 0x61, 0x6C, 0x5F, 0x31,
    0x2F, 0x63, 0x6F, 0x6E, 0x76, 0x31, 0x64, 0x5F, 0x32, 0x5F, 0x31, 0x2F,
    0x52, 0x65, 0x6C, 0x75, 0x3B, 0x73, 0x65, 0x71, 0x75, 0x65, 0x6E, 0x74,
    0x69, 0x61, 0x6C, 0x5F, 0x31, 0x2F, 0x63, 0x6F, 0x6E, 0x76, 0x31, 0x64,
    0x5F, 0x32, 0x5F, 0x31, 0x2F, 0x42, 0x69, 0x61, 0x73, 0x41, 0x64, 0x64,
    0x3B, 0x73, 0x65, 0x71, 0x75, 0x65, 0x6E, 0x74, 0x69, 0x61, 0x6C, 0x5F,
    0x31, 0x2F, 0x63, 0x6F, 0x6E, 0x76, 0x31, 0x64, 0x5F, 0x32, 0x5F, 0x31,
    0x2F, 0x63, 0x6F, 0x6E, 0x76, 0x6F, 0x6C, 0x75, 0x74, 0x69, 0x6F, 0x6E,
    0x2F, 0x53, 0x71, 0x75, 0x65, 0x65, 0x7A, 0x65, 0x3B, 0x73, 0x65, 0x71,
    0x75, 0x65, 0x6E, 0x74, 0x69, 0x61, 0x6C, 0x5F, 0x31, 0x2F, 0x63, 0x6F,
    0x6E, 0x76, 0x31, 0x64, 0x5F, 0x32, 0x5F, 0x31, 0x2F, 0x53, 0x71, 0x75,
    0x65, 0x65, 0x7A, 0x65, 0x3B, 0x73, 0x65, 0x71, 0x75, 0x65, 0x6E, 0x74,
    0x69, 0x61, 0x6C, 0x5F, 0x31, 0x2F, 0x63, 0x6F, 0x6E, 0x76, 0x31, 0x64,
    0x5F, 0x32, 0x5F, 0x31, 0x2F, 0x63, 0x6F, 0x6E, 0x76, 0x6F, 0x6C, 0x75,
    0x74, 0x69, 0x6F, 0x6E, 0x31, 0x00, 0x00, 0x00, 0x04, 0x00, 0x00, 0x00,
    0x01, 0x00, 0x00, 0x00, 0x01, 0x00, 0x00, 0x00, 0x25, 0x00, 0x00, 0x00,
    0x10, 0x00, 0x00, 0x00, 0x0E, 0xDD, 0xFF, 0xFF, 0x00, 0x00, 0x00, 0x01,
    0x18, 0x00, 0x00, 0x00, 0x28, 0x00, 0x00, 0x00, 0x44, 0x00, 0x00, 0x00,
    0x27, 0x00, 0x00, 0x00, 0x00, 0x00, 0x00, 0x09, 0x6C, 0x00, 0x00, 0x00,
    0x04, 0x00, 0x00, 0x00, 0xFF, 0xFF, 0xFF, 0xFF, 0x01, 0x00, 0x00, 0x00,
    0x25, 0x00, 0x00, 0x00, 0x20, 0x00, 0x00, 0x00, 0xFC, 0xDC, 0xFF, 0xFF,
    0x08, 0x00, 0x00, 0x00, 0x10, 0x00, 0x00, 0x00, 0x01, 0x00, 0x00, 0x00,
    0x85, 0xFF, 0xFF, 0xFF, 0xFF, 0xFF, 0xFF, 0xFF, 0x01, 0x00, 0x00, 0x00,
    0x59, 0x90, 0x6D, 0x3E, 0x2E, 0x00, 0x00, 0x00, 0x73, 0x65, 0x71, 0x75,
    0x65, 0x6E, 0x74, 0x69, 0x61, 0x6C, 0x5F, 0x31, 0x2F, 0x63, 0x6F, 0x6E,
    0x76, 0x31, 0x64, 0x5F, 0x32, 0x5F, 0x31, 0x2F, 0x63, 0x6F, 0x6E, 0x76,
    0x6F, 0x6C, 0x75, 0x74, 0x69, 0x6F, 0x6E, 0x2F, 0x45, 0x78, 0x70, 0x61,
    0x6E, 0x64, 0x44, 0x69, 0x6D, 0x73, 0x00, 0x00, 0x04, 0x00, 0x00, 0x00,
    0x01, 0x00, 0x00, 0x00, 0x01, 0x00, 0x00, 0x00, 0x25, 0x00, 0x00, 0x00,
    0x20, 0x00, 0x00, 0x00, 0xAA, 0xDD, 0xFF, 0xFF, 0x00, 0x00, 0x00, 0x01,
    0x18, 0x00, 0x00, 0x00, 0x24, 0x00, 0x00, 0x00, 0x44, 0x00, 0x00, 0x00,
    0x26, 0x00, 0x00, 0x00, 0x00, 0x00, 0x00, 0x09, 0x70, 0x00, 0x00, 0x00,
    0x03, 0x00, 0x00, 0x00, 0xFF, 0xFF, 0xFF, 0xFF, 0x25, 0x00, 0x00, 0x00,
    0x20, 0x00, 0x00, 0x00, 0x94, 0xDD, 0xFF, 0xFF, 0x08, 0x00, 0x00, 0x00,
    0x14, 0x00, 0x00, 0x00, 0x01, 0x00, 0x00, 0x00, 0x85, 0xFF, 0xFF, 0xFF,
    0xFF, 0xFF, 0xFF, 0xFF, 0x00, 0x00, 0x00, 0x00, 0x01, 0x00, 0x00, 0x00,
    0x59, 0x90, 0x6D, 0x3E, 0x31, 0x00, 0x00, 0x00, 0x73, 0x65, 0x71, 0x75,
    0x65, 0x6E, 0x74, 0x69, 0x61, 0x6C, 0x5F, 0x31, 0x2F, 0x6D, 0x61, 0x78,
    0x5F, 0x70, 0x6F, 0x6F, 0x6C, 0x69, 0x6E, 0x67, 0x31, 0x64, 0x5F, 0x31,
    0x5F, 0x32, 0x2F, 0x4D, 0x61, 0x78, 0x50, 0x6F, 0x6F, 0x6C, 0x31, 0x64,
    0x2F, 0x53, 0x71, 0x75, 0x65, 0x65, 0x7A, 0x65, 0x31, 0x00, 0x00, 0x00,
    0x03, 0x00, 0x00, 0x00, 0x01, 0x00, 0x00, 0x00, 0x25, 0x00, 0x00, 0x00,
    0x20, 0x00, 0x00, 0x00, 0x46, 0xDE, 0xFF, 0xFF, 0x00, 0x00, 0x00, 0x01,
    0x18, 0x00, 0x00, 0x00, 0x28, 0x00, 0x00, 0x00, 0x44, 0x00, 0x00, 0x00,
    0x25, 0x00, 0x00, 0x00, 0x00, 0x00, 0x00, 0x09, 0x68, 0x00, 0x00, 0x00,
    0x04, 0x00, 0x00, 0x00, 0xFF, 0xFF, 0xFF, 0xFF, 0x01, 0x00, 0x00, 0x00,
    0x25, 0x00, 0x00, 0x00, 0x20, 0x00, 0x00, 0x00, 0x34, 0xDE, 0xFF, 0xFF,
    0x08, 0x00, 0x00, 0x00, 0x10, 0x00, 0x00, 0x00, 0x01, 0x00, 0x00, 0x00,
    0x85, 0xFF, 0xFF, 0xFF, 0xFF, 0xFF, 0xFF, 0xFF, 0x01, 0x00, 0x00, 0x00,
    0x59, 0x90, 0x6D, 0x3E, 0x28, 0x00, 0x00, 0x00, 0x73, 0x65, 0x71, 0x75,
    0x65, 0x6E, 0x74, 0x69, 0x61, 0x6C, 0x5F, 0x31, 0x2F, 0x6D, 0x61, 0x78,
    0x5F, 0x70, 0x6F, 0x6F, 0x6C, 0x69, 0x6E, 0x67, 0x31, 0x64, 0x5F, 0x31,
    0x5F, 0x32, 0x2F, 0x4D, 0x61, 0x78, 0x50, 0x6F, 0x6F, 0x6C, 0x31, 0x64,
    0x00, 0x00, 0x00, 0x00, 0x04, 0x00, 0x00, 0x00, 0x01, 0x00, 0x00, 0x00,
    0x01, 0x00, 0x00, 0x00, 0x25, 0x00, 0x00, 0x00, 0x20, 0x00, 0x00, 0x00,
    0xDE, 0xDE, 0xFF, 0xFF, 0x00, 0x00, 0x00, 0x01, 0x18, 0x00, 0x00, 0x00,
    0x28, 0x00, 0x00, 0x00, 0x48, 0x00, 0x00, 0x00, 0x24, 0x00, 0x00, 0x00,
    0x00, 0x00, 0x00, 0x09, 0x74, 0x00, 0x00, 0x00, 0x04, 0x00, 0x00, 0x00,
    0xFF, 0xFF, 0xFF, 0xFF, 0x01, 0x00, 0x00, 0x00, 0x4B, 0x00, 0x00, 0x00,
    0x20, 0x00, 0x00, 0x00, 0xCC, 0xDE, 0xFF, 0xFF, 0x08, 0x00, 0x00, 0x00,
    0x14, 0x00, 0x00, 0x00, 0x01, 0x00, 0x00, 0x00, 0x85, 0xFF, 0xFF, 0xFF,
    0xFF, 0xFF, 0xFF, 0xFF, 0x00, 0x00, 0x00, 0x00, 0x01, 0x00, 0x00, 0x00,
    0x59, 0x90, 0x6D, 0x3E, 0x33, 0x00, 0x00, 0x00, 0x73, 0x65, 0x71, 0x75,
    0x65, 0x6E, 0x74, 0x69, 0x61, 0x6C, 0x5F, 0x31, 0x2F, 0x6D, 0x61, 0x78,
    0x5F, 0x70, 0x6F, 0x6F, 0x6C, 0x69, 0x6E, 0x67, 0x31, 0x64, 0x5F, 0x31,
    0x5F, 0x32, 0x2F, 0x4D, 0x61, 0x78, 0x50, 0x6F, 0x6F, 0x6C, 0x31, 0x64,
    0x2F, 0x45, 0x78, 0x70, 0x61, 0x6E, 0x64, 0x44, 0x69, 0x6D, 0x73, 0x00,
    0x04, 0x00, 0x00, 0x00, 0x01, 0x00, 0x00, 0x00, 0x01, 0x00, 0x00, 0x00,
    0x4B, 0x00, 0x00, 0x00, 0x20, 0x00, 0x00, 0x00, 0x82, 0xDF, 0xFF, 0xFF,
    0x00, 0x00, 0x00, 0x01, 0x18, 0x00, 0x00, 0x00, 0x24, 0x00, 0x00, 0x00,
    0x44, 0x00, 0x00, 0x00, 0x23, 0x00, 0x00, 0x00, 0x00, 0x00, 0x00, 0x09,
    0x98, 0x01, 0x00, 0x00, 0x03, 0x00, 0x00, 0x00, 0xFF, 0xFF, 0xFF, 0xFF,
    0x4B, 0x00, 0x00, 0x00, 0x20, 0x00, 0x00, 0x00, 0x6C, 0xDF, 0xFF, 0xFF,
    0x08, 0x00, 0x00, 0x00, 0x14, 0x00, 0x00, 0x00, 0x01, 0x00, 0x00, 0x00,
    0x85, 0xFF, 0xFF, 0xFF, 0xFF, 0xFF, 0xFF, 0xFF, 0x00, 0x00, 0x00, 0x00,
    0x01, 0x00, 0x00, 0x00, 0x59, 0x90, 0x6D, 0x3E, 0x59, 0x01, 0x00, 0x00,
    0x73, 0x65, 0x71, 0x75, 0x65, 0x6E, 0x74, 0x69, 0x61, 0x6C, 0x5F, 0x31,
    0x2F, 0x62, 0x61, 0x74, 0x63, 0x68, 0x5F, 0x6E, 0x6F, 0x72, 0x6D, 0x61,
    0x6C, 0x69, 0x7A, 0x61, 0x74, 0x69, 0x6F, 0x6E, 0x5F, 0x31, 0x5F, 0x32,
    0x2F, 0x62, 0x61, 0x74, 0x63, 0x68, 0x6E, 0x6F, 0x72, 0x6D, 0x2F, 0x61,
    0x64, 0x64, 0x5F, 0x31, 0x3B, 0x73, 0x65, 0x71, 0x75, 0x65, 0x6E, 0x74,
    0x69, 0x61, 0x6C, 0x5F, 0x31, 0x2F, 0x63, 0x6F, 0x6E, 0x76, 0x31, 0x64,
    0x5F, 0x31, 0x5F, 0x32, 0x2F, 0x63, 0x6F, 0x6E, 0x76, 0x6F, 0x6C, 0x75,
    0x74, 0x69, 0x6F, 0x6E, 0x2F, 0x53, 0x71, 0x75, 0x65, 0x65, 0x7A, 0x65,
    0x3B, 0x73, 0x65, 0x71, 0x75, 0x65, 0x6E, 0x74, 0x69, 0x61, 0x6C, 0x5F,
    0x31, 0x2F, 0x62, 0x61, 0x74, 0x63, 0x68, 0x5F, 0x6E, 0x6F, 0x72, 0x6D,
    0x61, 0x6C, 0x69, 0x7A, 0x61, 0x74, 0x69, 0x6F, 0x6E, 0x5F, 0x31, 0x5F,
    0x32, 0x2F, 0x62, 0x61, 0x74, 0x63, 0x68, 0x6E, 0x6F, 0x72, 0x6D, 0x2F,
    0x6D, 0x75, 0x6C, 0x5F, 0x31, 0x3B, 0x73, 0x65, 0x71, 0x75, 0x65, 0x6E,
    0x74, 0x69, 0x61, 0x6C, 0x5F, 0x31, 0x2F, 0x63, 0x6F, 0x6E, 0x76, 0x31,
    0x64, 0x5F, 0x31, 0x5F, 0x32, 0x2F, 0x52, 0x65, 0x6C, 0x75, 0x3B, 0x73,
    0x65, 0x71, 0x75, 0x65, 0x6E, 0x74, 0x69, 0x61, 0x6C, 0x5F, 0x31, 0x2F,
    0x63, 0x6F, 0x6E, 0x76, 0x31, 0x64, 0x5F, 0x31, 0x5F, 0x32, 0x2F, 0x42,
    0x69, 0x61, 0x73, 0x41, 0x64, 0x64, 0x3B, 0x73, 0x65, 0x71, 0x75, 0x65,
    0x6E, 0x74, 0x69, 0x61, 0x6C, 0x5F, 0x31, 0x2F, 0x63, 0x6F, 0x6E, 0x76,
    0x31, 0x64, 0x5F, 0x31, 0x5F, 0x32, 0x2F, 0x53, 0x71, 0x75, 0x65, 0x65,
    0x7A, 0x65, 0x3B, 0x73, 0x65, 0x71, 0x75, 0x65, 0x6E, 0x74, 0x69, 0x61,
    0x6C, 0x5F, 0x31, 0x2F, 0x62, 0x61, 0x74, 0x63, 0x68, 0x5F, 0x6E, 0x6F,
    0x72, 0x6D, 0x61, 0x6C, 0x69, 0x7A, 0x61, 0x74, 0x69, 0x6F, 0x6E, 0x5F,
    0x31, 0x5F, 0x32, 0x2F, 0x62, 0x61, 0x74, 0x63, 0x68, 0x6E, 0x6F, 0x72,
    0x6D, 0x2F, 0x6D, 0x75, 0x6C, 0x3B, 0x73, 0x65, 0x71, 0x75, 0x65, 0x6E,
    0x74, 0x69, 0x61, 0x6C, 0x5F, 0x31, 0x2F, 0x62, 0x61, 0x74, 0x63, 0x68,
    0x5F, 0x6E, 0x6F, 0x72, 0x6D, 0x61, 0x6C, 0x69, 0x7A, 0x61, 0x74, 0x69,
    0x6F, 0x6E, 0x5F, 0x31, 0x5F, 0x32, 0x2F, 0x62, 0x61, 0x74, 0x63, 0x68,
    0x6E, 0x6F, 0x72, 0x6D, 0x2F, 0x73, 0x75, 0x62, 0x31, 0x00, 0x00, 0x00,
    0x03, 0x00, 0x00, 0x00, 0x01, 0x00, 0x00, 0x00, 0x4B, 0x00, 0x00, 0x00,
    0x20, 0x00, 0x00, 0x00, 0x46, 0xE1, 0xFF, 0xFF, 0x00, 0x00, 0x00, 0x01,
    0x18, 0x00, 0x00, 0x00, 0x28, 0x00, 0x00, 0x00, 0x44, 0x00, 0x00, 0x00,
    0x22, 0x00, 0x00, 0x00, 0x00, 0x00, 0x00, 0x09, 0x98, 0x01, 0x00, 0x00,
    0x04, 0x00, 0x00, 0x00, 0xFF, 0xFF, 0xFF, 0xFF, 0x01, 0x00, 0x00, 0x00,
    0x4B, 0x00, 0x00, 0x00, 0x20, 0x00, 0x00, 0x00, 0x34, 0xE1, 0xFF, 0xFF,
    0x08, 0x00, 0x00, 0x00, 0x10, 0x00, 0x00, 0x00, 0x01, 0x00, 0x00, 0x00,
    0x85, 0xFF, 0xFF, 0xFF, 0xFF, 0xFF, 0xFF, 0xFF, 0x01, 0x00, 0x00, 0x00,
    0x59, 0x90, 0x6D, 0x3E, 0x58, 0x01, 0x00, 0x00, 0x73, 0x65, 0x71, 0x75,
    0x65, 0x6E, 0x74, 0x69, 0x61, 0x6C, 0x5F, 0x31, 0x2F, 0x62, 0x61, 0x74,
    0x63, 0x68, 0x5F, 0x6E, 0x6F, 0x72, 0x6D, 0x61, 0x6C, 0x69, 0x7A, 0x61,
    0x74, 0x69, 0x6F, 0x6E, 0x5F, 0x31, 0x5F, 0x32, 0x2F, 0x62, 0x61, 0x74,
    0x63, 0x68, 0x6E, 0x6F, 0x72, 0x6D, 0x2F, 0x61, 0x64, 0x64, 0x5F, 0x31,
    0x3B, 0x73, 0x65, 0x71, 0x75, 0x65, 0x6E, 0x74, 0x69, 0x61, 0x6C, 0x5F,
    0x31, 0x2F, 0x63, 0x6F, 0x6E, 0x76, 0x31, 0x64, 0x5F, 0x31, 0x5F, 0x32,
    0x2F, 0x63, 0x6F, 0x6E, 0x76, 0x6F, 0x6C, 0x75, 0x74, 0x69, 0x6F, 0x6E,
    0x2F, 0x53, 0x71, 0x75, 0x65, 0x65, 0x7A, 0x65, 0x3B, 0x73, 0x65, 0x71,
    0x75, 0x65, 0x6E, 0x74, 0x69, 0x61, 0x6C, 0x5F, 0x31, 0x2F, 0x62, 0x61,
    0x74, 0x63, 0x68, 0x5F, 0x6E, 0x6F, 0x72, 0x6D, 0x61, 0x6C, 0x69, 0x7A,
    0x61, 0x74, 0x69, 0x6F, 0x6E, 0x5F, 0x31, 0x5F, 0x32, 0x2F, 0x62, 0x61,
    0x74, 0x63, 0x68, 0x6E, 0x6F, 0x72, 0x6D, 0x2F, 0x6D, 0x75, 0x6C, 0x5F,
    0x31, 0x3B, 0x73, 0x65, 0x71, 0x75, 0x65, 0x6E, 0x74, 0x69, 0x61, 0x6C,
    0x5F, 0x31, 0x2F, 0x63, 0x6F, 0x6E, 0x76, 0x31, 0x64, 0x5F, 0x31, 0x5F,
    0x32, 0x2F, 0x52, 0x65, 0x6C, 0x75, 0x3B, 0x73, 0x65, 0x71, 0x75, 0x65,
    0x6E, 0x74, 0x69, 0x61, 0x6C, 0x5F, 0x31, 0x2F, 0x63, 0x6F, 0x6E, 0x76,
    0x31, 0x64, 0x5F, 0x31, 0x5F, 0x32, 0x2F, 0x42, 0x69, 0x61, 0x73, 0x41,
    0x64, 0x64, 0x3B, 0x73, 0x65, 0x71, 0x75, 0x65, 0x6E, 0x74, 0x69, 0x61,
    0x6C, 0x5F, 0x31, 0x2F, 0x63, 0x6F, 0x6E, 0x76, 0x31, 0x64, 0x5F, 0x31,
    0x5F, 0x32, 0x2F, 0x53, 0x71, 0x75, 0x65, 0x65, 0x7A, 0x65, 0x3B, 0x73,
    0x65, 0x71, 0x75, 0x65, 0x6E, 0x74, 0x69, 0x61, 0x6C, 0x5F, 0x31, 0x2F,
    0x62, 0x61, 0x74, 0x63, 0x68, 0x5F, 0x6E, 0x6F, 0x72, 0x6D, 0x61, 0x6C,
    0x69, 0x7A, 0x61, 0x74, 0x69, 0x6F, 0x6E, 0x5F, 0x31, 0x5F, 0x32, 0x2F,
    0x62, 0x61, 0x74, 0x63, 0x68, 0x6E, 0x6F, 0x72, 0x6D, 0x2F, 0x6D, 0x75,
    0x6C, 0x3B, 0x73, 0x65, 0x71, 0x75, 0x65, 0x6E, 0x74, 0x69, 0x61, 0x6C,
    0x5F, 0x31, 0x2F, 0x62, 0x61, 0x74, 0x63, 0x68, 0x5F, 0x6E, 0x6F, 0x72,
    0x6D, 0x61, 0x6C, 0x69, 0x7A, 0x61, 0x74, 0x69, 0x6F, 0x6E, 0x5F, 0x31,
    0x5F, 0x32, 0x2F, 0x62, 0x61, 0x74, 0x63, 0x68, 0x6E, 0x6F, 0x72, 0x6D,
    0x2F, 0x73, 0x75, 0x62, 0x00, 0x00, 0x00, 0x00, 0x04, 0x00, 0x00, 0x00,
    0x01, 0x00, 0x00, 0x00, 0x01, 0x00, 0x00, 0x00, 0x4B, 0x00, 0x00, 0x00,
    0x20, 0x00, 0x00, 0x00, 0x0E, 0xE3, 0xFF, 0xFF, 0x00, 0x00, 0x00, 0x01,
    0x18, 0x00, 0x00, 0x00, 0x28, 0x00, 0x00, 0x00, 0x44, 0x00, 0x00, 0x00,
    0x21, 0x00, 0x00, 0x00, 0x00, 0x00, 0x00, 0x09, 0x30, 0x01, 0x00, 0x00,
    0x04, 0x00, 0x00, 0x00, 0xFF, 0xFF, 0xFF, 0xFF, 0x01, 0x00, 0x00, 0x00,
    0x4B, 0x00, 0x00, 0x00, 0x20, 0x00, 0x00, 0x00, 0xFC, 0xE2, 0xFF, 0xFF,
    0x08, 0x00, 0x00, 0x00, 0x10, 0x00, 0x00, 0x00, 0x01, 0x00, 0x00, 0x00,
    0x85, 0xFF, 0xFF, 0xFF, 0xFF, 0xFF, 0xFF, 0xFF, 0x01, 0x00, 0x00, 0x00,
    0x3F, 0xF6, 0x6D, 0x3E, 0xF0, 0x00, 0x00, 0x00, 0x73, 0x65, 0x71, 0x75,
    0x65, 0x6E, 0x74, 0x69, 0x61, 0x6C, 0x5F, 0x31, 0x2F, 0x62, 0x61, 0x74,
    0x63, 0x68, 0x5F, 0x6E, 0x6F, 0x72, 0x6D, 0x61, 0x6C, 0x69, 0x7A, 0x61,
    0x74, 0x69, 0x6F, 0x6E, 0x5F, 0x31, 0x5F, 0x32, 0x2F, 0x62, 0x61, 0x74,
    0x63, 0x68, 0x6E, 0x6F, 0x72, 0x6D, 0x2F, 0x6D, 0x75, 0x6C, 0x5F, 0x31,
    0x3B, 0x73, 0x65, 0x71, 0x75, 0x65, 0x6E, 0x74, 0x69, 0x61, 0x6C, 0x5F,
    0x31, 0x2F, 0x63, 0x6F, 0x6E, 0x76, 0x31, 0x64, 0x5F, 0x31, 0x5F, 0x32,
    0x2F, 0x63, 0x6F, 0x6E, 0x76, 0x6F, 0x6C, 0x75, 0x74, 0x69, 0x6F, 0x6E,
    0x2F, 0x53, 0x71, 0x75, 0x65, 0x65, 0x7A, 0x65, 0x3B, 0x73, 0x65, 0x71,
    0x75, 0x65, 0x6E, 0x74, 0x69, 0x61, 0x6C, 0x5F, 0x31, 0x2F, 0x63, 0x6F,
    0x6E, 0x76, 0x31, 0x64, 0x5F, 0x31, 0x5F, 0x32, 0x2F, 0x52, 0x65, 0x6C,
    0x75, 0x3B, 0x73, 0x65, 0x71, 0x75, 0x65, 0x6E, 0x74, 0x69, 0x61, 0x6C,
    0x5F, 0x31, 0x2F, 0x63, 0x6F, 0x6E, 0x76, 0x31, 0x64, 0x5F, 0x31, 0x5F,
    0x32, 0x2F, 0x42, 0x69, 0x61, 0x73, 0x41, 0x64, 0x64, 0x3B, 0x73, 0x65,
    0x71, 0x75, 0x65, 0x6E, 0x74, 0x69, 0x61, 0x6C, 0x5F, 0x31, 0x2F, 0x63,
    0x6F, 0x6E, 0x76, 0x31, 0x64, 0x5F, 0x31, 0x5F, 0x32, 0x2F, 0x53, 0x71,
    0x75, 0x65, 0x65, 0x7A, 0x65, 0x3B, 0x73, 0x65, 0x71, 0x75, 0x65, 0x6E,
    0x74, 0x69, 0x61, 0x6C, 0x5F, 0x31, 0x2F, 0x62, 0x61, 0x74, 0x63, 0x68,
    0x5F, 0x6E, 0x6F, 0x72, 0x6D, 0x61, 0x6C, 0x69, 0x7A, 0x61, 0x74, 0x69,
    0x6F, 0x6E, 0x5F, 0x31, 0x5F, 0x32, 0x2F, 0x62, 0x61, 0x74, 0x63, 0x68,
    0x6E, 0x6F, 0x72, 0x6D, 0x2F, 0x6D, 0x75, 0x6C, 0x00, 0x00, 0x00, 0x00,
    0x04, 0x00, 0x00, 0x00, 0x01, 0x00, 0x00, 0x00, 0x01, 0x00, 0x00, 0x00,
    0x4B, 0x00, 0x00, 0x00, 0x20, 0x00, 0x00, 0x00, 0x6E, 0xE4, 0xFF, 0xFF,
    0x00, 0x00, 0x00, 0x01, 0x18, 0x00, 0x00, 0x00, 0x28, 0x00, 0x00, 0x00,
    0x48, 0x00, 0x00, 0x00, 0x20, 0x00, 0x00, 0x00, 0x00, 0x00, 0x00, 0x09,
    0xF0, 0x00, 0x00, 0x00, 0x04, 0x00, 0x00, 0x00, 0xFF, 0xFF, 0xFF, 0xFF,
    0x01, 0x00, 0x00, 0x00, 0x4B, 0x00, 0x00, 0x00, 0x20, 0x00, 0x00, 0x00,
    0x5C, 0xE4, 0xFF, 0xFF, 0x08, 0x00, 0x00, 0x00, 0x14, 0x00, 0x00, 0x00,
    0x01, 0x00, 0x00, 0x00, 0x80, 0xFF, 0xFF, 0xFF, 0xFF, 0xFF, 0xFF, 0xFF,
    0x00, 0x00, 0x00, 0x00, 0x01, 0x00, 0x00, 0x00, 0x85, 0x93, 0x69, 0x3E,
    0xAD, 0x00, 0x00, 0x00, 0x73, 0x65, 0x71, 0x75, 0x65, 0x6E, 0x74, 0x69,
    0x61, 0x6C, 0x5F, 0x31, 0x2F, 0x63, 0x6F, 0x6E, 0x76, 0x31, 0x64, 0x5F,
    0x31, 0x5F, 0x32, 0x2F, 0x52, 0x65, 0x6C, 0x75, 0x3B, 0x73, 0x65, 0x71,
    0x75, 0x65, 0x6E, 0x74, 0x69, 0x61, 0x6C, 0x5F, 0x31, 0x2F, 0x63, 0x6F,
    0x6E, 0x76, 0x31, 0x64, 0x5F, 0x31, 0x5F, 0x32, 0x2F, 0x42, 0x69, 0x61,
    0x73, 0x41, 0x64, 0x64, 0x3B, 0x73, 0x65, 0x71, 0x75, 0x65, 0x6E, 0x74,
    0x69, 0x61, 0x6C, 0x5F, 0x31, 0x2F, 0x63, 0x6F, 0x6E, 0x76, 0x31, 0x64,
    0x5F, 0x31, 0x5F, 0x32, 0x2F, 0x63, 0x6F, 0x6E, 0x76, 0x6F, 0x6C, 0x75,
    0x74, 0x69, 0x6F, 0x6E, 0x2F, 0x53, 0x71, 0x75, 0x65, 0x65, 0x7A, 0x65,
    0x3B, 0x73, 0x65, 0x71, 0x75, 0x65, 0x6E, 0x74, 0x69, 0x61, 0x6C, 0x5F,
    0x31, 0x2F, 0x63, 0x6F, 0x6E, 0x76, 0x31, 0x64, 0x5F, 0x31, 0x5F, 0x32,
    0x2F, 0x53, 0x71, 0x75, 0x65, 0x65, 0x7A, 0x65, 0x3B, 0x73, 0x65, 0x71,
    0x75, 0x65, 0x6E, 0x74, 0x69, 0x61, 0x6C, 0x5F, 0x31, 0x2F, 0x63, 0x6F,
    0x6E, 0x76, 0x31, 0x64, 0x5F, 0x31, 0x5F, 0x32, 0x2F, 0x63, 0x6F, 0x6E,
    0x76, 0x6F, 0x6C, 0x75, 0x74, 0x69, 0x6F, 0x6E, 0x31, 0x00, 0x00, 0x00,
    0x04, 0x00, 0x00, 0x00, 0x01, 0x00, 0x00, 0x00, 0x01, 0x00, 0x00, 0x00,
    0x4B, 0x00, 0x00, 0x00, 0x20, 0x00, 0x00, 0x00, 0x8E, 0xE5, 0xFF, 0xFF,
    0x00, 0x00, 0x00, 0x01, 0x18, 0x00, 0x00, 0x00, 0x28, 0x00, 0x00, 0x00,
    0x44, 0x00, 0x00, 0x00, 0x1F, 0x00, 0x00, 0x00, 0x00, 0x00, 0x00, 0x09,
    0x6C, 0x00, 0x00, 0x00, 0x04, 0x00, 0x00, 0x00, 0xFF, 0xFF, 0xFF, 0xFF,
    0x01, 0x00, 0x00, 0x00, 0x4B, 0x00, 0x00, 0x00, 0x10, 0x00, 0x00, 0x00,
    0x7C, 0xE5, 0xFF, 0xFF, 0x08, 0x00, 0x00, 0x00, 0x10, 0x00, 0x00, 0x00,
    0x01, 0x00, 0x00, 0x00, 0x84, 0xFF, 0xFF, 0xFF, 0xFF, 0xFF, 0xFF, 0xFF,
    0x01, 0x00, 0x00, 0x00, 0x45, 0x2D, 0x66, 0x3E, 0x2E, 0x00, 0x00, 0x00,
    0x73, 0x65, 0x71, 0x75, 0x65, 0x6E, 0x74, 0x69, 0x61, 0x6C, 0x5F, 0x31,
    0x2F, 0x63, 0x6F, 0x6E, 0x76, 0x31, 0x64, 0x5F, 0x31, 0x5F, 0x32, 0x2F,
    0x63, 0x6F, 0x6E, 0x76, 0x6F, 0x6C, 0x75, 0x74, 0x69, 0x6F, 0x6E, 0x2F,
    0x45, 0x78, 0x70, 0x61, 0x6E, 0x64, 0x44, 0x69, 0x6D, 0x73, 0x00, 0x00,
    0x04, 0x00, 0x00, 0x00, 0x01, 0x00, 0x00, 0x00, 0x01, 0x00, 0x00, 0x00,
    0x4B, 0x00, 0x00, 0x00, 0x10, 0x00, 0x00, 0x00, 0x2A, 0xE6, 0xFF, 0xFF,
    0x00, 0x00, 0x00, 0x01, 0x18, 0x00, 0x00, 0x00, 0x24, 0x00, 0x00, 0x00,
    0x40, 0x00, 0x00, 0x00, 0x1E, 0x00, 0x00, 0x00, 0x00, 0x00, 0x00, 0x09,
    0x68, 0x00, 0x00, 0x00, 0x03, 0x00, 0x00, 0x00, 0xFF, 0xFF, 0xFF, 0xFF,
    0x4B, 0x00, 0x00, 0x00, 0x10, 0x00, 0x00, 0x00, 0x14, 0xE6, 0xFF, 0xFF,
    0x08, 0x00, 0x00, 0x00, 0x10, 0x00, 0x00, 0x00, 0x01, 0x00, 0x00, 0x00,
    0x84, 0xFF, 0xFF, 0xFF, 0xFF, 0xFF, 0xFF, 0xFF, 0x01, 0x00, 0x00, 0x00,
    0x45, 0x2D, 0x66, 0x3E, 0x2F, 0x00, 0x00, 0x00, 0x73, 0x65, 0x71, 0x75,
    0x65, 0x6E, 0x74, 0x69, 0x61, 0x6C, 0x5F, 0x31, 0x2F, 0x6D, 0x61, 0x78,
    0x5F, 0x70, 0x6F, 0x6F, 0x6C, 0x69, 0x6E, 0x67, 0x31, 0x64, 0x5F, 0x31,
    0x2F, 0x4D, 0x61, 0x78, 0x50, 0x6F, 0x6F, 0x6C, 0x31, 0x64, 0x2F, 0x53,
    0x71, 0x75, 0x65, 0x65, 0x7A, 0x65, 0x31, 0x00, 0x03, 0x00, 0x00, 0x00,
    0x01, 0x00, 0x00, 0x00, 0x4B, 0x00, 0x00, 0x00, 0x10, 0x00, 0x00, 0x00,
    0xBE, 0xE6, 0xFF, 0xFF, 0x00, 0x00, 0x00, 0x01, 0x18, 0x00, 0x00, 0x00,
    0x28, 0x00, 0x00, 0x00, 0x48, 0x00, 0x00, 0x00, 0x1D, 0x00, 0x00, 0x00,
    0x00, 0x00, 0x00, 0x09, 0x68, 0x00, 0x00, 0x00, 0x04, 0x00, 0x00, 0x00,
    0xFF, 0xFF, 0xFF, 0xFF, 0x01, 0x00, 0x00, 0x00, 0x4B, 0x00, 0x00, 0x00,
    0x10, 0x00, 0x00, 0x00, 0xAC, 0xE6, 0xFF, 0xFF, 0x08, 0x00, 0x00, 0x00,
    0x14, 0x00, 0x00, 0x00, 0x01, 0x00, 0x00, 0x00, 0x84, 0xFF, 0xFF, 0xFF,
    0xFF, 0xFF, 0xFF, 0xFF, 0x00, 0x00, 0x00, 0x00, 0x01, 0x00, 0x00, 0x00,
    0x45, 0x2D, 0x66, 0x3E, 0x26, 0x00, 0x00, 0x00, 0x73, 0x65, 0x71, 0x75,
    0x65, 0x6E, 0x74, 0x69, 0x61, 0x6C, 0x5F, 0x31, 0x2F, 0x6D, 0x61, 0x78,
    0x5F, 0x70, 0x6F, 0x6F, 0x6C, 0x69, 0x6E, 0x67, 0x31, 0x64, 0x5F, 0x31,
    0x2F, 0x4D, 0x61, 0x78, 0x50, 0x6F, 0x6F, 0x6C, 0x31, 0x64, 0x00, 0x00,
    0x04, 0x00, 0x00, 0x00, 0x01, 0x00, 0x00, 0x00, 0x01, 0x00, 0x00, 0x00,
    0x4B, 0x00, 0x00, 0x00, 0x10, 0x00, 0x00, 0x00, 0x56, 0xE7, 0xFF, 0xFF,
    0x00, 0x00, 0x00, 0x01, 0x18, 0x00, 0x00, 0x00, 0x28, 0x00, 0x00, 0x00,
    0x48, 0x00, 0x00, 0x00, 0x1C, 0x00, 0x00, 0x00, 0x00, 0x00, 0x00, 0x09,
    0x74, 0x00, 0x00, 0x00, 0x04, 0x00, 0x00, 0x00, 0xFF, 0xFF, 0xFF, 0xFF,
    0x01, 0x00, 0x00, 0x00, 0x96, 0x00, 0x00, 0x00, 0x10, 0x00, 0x00, 0x00,
    0x44, 0xE7, 0xFF, 0xFF, 0x08, 0x00, 0x00, 0x00, 0x14, 0x00, 0x00, 0x00,
    0x01, 0x00, 0x00, 0x00, 0x84, 0xFF, 0xFF, 0xFF, 0xFF, 0xFF, 0xFF, 0xFF,
    0x00, 0x00, 0x00, 0x00, 0x01, 0x00, 0x00, 0x00, 0x45, 0x2D, 0x66, 0x3E,
    0x31, 0x00, 0x00, 0x00, 0x73, 0x65, 0x71, 0x75, 0x65, 0x6E, 0x74, 0x69,
    0x61, 0x6C, 0x5F, 0x31, 0x2F, 0x6D, 0x61, 0x78, 0x5F, 0x70, 0x6F, 0x6F,
    0x6C, 0x69, 0x6E, 0x67, 0x31, 0x64, 0x5F, 0x31, 0x2F, 0x4D, 0x61, 0x78,
    0x50, 0x6F, 0x6F, 0x6C, 0x31, 0x64, 0x2F, 0x45, 0x78, 0x70, 0x61, 0x6E,
    0x64, 0x44, 0x69, 0x6D, 0x73, 0x00, 0x00, 0x00, 0x04, 0x00, 0x00, 0x00,
    0x01, 0x00, 0x00, 0x00, 0x01, 0x00, 0x00, 0x00, 0x96, 0x00, 0x00, 0x00,
    0x10, 0x00, 0x00, 0x00, 0xFA, 0xE7, 0xFF, 0xFF, 0x00, 0x00, 0x00, 0x01,
    0x18, 0x00, 0x00, 0x00, 0x24, 0x00, 0x00, 0x00, 0x44, 0x00, 0x00, 0x00,
    0x1B, 0x00, 0x00, 0x00, 0x00, 0x00, 0x00, 0x09, 0x88, 0x01, 0x00, 0x00,
    0x03, 0x00, 0x00, 0x00, 0xFF, 0xFF, 0xFF, 0xFF, 0x96, 0x00, 0x00, 0x00,
    0x10, 0x00, 0x00, 0x00, 0xE4, 0xE7, 0xFF, 0xFF, 0x08, 0x00, 0x00, 0x00,
    0x14, 0x00, 0x00, 0x00, 0x01, 0x00, 0x00, 0x00, 0x84, 0xFF, 0xFF, 0xFF,
    0xFF, 0xFF, 0xFF, 0xFF, 0x00, 0x00, 0x00, 0x00, 0x01, 0x00, 0x00, 0x00,
    0x45, 0x2D, 0x66, 0x3E, 0x49, 0x01, 0x00, 0x00, 0x73, 0x65, 0x71, 0x75,
    0x65, 0x6E, 0x74, 0x69, 0x61, 0x6C, 0x5F, 0x31, 0x2F, 0x62, 0x61, 0x74,
    0x63, 0x68, 0x5F, 0x6E, 0x6F, 0x72, 0x6D, 0x61, 0x6C, 0x69, 0x7A, 0x61,
    0x74, 0x69, 0x6F, 0x6E, 0x5F, 0x31, 0x2F, 0x62, 0x61, 0x74, 0x63, 0x68,
    0x6E, 0x6F, 0x72, 0x6D, 0x2F, 0x61, 0x64, 0x64, 0x5F, 0x31, 0x3B, 0x73,
    0x65, 0x71, 0x75, 0x65, 0x6E, 0x74, 0x69, 0x61, 0x6C, 0x5F, 0x31, 0x2F,
    0x63, 0x6F, 0x6E, 0x76, 0x31, 0x64, 0x5F, 0x31, 0x2F, 0x63, 0x6F, 0x6E,
    0x76, 0x6F, 0x6C, 0x75, 0x74, 0x69, 0x6F, 0x6E, 0x2F, 0x53, 0x71, 0x75,
    0x65, 0x65, 0x7A, 0x65, 0x3B, 0x73, 0x65, 0x71, 0x75, 0x65, 0x6E, 0x74,
    0x69, 0x61, 0x6C, 0x5F, 0x31, 0x2F, 0x62, 0x61, 0x74, 0x63, 0x68, 0x5F,
    0x6E, 0x6F, 0x72, 0x6D, 0x61, 0x6C, 0x69, 0x7A, 0x61, 0x74, 0x69, 0x6F,
    0x6E, 0x5F, 0x31, 0x2F, 0x62, 0x61, 0x74, 0x63, 0x68, 0x6E, 0x6F, 0x72,
    0x6D, 0x2F, 0x6D, 0x75, 0x6C, 0x5F, 0x31, 0x3B, 0x73, 0x65, 0x71, 0x75,
    0x65, 0x6E, 0x74, 0x69, 0x61, 0x6C, 0x5F, 0x31, 0x2F, 0x63, 0x6F, 0x6E,
    0x76, 0x31, 0x64, 0x5F, 0x31, 0x2F, 0x52, 0x65, 0x6C, 0x75, 0x3B, 0x73,
    0x65, 0x71, 0x75, 0x65, 0x6E, 0x74, 0x69, 0x61, 0x6C, 0x5F, 0x31, 0x2F,
    0x63, 0x6F, 0x6E, 0x76, 0x31, 0x64, 0x5F, 0x31, 0x2F, 0x42, 0x69, 0x61,
    0x73, 0x41, 0x64, 0x64, 0x3B, 0x73, 0x65, 0x71, 0x75, 0x65, 0x6E, 0x74,
    0x69, 0x61, 0x6C, 0x5F, 0x31, 0x2F, 0x63, 0x6F, 0x6E, 0x76, 0x31, 0x64,
    0x5F, 0x31, 0x2F, 0x53, 0x71, 0x75, 0x65, 0x65, 0x7A, 0x65, 0x3B, 0x73,
    0x65, 0x71, 0x75, 0x65, 0x6E, 0x74, 0x69, 0x61, 0x6C, 0x5F, 0x31, 0x2F,
    0x62, 0x61, 0x74, 0x63, 0x68, 0x5F, 0x6E, 0x6F, 0x72, 0x6D, 0x61, 0x6C,
    0x69, 0x7A, 0x61, 0x74, 0x69, 0x6F, 0x6E, 0x5F, 0x31, 0x2F, 0x62, 0x61,
    0x74, 0x63, 0x68, 0x6E, 0x6F, 0x72, 0x6D, 0x2F, 0x6D, 0x75, 0x6C, 0x3B,
    0x73, 0x65, 0x71, 0x75, 0x65, 0x6E, 0x74, 0x69, 0x61, 0x6C, 0x5F, 0x31,
    0x2F, 0x62, 0x61, 0x74, 0x63, 0x68, 0x5F, 0x6E, 0x6F, 0x72, 0x6D, 0x61,
    0x6C, 0x69, 0x7A, 0x61, 0x74, 0x69, 0x6F, 0x6E, 0x5F, 0x31, 0x2F, 0x62,
    0x61, 0x74, 0x63, 0x68, 0x6E, 0x6F, 0x72, 0x6D, 0x2F, 0x73, 0x75, 0x62,
    0x31, 0x00, 0x00, 0x00, 0x03, 0x00, 0x00, 0x00, 0x01, 0x00, 0x00, 0x00,
    0x96, 0x00, 0x00, 0x00, 0x10, 0x00, 0x00, 0x00, 0xAE, 0xE9, 0xFF, 0xFF,
    0x00, 0x00, 0x00, 0x01, 0x18, 0x00, 0x00, 0x00, 0x28, 0x00, 0x00, 0x00,
    0x44, 0x00, 0x00, 0x00, 0x1A, 0x00, 0x00, 0x00, 0x00, 0x00, 0x00, 0x09,
    0x88, 0x01, 0x00, 0x00, 0x04, 0x00, 0x00, 0x00, 0xFF, 0xFF, 0xFF, 0xFF,
    0x01, 0x00, 0x00, 0x00, 0x96, 0x00, 0x00, 0x00, 0x10, 0x00, 0x00, 0x00,
    0x9C, 0xE9, 0xFF, 0xFF, 0x08, 0x00, 0x00, 0x00, 0x10, 0x00, 0x00, 0x00,
    0x01, 0x00, 0x00, 0x00, 0x84, 0xFF, 0xFF, 0xFF, 0xFF, 0xFF, 0xFF, 0xFF,
    0x01, 0x00, 0x00, 0x00, 0x45, 0x2D, 0x66, 0x3E, 0x48, 0x01, 0x00, 0x00,
    0x73, 0x65, 0x71, 0x75, 0x65, 0x6E, 0x74, 0x69, 0x61, 0x6C, 0x5F, 0x31,
    0x2F, 0x62, 0x61, 0x74, 0x63, 0x68, 0x5F, 0x6E, 0x6F, 0x72, 0x6D, 0x61,
    0x6C, 0x69, 0x7A, 0x61, 0x74, 0x69, 0x6F, 0x6E, 0x5F, 0x31, 0x2F, 0x62,
    0x61, 0x74, 0x63, 0x68, 0x6E, 0x6F, 0x72, 0x6D, 0x2F, 0x61, 0x64, 0x64,
    0x5F, 0x31, 0x3B, 0x73, 0x65, 0x71, 0x75, 0x65, 0x6E, 0x74, 0x69, 0x61,
    0x6C, 0x5F, 0x31, 0x2F, 0x63, 0x6F, 0x6E, 0x76, 0x31, 0x64, 0x5F, 0x31,
    0x2F, 0x63, 0x6F, 0x6E, 0x76, 0x6F, 0x6C, 0x75, 0x74, 0x69, 0x6F, 0x6E,
    0x2F, 0x53, 0x71, 0x75, 0x65, 0x65, 0x7A, 0x65, 0x3B, 0x73, 0x65, 0x71,
    0x75, 0x65, 0x6E, 0x74, 0x69, 0x61, 0x6C, 0x5F, 0x31, 0x2F, 0x62, 0x61,
    0x74, 0x63, 0x68, 0x5F, 0x6E, 0x6F, 0x72, 0x6D, 0x61, 0x6C, 0x69, 0x7A,
    0x61, 0x74, 0x69, 0x6F, 0x6E, 0x5F, 0x31, 0x2F, 0x62, 0x61, 0x74, 0x63,
    0x68, 0x6E, 0x6F, 0x72, 0x6D, 0x2F, 0x6D, 0x75, 0x6C, 0x5F, 0x31, 0x3B,
    0x73, 0x65, 0x71, 0x75, 0x65, 0x6E, 0x74, 0x69, 0x61, 0x6C, 0x5F, 0x31,
    0x2F, 0x63, 0x6F, 0x6E, 0x76, 0x31, 0x64, 0x5F, 0x31, 0x2F, 0x52, 0x65,
    0x6C, 0x75, 0x3B, 0x73, 0x65, 0x71, 0x75, 0x65, 0x6E, 0x74, 0x69, 0x61,
    0x6C, 0x5F, 0x31, 0x2F, 0x63, 0x6F, 0x6E, 0x76, 0x31, 0x64, 0x5F, 0x31,
    0x2F, 0x42, 0x69, 0x61, 0x73, 0x41, 0x64, 0x64, 0x3B, 0x73, 0x65, 0x71,
    0x75, 0x65, 0x6E, 0x74, 0x69, 0x61, 0x6C, 0x5F, 0x31, 0x2F, 0x63, 0x6F,
    0x6E, 0x76, 0x31, 0x64, 0x5F, 0x31, 0x2F, 0x53, 0x71, 0x75, 0x65, 0x65,
    0x7A, 0x65, 0x3B, 0x73, 0x65, 0x71, 0x75, 0x65, 0x6E, 0x74, 0x69, 0x61,
    0x6C, 0x5F, 0x31, 0x2F, 0x62, 0x61, 0x74, 0x63, 0x68, 0x5F, 0x6E, 0x6F,
    0x72, 0x6D, 0x61, 0x6C, 0x69, 0x7A, 0x61, 0x74, 0x69, 0x6F, 0x6E, 0x5F,
    0x31, 0x2F, 0x62, 0x61, 0x74, 0x63, 0x68, 0x6E, 0x6F, 0x72, 0x6D, 0x2F,
    0x6D, 0x75, 0x6C, 0x3B, 0x73, 0x65, 0x71, 0x75, 0x65, 0x6E, 0x74, 0x69,
    0x61, 0x6C, 0x5F, 0x31, 0x2F, 0x62, 0x61, 0x74, 0x63, 0x68, 0x5F, 0x6E,
    0x6F, 0x72, 0x6D, 0x61, 0x6C, 0x69, 0x7A, 0x61, 0x74, 0x69, 0x6F, 0x6E,
    0x5F, 0x31, 0x2F, 0x62, 0x61, 0x74, 0x63, 0x68, 0x6E, 0x6F, 0x72, 0x6D,
    0x2F, 0x73, 0x75, 0x62, 0x00, 0x00, 0x00, 0x00, 0x04, 0x00, 0x00, 0x00,
    0x01, 0x00, 0x00, 0x00, 0x01, 0x00, 0x00, 0x00, 0x96, 0x00, 0x00, 0x00,
    0x10, 0x00, 0x00, 0x00, 0x66, 0xEB, 0xFF, 0xFF, 0x00, 0x00, 0x00, 0x01,
    0x18, 0x00, 0x00, 0x00, 0x28, 0x00, 0x00, 0x00, 0x48, 0x00, 0x00, 0x00,
    0x19, 0x00, 0x00, 0x00, 0x00, 0x00, 0x00, 0x09, 0x28, 0x01, 0x00, 0x00,
    0x04, 0x00, 0x00, 0x00, 0xFF, 0xFF, 0xFF, 0xFF, 0x01, 0x00, 0x00, 0x00,
    0x96, 0x00, 0x00, 0x00, 0x10, 0x00, 0x00, 0x00, 0x54, 0xEB, 0xFF, 0xFF,
    0x08, 0x00, 0x00, 0x00, 0x14, 0x00, 0x00, 0x00, 0x01, 0x00, 0x00, 0x00,
    0x84, 0xFF, 0xFF, 0xFF, 0xFF, 0xFF, 0xFF, 0xFF, 0x00, 0x00, 0x00, 0x00,
    0x01, 0x00, 0x00, 0x00, 0x45, 0x2D, 0x66, 0x3E, 0xE4, 0x00, 0x00, 0x00,
    0x73, 0x65, 0x71, 0x75, 0x65, 0x6E, 0x74, 0x69, 0x61, 0x6C, 0x5F, 0x31,
    0x2F, 0x62, 0x61, 0x74, 0x63, 0x68, 0x5F, 0x6E, 0x6F, 0x72, 0x6D, 0x61,
    0x6C, 0x69, 0x7A, 0x61, 0x74, 0x69, 0x6F, 0x6E, 0x5F, 0x31, 0x2F, 0x62,
    0x61, 0x74, 0x63, 0x68, 0x6E, 0x6F, 0x72, 0x6D, 0x2F, 0x6D, 0x75, 0x6C,
    0x5F, 0x31, 0x3B, 0x73, 0x65, 0x71, 0x75, 0x65, 0x6E, 0x74, 0x69, 0x61,
    0x6C, 0x5F, 0x31, 0x2F, 0x63, 0x6F, 0x6E, 0x76, 0x31, 0x64, 0x5F, 0x31,
    0x2F, 0x63, 0x6F, 0x6E, 0x76, 0x6F, 0x6C, 0x75, 0x74, 0x69, 0x6F, 0x6E,
    0x2F, 0x53, 0x71, 0x75, 0x65, 0x65, 0x7A, 0x65, 0x3B, 0x73, 0x65, 0x71,
    0x75, 0x65, 0x6E, 0x74, 0x69, 0x61, 0x6C, 0x5F, 0x31, 0x2F, 0x63, 0x6F,
    0x6E, 0x76, 0x31, 0x64, 0x5F, 0x31, 0x2F, 0x52, 0x65, 0x6C, 0x75, 0x3B,
    0x73, 0x65, 0x71, 0x75, 0x65, 0x6E, 0x74, 0x69, 0x61, 0x6C, 0x5F, 0x31,
    0x2F, 0x63, 0x6F, 0x6E, 0x76, 0x31, 0x64, 0x5F, 0x31, 0x2F, 0x42, 0x69,
    0x61, 0x73, 0x41, 0x64, 0x64, 0x3B, 0x73, 0x65, 0x71, 0x75, 0x65, 0x6E,
    0x74, 0x69, 0x61, 0x6C, 0x5F, 0x31, 0x2F, 0x63, 0x6F, 0x6E, 0x76, 0x31,
    0x64, 0x5F, 0x31, 0x2F, 0x53, 0x71, 0x75, 0x65, 0x65, 0x7A, 0x65, 0x3B,
    0x73, 0x65, 0x71, 0x75, 0x65, 0x6E, 0x74, 0x69, 0x61, 0x6C, 0x5F, 0x31,
    0x2F, 0x62, 0x61, 0x74, 0x63, 0x68, 0x5F, 0x6E, 0x6F, 0x72, 0x6D, 0x61,
    0x6C, 0x69, 0x7A, 0x61, 0x74, 0x69, 0x6F, 0x6E, 0x5F, 0x31, 0x2F, 0x62,
    0x61, 0x74, 0x63, 0x68, 0x6E, 0x6F, 0x72, 0x6D, 0x2F, 0x6D, 0x75, 0x6C,
    0x00, 0x00, 0x00, 0x00, 0x04, 0x00, 0x00, 0x00, 0x01, 0x00, 0x00, 0x00,
    0x01, 0x00, 0x00, 0x00, 0x96, 0x00, 0x00, 0x00, 0x10, 0x00, 0x00, 0x00,
    0xBE, 0xEC, 0xFF, 0xFF, 0x00, 0x00, 0x00, 0x01, 0x18, 0x00, 0x00, 0x00,
    0x28, 0x00, 0x00, 0x00, 0x44, 0x00, 0x00, 0x00, 0x18, 0x00, 0x00, 0x00,
    0x00, 0x00, 0x00, 0x09, 0xE0, 0x00, 0x00, 0x00, 0x04, 0x00, 0x00, 0x00,
    0xFF, 0xFF, 0xFF, 0xFF, 0x01, 0x00, 0x00, 0x00, 0x96, 0x00, 0x00, 0x00,
    0x10, 0x00, 0x00, 0x00, 0xAC, 0xEC, 0xFF, 0xFF, 0x08, 0x00, 0x00, 0x00,
    0x10, 0x00, 0x00, 0x00, 0x01, 0x00, 0x00, 0x00, 0x80, 0xFF, 0xFF, 0xFF,
    0xFF, 0xFF, 0xFF, 0xFF, 0x01, 0x00, 0x00, 0x00, 0x7D, 0xF5, 0x61, 0x3E,
    0xA3, 0x00, 0x00, 0x00, 0x73, 0x65, 0x71, 0x75, 0x65, 0x6E, 0x74, 0x69,
    0x61, 0x6C, 0x5F, 0x31, 0x2F, 0x63, 0x6F, 0x6E, 0x76, 0x31, 0x64, 0x5F,
    0x31, 0x2F, 0x52, 0x65, 0x6C, 0x75, 0x3B, 0x73, 0x65, 0x71, 0x75, 0x65,
    0x6E, 0x74, 0x69, 0x61, 0x6C, 0x5F, 0x31, 0x2F, 0x63, 0x6F, 0x6E, 0x76,
    0x31, 0x64, 0x5F, 0x31, 0x2F, 0x42, 0x69, 0x61, 0x73, 0x41, 0x64, 0x64,
    0x3B, 0x73, 0x65, 0x71, 0x75, 0x65, 0x6E, 0x74, 0x69, 0x61, 0x6C, 0x5F,
    0x31, 0x2F, 0x63, 0x6F, 0x6E, 0x76, 0x31, 0x64, 0x5F, 0x31, 0x2F, 0x63,
    0x6F, 0x6E, 0x76, 0x6F, 0x6C, 0x75, 0x74, 0x69, 0x6F, 0x6E, 0x2F, 0x53,
    0x71, 0x75, 0x65, 0x65, 0x7A, 0x65, 0x3B, 0x73, 0x65, 0x71, 0x75, 0x65,
    0x6E, 0x74, 0x69, 0x61, 0x6C, 0x5F, 0x31, 0x2F, 0x63, 0x6F, 0x6E, 0x76,
    0x31, 0x64, 0x5F, 0x31, 0x2F, 0x53, 0x71, 0x75, 0x65, 0x65, 0x7A, 0x65,
    0x3B, 0x73, 0x65, 0x71, 0x75, 0x65, 0x6E, 0x74, 0x69, 0x61, 0x6C, 0x5F,
    0x31, 0x2F, 0x63, 0x6F, 0x6E, 0x76, 0x31, 0x64, 0x5F, 0x31, 0x2F, 0x63,
    0x6F, 0x6E, 0x76, 0x6F, 0x6C, 0x75, 0x74, 0x69, 0x6F, 0x6E, 0x31, 0x00,
    0x04, 0x00, 0x00, 0x00, 0x01, 0x00, 0x00, 0x00, 0x01, 0x00, 0x00, 0x00,
    0x96, 0x00, 0x00, 0x00, 0x10, 0x00, 0x00, 0x00, 0xCE, 0xED, 0xFF, 0xFF,
    0x00, 0x00, 0x00, 0x01, 0x18, 0x00, 0x00, 0x00, 0x28, 0x00, 0x00, 0x00,
    0x48, 0x00, 0x00, 0x00, 0x17, 0x00, 0x00, 0x00, 0x00, 0x00, 0x00, 0x09,
    0x70, 0x00, 0x00, 0x00, 0x04, 0x00, 0x00, 0x00, 0xFF, 0xFF, 0xFF, 0xFF,
    0x01, 0x00, 0x00, 0x00, 0x96, 0x00, 0x00, 0x00, 0x04, 0x00, 0x00, 0x00,
    0xBC, 0xED, 0xFF, 0xFF, 0x08, 0x00, 0x00, 0x00, 0x14, 0x00, 0x00, 0x00,
    0x01, 0x00, 0x00, 0x00, 0xDD, 0xFF, 0xFF, 0xFF, 0xFF, 0xFF, 0xFF, 0xFF,
    0x00, 0x00, 0x00, 0x00, 0x01, 0x00, 0x00, 0x00, 0x71, 0x89, 0x2F, 0x3D,
    0x2C, 0x00, 0x00, 0x00, 0x73, 0x65, 0x71, 0x75, 0x65, 0x6E, 0x74, 0x69,
    0x61, 0x6C, 0x5F, 0x31, 0x2F, 0x63, 0x6F, 0x6E, 0x76, 0x31, 0x64, 0x5F,
    0x31, 0x2F, 0x63, 0x6F, 0x6E, 0x76, 0x6F, 0x6C, 0x75, 0x74, 0x69, 0x6F,
    0x6E, 0x2F, 0x45, 0x78, 0x70, 0x61, 0x6E, 0x64, 0x44, 0x69, 0x6D, 0x73,
    0x00, 0x00, 0x00, 0x00, 0x04, 0x00, 0x00, 0x00, 0x01, 0x00, 0x00, 0x00,
    0x01, 0x00, 0x00, 0x00, 0x96, 0x00, 0x00, 0x00, 0x04, 0x00, 0x00, 0x00,
    0xC2, 0xEE, 0xFF, 0xFF, 0x00, 0x00, 0x00, 0x01, 0x14, 0x00, 0x00, 0x00,
    0xE8, 0x00, 0x00, 0x00, 0x16, 0x00, 0x00, 0x00, 0x00, 0x00, 0x00, 0x09,
    0x04, 0x01, 0x00, 0x00, 0x44, 0xEE, 0xFF, 0xFF, 0x08, 0x00, 0x00, 0x00,
    0x8C, 0x00, 0x00, 0x00, 0x10, 0x00, 0x00, 0x00, 0x00, 0x00, 0x00, 0x00,
    0x00, 0x00, 0x00, 0x00, 0x00, 0x00, 0x00, 0x00, 0x00, 0x00, 0x00, 0x00,
    0x00, 0x00, 0x00, 0x00, 0x00, 0x00, 0x00, 0x00, 0x00, 0x00, 0x00, 0x00,
    0x00, 0x00, 0x00, 0x00, 0x00, 0x00, 0x00, 0x00, 0x00, 0x00, 0x00, 0x00,
    0x00, 0x00, 0x00, 0x00, 0x00, 0x00, 0x00, 0x00, 0x00, 0x00, 0x00, 0x00,
    0x00, 0x00, 0x00, 0x00, 0x00, 0x00, 0x00, 0x00, 0x00, 0x00, 0x00, 0x00,
    0x00, 0x00, 0x00, 0x00, 0x00, 0x00, 0x00, 0x00, 0x00, 0x00, 0x00, 0x00,
    0x00, 0x00, 0x00, 0x00, 0x00, 0x00, 0x00, 0x00, 0x00, 0x00, 0x00, 0x00,
    0x00, 0x00, 0x00, 0x00, 0x00, 0x00, 0x00, 0x00, 0x00, 0x00, 0x00, 0x00,
    0x00, 0x00, 0x00, 0x00, 0x00, 0x00, 0x00, 0x00, 0x00, 0x00, 0x00, 0x00,
    0x00, 0x00, 0x00, 0x00, 0x00, 0x00, 0x00, 0x00, 0x00, 0x00, 0x00, 0x00,
    0x00, 0x00, 0x00, 0x00, 0x00, 0x00, 0x00, 0x00, 0x10, 0x00, 0x00, 0x00,
    0x36, 0xD3, 0x20, 0x3B, 0x69, 0x7E, 0x17, 0x3B, 0x4C, 0x1B, 0x22, 0x3B,
    0x76, 0x07, 0x06, 0x3B, 0x46, 0x37, 0x2A, 0x3B, 0xF8, 0xDC, 0x19, 0x3B,
    0x24, 0x08, 0x21, 0x3B, 0x7E, 0xE6, 0x16, 0x3B, 0x6B, 0x12, 0x2D, 0x3B,
    0x33, 0x34, 0x1F, 0x3B, 0x7B, 0xC6, 0x00, 0x3B, 0x5D, 0xEC, 0x2B, 0x3B,
    0x78, 0x8D, 0xF4, 0x3A, 0xEF, 0x05, 0x0D, 0x3B, 0x03, 0xCF, 0x42, 0x3B,
    0xA8, 0x76, 0x17, 0x3B, 0x21, 0x00, 0x00, 0x00, 0x73, 0x65, 0x71, 0x75,
    0x65, 0x6E, 0x74, 0x69, 0x61, 0x6C, 0x5F, 0x31, 0x2F, 0x63, 0x6F, 0x6E,
    0x76, 0x31, 0x64, 0x5F, 0x31, 0x2F, 0x63, 0x6F, 0x6E, 0x76, 0x6F, 0x6C,
    0x75, 0x74, 0x69, 0x6F, 0x6E, 0x00, 0x00, 0x00, 0x04, 0x00, 0x00, 0x00,
    0x10, 0x00, 0x00, 0x00, 0x01, 0x00, 0x00, 0x00, 0x07, 0x00, 0x00, 0x00,
    0x04, 0x00, 0x00, 0x00, 0xF2, 0xEF, 0xFF, 0xFF, 0x00, 0x00, 0x00, 0x01,
    0x14, 0x00, 0x00, 0x00, 0xE4, 0x00, 0x00, 0x00, 0x15, 0x00, 0x00, 0x00,
    0x00, 0x00, 0x00, 0x02, 0x80, 0x01, 0x00, 0x00, 0x74, 0xEF, 0xFF, 0xFF,
    0x08, 0x00, 0x00, 0x00, 0x88, 0x00, 0x00, 0x00, 0x10, 0x00, 0x00, 0x00,
    0x00, 0x00, 0x00, 0x00, 0x00, 0x00, 0x00, 0x00, 0x00, 0x00, 0x00, 0x00,
    0x00, 0x00, 0x00, 0x00, 0x00, 0x00, 0x00, 0x00, 0x00, 0x00, 0x00, 0x00,
    0x00, 0x00, 0x00, 0x00, 0x00, 0x00, 0x00, 0x00, 0x00, 0x00, 0x00, 0x00,
    0x00, 0x00, 0x00, 0x00, 0x00, 0x00, 0x00, 0x00, 0x00, 0x00, 0x00, 0x00,
    0x00, 0x00, 0x00, 0x00, 0x00, 0x00, 0x00, 0x00, 0x00, 0x00, 0x00, 0x00,
    0x00, 0x00, 0x00, 0x00, 0x00, 0x00, 0x00, 0x00, 0x00, 0x00, 0x00, 0x00,
    0x00, 0x00, 0x00, 0x00, 0x00, 0x00, 0x00, 0x00, 0x00, 0x00, 0x00, 0x00,
    0x00, 0x00, 0x00, 0x00, 0x00, 0x00, 0x00, 0x00, 0x00, 0x00, 0x00, 0x00,
    0x00, 0x00, 0x00, 0x00, 0x00, 0x00, 0x00, 0x00, 0x00, 0x00, 0x00, 0x00,
    0x00, 0x00, 0x00, 0x00, 0x00, 0x00, 0x00, 0x00, 0x00, 0x00, 0x00, 0x00,
    0x00, 0x00, 0x00, 0x00, 0x00, 0x00, 0x00, 0x00, 0x10, 0x00, 0x00, 0x00,
    0x74, 0x8D, 0xDC, 0x38, 0x7F, 0xC1, 0xCF, 0x38, 0x62, 0x4F, 0xDE, 0x38,
    0x1E, 0xCE, 0xB7, 0x38, 0x57, 0x6E, 0xE9, 0x38, 0x51, 0x01, 0xD3, 0x38,
    0x0A, 0xD6, 0xDC, 0x38, 0x28, 0xF1, 0xCE, 0x38, 0x05, 0x59, 0xED, 0x38,
    0x50, 0x54, 0xDA, 0x38, 0xA2, 0x99, 0xB0, 0x38, 0xC2, 0xC5, 0xEB, 0x38,
    0x01, 0xB0, 0xA7, 0x38, 0x8A, 0x65, 0xC1, 0x38, 0x1A, 0x94, 0x05, 0x39,
    0xDC, 0xB6, 0xCF, 0x38, 0xA2, 0x00, 0x00, 0x00, 0x73, 0x65, 0x71, 0x75,
    0x65, 0x6E, 0x74, 0x69, 0x61, 0x6C, 0x5F, 0x31, 0x2F, 0x63, 0x6F, 0x6E,
    0x76, 0x31, 0x64, 0x5F, 0x31, 0x2F, 0x52, 0x65, 0x6C, 0x75, 0x3B, 0x73,
    0x65, 0x71, 0x75, 0x65, 0x6E, 0x74, 0x69, 0x61, 0x6C, 0x5F, 0x31, 0x2F,
    0x63, 0x6F, 0x6E, 0x76, 0x31, 0x64, 0x5F, 0x31, 0x2F, 0x42, 0x69, 0x61,
    0x73, 0x41, 0x64, 0x64, 0x3B, 0x73, 0x65, 0x71, 0x75, 0x65, 0x6E, 0x74,
    0x69, 0x61, 0x6C, 0x5F, 0x31, 0x2F, 0x63, 0x6F, 0x6E, 0x76, 0x31, 0x64,
    0x5F, 0x31, 0x2F, 0x63, 0x6F, 0x6E, 0x76, 0x6F, 0x6C, 0x75, 0x74, 0x69,
    0x6F, 0x6E, 0x2F, 0x53, 0x71, 0x75, 0x65, 0x65, 0x7A, 0x65, 0x3B, 0x73,
    0x65, 0x71, 0x75, 0x65, 0x6E, 0x74, 0x69, 0x61, 0x6C, 0x5F, 0x31, 0x2F,
    0x63, 0x6F, 0x6E, 0x76, 0x31, 0x64, 0x5F, 0x31, 0x2F, 0x53, 0x71, 0x75,
    0x65, 0x65, 0x7A, 0x65, 0x3B, 0x73, 0x65, 0x71, 0x75, 0x65, 0x6E, 0x74,
    0x69, 0x61, 0x6C, 0x5F, 0x31, 0x2F, 0x63, 0x6F, 0x6E, 0x76, 0x31, 0x64,
    0x5F, 0x31, 0x2F, 0x63, 0x6F, 0x6E, 0x76, 0x6F, 0x6C, 0x75, 0x74, 0x69,
    0x6F, 0x6E, 0x00, 0x00, 0x01, 0x00, 0x00, 0x00, 0x10, 0x00, 0x00, 0x00,
    0x92, 0xF1, 0xFF, 0xFF, 0x00, 0x00, 0x00, 0x01, 0x14, 0x00, 0x00, 0x00,
    0x34, 0x00, 0x00, 0x00, 0x14, 0x00, 0x00, 0x00, 0x00, 0x00, 0x00, 0x09,
    0x60, 0x00, 0x00, 0x00, 0x14, 0xF1, 0xFF, 0xFF, 0x08, 0x00, 0x00, 0x00,
    0x14, 0x00, 0x00, 0x00, 0x01, 0x00, 0x00, 0x00, 0x80, 0xFF, 0xFF, 0xFF,
    0xFF, 0xFF, 0xFF, 0xFF, 0x00, 0x00, 0x00, 0x00, 0x01, 0x00, 0x00, 0x00,
    0x8B, 0x81, 0x00, 0x3E, 0x30, 0x00, 0x00, 0x00, 0x73, 0x65, 0x71, 0x75,
    0x65, 0x6E, 0x74, 0x69, 0x61, 0x6C, 0x5F, 0x31, 0x2F, 0x62, 0x61, 0x74,
    0x63, 0x68, 0x5F, 0x6E, 0x6F, 0x72, 0x6D, 0x61, 0x6C, 0x69, 0x7A, 0x61,
    0x74, 0x69, 0x6F, 0x6E, 0x5F, 0x31, 0x2F, 0x62, 0x61, 0x74, 0x63, 0x68,
    0x6E, 0x6F, 0x72, 0x6D, 0x2F, 0x6D, 0x75, 0x6C, 0x00, 0x00, 0x00, 0x00,
    0x01, 0x00, 0x00, 0x00, 0x10, 0x00, 0x00, 0x00, 0x12, 0xF2, 0xFF, 0xFF,
    0x00, 0x00, 0x00, 0x01, 0x14, 0x00, 0x00, 0x00, 0x34, 0x00, 0x00, 0x00,
    0x13, 0x00, 0x00, 0x00, 0x00, 0x00, 0x00, 0x09, 0x60, 0x00, 0x00, 0x00,
    0x94, 0xF1, 0xFF, 0xFF, 0x08, 0x00, 0x00, 0x00, 0x14, 0x00, 0x00, 0x00,
    0x01, 0x00, 0x00, 0x00, 0x72, 0x00, 0x00, 0x00, 0x00, 0x00, 0x00, 0x00,
    0x00, 0x00, 0x00, 0x00, 0x01, 0x00, 0x00, 0x00, 0x0A, 0xF9, 0x86, 0x3B,
    0x30, 0x00, 0x00, 0x00, 0x73, 0x65, 0x71, 0x75, 0x65, 0x6E, 0x74, 0x69,
    0x61, 0x6C, 0x5F, 0x31, 0x2F, 0x62, 0x61, 0x74, 0x63, 0x68, 0x5F, 0x6E,
    0x6F, 0x72, 0x6D, 0x61, 0x6C, 0x69, 0x7A, 0x61, 0x74, 0x69, 0x6F, 0x6E,
    0x5F, 0x31, 0x2F, 0x62, 0x61, 0x74, 0x63, 0x68, 0x6E, 0x6F, 0x72, 0x6D,
    0x2F, 0x73, 0x75, 0x62, 0x00, 0x00, 0x00, 0x00, 0x01, 0x00, 0x00, 0x00,
    0x10, 0x00, 0x00, 0x00, 0x92, 0xF2, 0xFF, 0xFF, 0x00, 0x00, 0x00, 0x01,
    0x14, 0x00, 0x00, 0x00, 0xA8, 0x01, 0x00, 0x00, 0x12, 0x00, 0x00, 0x00,
    0x00, 0x00, 0x00, 0x09, 0xC4, 0x01, 0x00, 0x00, 0x14, 0xF2, 0xFF, 0xFF,
    0x08, 0x00, 0x00, 0x00, 0x0C, 0x01, 0x00, 0x00, 0x20, 0x00, 0x00, 0x00,
    0x00, 0x00, 0x00, 0x00, 0x00, 0x00, 0x00, 0x00, 0x00, 0x00, 0x00, 0x00,
    0x00, 0x00, 0x00, 0x00, 0x00, 0x00, 0x00, 0x00, 0x00, 0x00, 0x00, 0x00,
    0x00, 0x00, 0x00, 0x00, 0x00, 0x00, 0x00, 0x00, 0x00, 0x00, 0x00, 0x00,
    0x00, 0x00, 0x00, 0x00, 0x00, 0x00, 0x00, 0x00, 0x00, 0x00, 0x00, 0x00,
    0x00, 0x00, 0x00, 0x00, 0x00, 0x00, 0x00, 0x00, 0x00, 0x00, 0x00, 0x00,
    0x00, 0x00, 0x00, 0x00, 0x00, 0x00, 0x00, 0x00, 0x00, 0x00, 0x00, 0x00,
    0x00, 0x00, 0x00, 0x00, 0x00, 0x00, 0x00, 0x00, 0x00, 0x00, 0x00, 0x00,
    0x00, 0x00, 0x00, 0x00, 0x00, 0x00, 0x00, 0x00, 0x00, 0x00, 0x00, 0x00,
    0x00, 0x00, 0x00, 0x00, 0x00, 0x00, 0x00, 0x00, 0x00, 0x00, 0x00, 0x00,
    0x00, 0x00, 0x00, 0x00, 0x00, 0x00, 0x00, 0x00, 0x00, 0x00, 0x00, 0x00,
    0x00, 0x00, 0x00, 0x00, 0x00, 0x00, 0x00, 0x00, 0x00, 0x00, 0x00, 0x00,
    0x00, 0x00, 0x00, 0x00, 0x00, 0x00, 0x00, 0x00, 0x00, 0x00, 0x00, 0x00,
    0x00, 0x00, 0x00, 0x00, 0x00, 0x00, 0x00, 0x00, 0x00, 0x00, 0x00, 0x00,
    0x00, 0x00, 0x00, 0x00, 0x00, 0x00, 0x00, 0x00, 0x00, 0x00, 0x00, 0x00,
    0x00, 0x00, 0x00, 0x00, 0x00, 0x00, 0x00, 0x00, 0x00, 0x00, 0x00, 0x00,
    0x00, 0x00, 0x00, 0x00, 0x00, 0x00, 0x00, 0x00, 0x00, 0x00, 0x00, 0x00,
    0x00, 0x00, 0x00, 0x00, 0x00, 0x00, 0x00, 0x00, 0x00, 0x00, 0x00, 0x00,
    0x00, 0x00, 0x00, 0x00, 0x00, 0x00, 0x00, 0x00, 0x00, 0x00, 0x00, 0x00,
    0x00, 0x00, 0x00, 0x00, 0x00, 0x00, 0x00, 0x00, 0x00, 0x00, 0x00, 0x00,
    0x00, 0x00, 0x00, 0x00, 0x00, 0x00, 0x00, 0x00, 0x00, 0x00, 0x00, 0x00,
    0x00, 0x00, 0x00, 0x00, 0x00, 0x00, 0x00, 0x00, 0x00, 0x00, 0x00, 0x00,
    0x00, 0x00, 0x00, 0x00, 0x00, 0x00, 0x00, 0x00, 0x20, 0x00, 0x00, 0x00,
    0xCB, 0x9B, 0x1F, 0x3B, 0xC5, 0x08, 0x52, 0x3B, 0xFF, 0x2C, 0x2C, 0x3B,
    0xE1, 0x16, 0x48, 0x3B, 0x83, 0x7E, 0x3E, 0x3B, 0x34, 0x89, 0x21, 0x3B,
    0xD8, 0x24, 0x2C, 0x3B, 0x4E, 0x18, 0x15, 0x3B, 0x7E, 0x47, 0x09, 0x3B,
    0xFD, 0x24, 0x1E, 0x3B, 0xD6, 0xFA, 0x10, 0x3B, 0xCC, 0xF3, 0x49, 0x3B,
    0x6E, 0x3C, 0x39, 0x3B, 0x31, 0xD4, 0x10, 0x3B, 0x46, 0x74, 0x66, 0x3B,
    0xBC, 0xB2, 0x5C, 0x3B, 0x4E, 0xED, 0x25, 0x3B, 0x36, 0x1F, 0x19, 0x3B,
    0x34, 0x57, 0x03, 0x3B, 0xAD, 0x03, 0x29, 0x3B, 0x0F, 0xDE, 0x40, 0x3B,
    0x96, 0x78, 0x1C, 0x3B, 0xCE, 0x48, 0x26, 0x3B, 0x1F, 0x35, 0x2D, 0x3B,
    0x10, 0x60, 0x4D, 0x3B, 0x71, 0xE0, 0x36, 0x3B, 0x37, 0x89, 0x44, 0x3B,
    0xC3, 0x67, 0x26, 0x3B, 0xD1, 0xC7, 0x34, 0x3B, 0x99, 0xE5, 0x30, 0x3B,
    0x5C, 0x01, 0x10, 0x3B, 0x17, 0x74, 0x40, 0x3B, 0x23, 0x00, 0x00, 0x00,
    0x73, 0x65, 0x71, 0x75, 0x65, 0x6E, 0x74, 0x69, 0x61, 0x6C, 0x5F, 0x31,
    0x2F, 0x63, 0x6F, 0x6E, 0x76, 0x31, 0x64, 0x5F, 0x31, 0x5F, 0x32, 0x2F,
    0x63, 0x6F, 0x6E, 0x76, 0x6F, 0x6C, 0x75, 0x74, 0x69, 0x6F, 0x6E, 0x00,
    0x04, 0x00, 0x00, 0x00, 0x20, 0x00, 0x00, 0x00, 0x01, 0x00, 0x00, 0x00,
    0x05, 0x00, 0x00, 0x00, 0x10, 0x00, 0x00, 0x00, 0x82, 0xF4, 0xFF, 0xFF,
    0x00, 0x00, 0x00, 0x01, 0x14, 0x00, 0x00, 0x00, 0xA8, 0x01, 0x00, 0x00,
    0x11, 0x00, 0x00, 0x00, 0x00, 0x00, 0x00, 0x02, 0x50, 0x02, 0x00, 0x00,
    0x04, 0xF4, 0xFF, 0xFF, 0x08, 0x00, 0x00, 0x00, 0x0C, 0x01, 0x00, 0x00,
    0x20, 0x00, 0x00, 0x00, 0x00, 0x00, 0x00, 0x00, 0x00, 0x00, 0x00, 0x00,
    0x00, 0x00, 0x00, 0x00, 0x00, 0x00, 0x00, 0x00, 0x00, 0x00, 0x00, 0x00,
    0x00, 0x00, 0x00, 0x00, 0x00, 0x00, 0x00, 0x00, 0x00, 0x00, 0x00, 0x00,
    0x00, 0x00, 0x00, 0x00, 0x00, 0x00, 0x00, 0x00, 0x00, 0x00, 0x00, 0x00,
    0x00, 0x00, 0x00, 0x00, 0x00, 0x00, 0x00, 0x00, 0x00, 0x00, 0x00, 0x00,
    0x00, 0x00, 0x00, 0x00, 0x00, 0x00, 0x00, 0x00, 0x00, 0x00, 0x00, 0x00,
    0x00, 0x00, 0x00, 0x00, 0x00, 0x00, 0x00, 0x00, 0x00, 0x00, 0x00, 0x00,
    0x00, 0x00, 0x00, 0x00, 0x00, 0x00, 0x00, 0x00, 0x00, 0x00, 0x00, 0x00,
    0x00, 0x00, 0x00, 0x00, 0x00, 0x00, 0x00, 0x00, 0x00, 0x00, 0x00, 0x00,
    0x00, 0x00, 0x00, 0x00, 0x00, 0x00, 0x00, 0x00, 0x00, 0x00, 0x00, 0x00,
    0x00, 0x00, 0x00, 0x00, 0x00, 0x00, 0x00, 0x00, 0x00, 0x00, 0x00, 0x00,
    0x00, 0x00, 0x00, 0x00, 0x00, 0x00, 0x00, 0x00, 0x00, 0x00, 0x00, 0x00,
    0x00, 0x00, 0x00, 0x00, 0x00, 0x00, 0x00, 0x00, 0x00, 0x00, 0x00, 0x00,
    0x00, 0x00, 0x00, 0x00, 0x00, 0x00, 0x00, 0x00, 0x00, 0x00, 0x00, 0x00,
    0x00, 0x00, 0x00, 0x00, 0x00, 0x00, 0x00, 0x00, 0x00, 0x00, 0x00, 0x00,
    0x00, 0x00, 0x00, 0x00, 0x00, 0x00, 0x00, 0x00, 0x00, 0x00, 0x00, 0x00,
    0x00, 0x00, 0x00, 0x00, 0x00, 0x00, 0x00, 0x00, 0x00, 0x00, 0x00, 0x00,
    0x00, 0x00, 0x00, 0x00, 0x00, 0x00, 0x00, 0x00, 0x00, 0x00, 0x00, 0x00,
    0x00, 0x00, 0x00, 0x00, 0x00, 0x00, 0x00, 0x00, 0x00, 0x00, 0x00, 0x00,
    0x00, 0x00, 0x00, 0x00, 0x00, 0x00, 0x00, 0x00, 0x00, 0x00, 0x00, 0x00,
    0x00, 0x00, 0x00, 0x00, 0x00, 0x00, 0x00, 0x00, 0x00, 0x00, 0x00, 0x00,
    0x00, 0x00, 0x00, 0x00, 0x00, 0x00, 0x00, 0x00, 0x00, 0x00, 0x00, 0x00,
    0x20, 0x00, 0x00, 0x00, 0x32, 0x82, 0x0F, 0x3A, 0x05, 0xD9, 0x3C, 0x3A,
    0xDF, 0xCE, 0x1A, 0x3A, 0xF0, 0xE7, 0x33, 0x3A, 0x59, 0x47, 0x2B, 0x3A,
    0xD5, 0x3D, 0x11, 0x3A, 0x8B, 0xC7, 0x1A, 0x3A, 0x34, 0x0E, 0x06, 0x3A,
    0x04, 0xDD, 0xF6, 0x39, 0x32, 0x31, 0x0E, 0x3A, 0xFF, 0x5A, 0x02, 0x3A,
    0xC0, 0x94, 0x35, 0x3A, 0x0C, 0x8D, 0x26, 0x3A, 0x40, 0x38, 0x02, 0x3A,
    0x37, 0x35, 0x4F, 0x3A, 0x9C, 0x6F, 0x46, 0x3A, 0x8C, 0x30, 0x15, 0x3A,
    0x1E, 0xAD, 0x09, 0x3A, 0x25, 0x2F, 0xEC, 0x39, 0x31, 0xF7, 0x17, 0x3A,
    0x9C, 0x69, 0x2D, 0x3A, 0x02, 0xB0, 0x0C, 0x3A, 0xD1, 0x82, 0x15, 0x3A,
    0x5B, 0xBC, 0x1B, 0x3A, 0xA0, 0xA8, 0x38, 0x3A, 0xFC, 0x6D, 0x24, 0x3A,
    0x09, 0xB6, 0x30, 0x3A, 0xA6, 0x9E, 0x15, 0x3A, 0x7E, 0x8B, 0x22, 0x3A,
    0x8F, 0x0D, 0x1F, 0x3A, 0xB0, 0x7A, 0x01, 0x3A, 0x55, 0x0A, 0x2D, 0x3A,
    0xAC, 0x00, 0x00, 0x00, 0x73, 0x65, 0x71, 0x75, 0x65, 0x6E, 0x74, 0x69,
    0x61, 0x6C, 0x5F, 0x31, 0x2F, 0x63, 0x6F, 0x6E, 0x76, 0x31, 0x64, 0x5F,
    0x31, 0x5F, 0x32, 0x2F, 0x52, 0x65, 0x6C, 0x75, 0x3B, 0x73, 0x65, 0x71,
    0x75, 0x65, 0x6E, 0x74, 0x69, 0x61, 0x6C, 0x5F, 0x31, 0x2F, 0x63, 0x6F,
    0x6E, 0x76, 0x31, 0x64, 0x5F, 0x31, 0x5F, 0x32, 0x2F, 0x42, 0x69, 0x61,
    0x73, 0x41, 0x64, 0x64, 0x3B, 0x73, 0x65, 0x71, 0x75, 0x65, 0x6E, 0x74,
    0x69, 0x61, 0x6C, 0x5F, 0x31, 0x2F, 0x63, 0x6F, 0x6E, 0x76, 0x31, 0x64,
    0x5F, 0x31, 0x5F, 0x32, 0x2F, 0x63, 0x6F, 0x6E, 0x76, 0x6F, 0x6C, 0x75,
    0x74, 0x69, 0x6F, 0x6E, 0x2F, 0x53, 0x71, 0x75, 0x65, 0x65, 0x7A, 0x65,
    0x3B, 0x73, 0x65, 0x71, 0x75, 0x65, 0x6E, 0x74, 0x69, 0x61, 0x6C, 0x5F,
    0x31, 0x2F, 0x63, 0x6F, 0x6E, 0x76, 0x31, 0x64, 0x5F, 0x31, 0x5F, 0x32,
    0x2F, 0x53, 0x71, 0x75, 0x65, 0x65, 0x7A, 0x65, 0x3B, 0x73, 0x65, 0x71,
    0x75, 0x65, 0x6E, 0x74, 0x69, 0x61, 0x6C, 0x5F, 0x31, 0x2F, 0x63, 0x6F,
    0x6E, 0x76, 0x31, 0x64, 0x5F, 0x31, 0x5F, 0x32, 0x2F, 0x63, 0x6F, 0x6E,
    0x76, 0x6F, 0x6C, 0x75, 0x74, 0x69, 0x6F, 0x6E, 0x00, 0x00, 0x00, 0x00,
    0x01, 0x00, 0x00, 0x00, 0x20, 0x00, 0x00, 0x00, 0xF2, 0xF6, 0xFF, 0xFF,
    0x00, 0x00, 0x00, 0x01, 0x14, 0x00, 0x00, 0x00, 0x34, 0x00, 0x00, 0x00,
    0x10, 0x00, 0x00, 0x00, 0x00, 0x00, 0x00, 0x09, 0x60, 0x00, 0x00, 0x00,
    0x74, 0xF6, 0xFF, 0xFF, 0x08, 0x00, 0x00, 0x00, 0x14, 0x00, 0x00, 0x00,
    0x01, 0x00, 0x00, 0x00, 0x80, 0xFF, 0xFF, 0xFF, 0xFF, 0xFF, 0xFF, 0xFF,
    0x00, 0x00, 0x00, 0x00, 0x01, 0x00, 0x00, 0x00, 0xD1, 0xB8, 0x13, 0x3D,
    0x32, 0x00, 0x00, 0x00, 0x73, 0x65, 0x71, 0x75, 0x65, 0x6E, 0x74, 0x69,
    0x61, 0x6C, 0x5F, 0x31, 0x2F, 0x62, 0x61, 0x74, 0x63, 0x68, 0x5F, 0x6E,
    0x6F, 0x72, 0x6D, 0x61, 0x6C, 0x69, 0x7A, 0x61, 0x74, 0x69, 0x6F, 0x6E,
    0x5F, 0x31, 0x5F, 0x32, 0x2F, 0x62, 0x61, 0x74, 0x63, 0x68, 0x6E, 0x6F,
    0x72, 0x6D, 0x2F, 0x6D, 0x75, 0x6C, 0x00, 0x00, 0x01, 0x00, 0x00, 0x00,
    0x20, 0x00, 0x00, 0x00, 0x72, 0xF7, 0xFF, 0xFF, 0x00, 0x00, 0x00, 0x01,
    0x14, 0x00, 0x00, 0x00, 0x34, 0x00, 0x00, 0x00, 0x0F, 0x00, 0x00, 0x00,
    0x00, 0x00, 0x00, 0x09, 0x60, 0x00, 0x00, 0x00, 0xF4, 0xF6, 0xFF, 0xFF,
    0x08, 0x00, 0x00, 0x00, 0x14, 0x00, 0x00, 0x00, 0x01, 0x00, 0x00, 0x00,
    0x7F, 0x00, 0x00, 0x00, 0x00, 0x00, 0x00, 0x00, 0x00, 0x00, 0x00, 0x00,
    0x01, 0x00, 0x00, 0x00, 0x48, 0x57, 0x8C, 0x3B, 0x32, 0x00, 0x00, 0x00,
    0x73, 0x65, 0x71, 0x75, 0x65, 0x6E, 0x74, 0x69, 0x61, 0x6C, 0x5F, 0x31,
    0x2F, 0x62, 0x61, 0x74, 0x63, 0x68, 0x5F, 0x6E, 0x6F, 0x72, 0x6D, 0x61,
    0x6C, 0x69, 0x7A, 0x61, 0x74, 0x69, 0x6F, 0x6E, 0x5F, 0x31, 0x5F, 0x32,
    0x2F, 0x62, 0x61, 0x74, 0x63, 0x68, 0x6E, 0x6F, 0x72, 0x6D, 0x2F, 0x73,
